#version: 0.2 - Trained by `huggingface/tokenizers`
t h
i n
o n
Ġ a
r e
Ġ th
a l
Ġ p
Ġth e
Ġ c
a r
s i
t e
l e
o r
Ġ i
Ġ n
t i
e d
Ġ s
Ġ o
e n
Ġ l
Ġi s
e r
Ġn o
a s
e s
Ġ in
si on
Ġ e
Ġ m
r i
in g
d i
a c
Ġ b
u n
Ġo f
m p
o u
Ġ w
Ġa n
r al
re s
ti on
u m
u l
a n
Ġ t
g h
Ġan d
Ġ h
a te
Ġa re
gh t
Ġ f
m al
r o
Ġ ri
sion s
Ġc on
i l
f f
i c
Ġw i
Ġri ght
n e
ne um
Ġp neum
ff u
l y
Ġ v
t a
Ġ le
Ġthe re
Ġwi th
Ġe ffu
ar di
Ġp le
r a
u ral
un g
Ġple ural
mp res
Ġl ung
_ _
d ing
mpres sions
i d
Ġ si
m on
Ġc ardi
f t
en t
Ġle ft
in ding
inding s
Ġ re
Ġ d
o l
ar y
o m
Ġc h
th or
Ġt o
ul mon
e m
ulmon ary
a tion
Ġeffu sion
f indings
a x
Ġl o
or mal
thor ax
Ġpneum o
as t
Ġpneumo thorax
Ġ or
te r
ed i
an g
si s
c h
p p
i t
Ġi mpressions
Ġ un
ast in
edi astin
t u
e ar
Ġp ulmonary
b le
Ġs e
Ġc o
b e
Ġn ormal
ediastin al
p h
es t
p ac
le c
c e
v e
Ġb e
Ġp ro
s t
Ġo pac
c u
ou s
Ġs u
__ _
Ġ ___
s e
Ġd e
ate ral
Ġch est
Ġco mp
em a
Ġlo w
lec ta
Ġa te
Ġate lecta
e t
ang ed
h ou
Ġatelecta sis
Ġcardi om
ch anged
Ġun changed
it y
Ġse en
Ġa cu
e w
Ġacu te
Ġm il
Ġmil d
Ġ en
Ġcon s
Ġ ed
Ġp o
Ġsi l
hou et
Ġsil houet
ol id
Ġcons olid
Ġed ema
i a
Ġa t
Ġe x
Ġsilhouet te
Ġa s
Ġconsolid ation
Ġa pp
Ġt u
o c
Ġm o
d er
o g
i s
Ġlung s
Ġ di
ul ar
Ġp a
Ġcon t
l ar
ou r
Ġtu be
Ġc le
z e
Ġcle ar
Ġsi ze
il ar
Ġl i
oc al
v er
Ġ on
ear t
re d
Ġh eart
Ġ ra
Ġpneum on
Ġa b
Ġpneumon ia
Ġm ediastinal
o p
i mpressions
Ġe v
Ġf ocal
Ġcont our
en ce
te n
Ġra di
es s
ta ble
as c
i ti
ate d
og ra
te d
Ġs mal
e c
ri or
ogra ph
Ġcardi ac
Ġradi ograph
iti es
d ed
Ġin ter
Ġlow er
as e
Ġsmal l
a in
Ġcomp a
c re
Ġh as
Ġv asc
Ġ u
Ġs t
Ġcontour s
o w
i f
Ġev id
r ac
Ġcardiom ediastinal
der ate
ol um
Ġevid ence
Ġv olum
Ġs table
Ġcompa red
Ġch ang
Ġl ateral
Ġmo derate
v i
l i
Ġb il
m in
Ġbil ateral
Ġv i
Ġeffu sions
Ġapp ear
Ġo ver
in e
Ġp rior
Ġh ilar
Ġopac ity
pp er
Ġu pper
d y
Ġlo be
Ġp re
Ġvi ew
ti al
Ġ ti
r on
c ess
if ic
t ing
Ġpro cess
n ormal
ar k
cre as
a y
g e
g es
Ġs tu
op ulmonary
Ġcardi opulmonary
Ġf or
Ġvasc ular
res ent
Ġvolum es
l d
ic al
si tion
Ġstu dy
Ġc a
Ġa l
Ġopac ities
Ġab normal
l u
k e
vi ous
Ġp er
re n
a ble
creas ed
Ġpre vious
al y
a si
Ġ g
Ġpo sition
g ed
asi lar
em ent
a d
th er
Ġw e
Ġre m
u t
Ġti p
Ġwith in
Ġa p
ten t
e g
ri c
eg aly
Ġcardiom egaly
o t
Ġsu b
Ġw h
Ġli ke
Ġen lar
Ġlike ly
Ġm id
an t
a t
g m
v ed
Ġno ted
v al
Ġn ew
ti c
Ġin t
Ġin f
u e
Ġcon ges
in i
tu res
re m
ti ve
Ġli m
Ġ___ .
Ġ Ġ
ark able
s s
i ed
Ġno t
Ġb ase
l l
ro m
Ġcomp ar
ou t
Ġb ut
Ġun rem
Ġunrem arkable
is on
Ġcompar ison
ra gm
u c
Ġa g
a ph
Ġconges tion
i r
aph ragm
Ġi mp
Ġh em
Ġf rom
Ġchang e
Ġen d
Ġag ain
e ter
i b
ac ic
l ac
Ġo s
Ġbe en
Ġimp ro
Ġ 1
Ġinter val
d en
ti ent
Ġpa tient
Ġ___ ,
Ġin creased
ific ation
l a
Ġa or
p er
h e
ou ld
ic h
Ġwh ich
sis tent
Ġth is
Ġos se
Ġwith out
Ġosse ous
Ġm ay
Ġhem i
Ġlim it
Ġl ar
ti f
l ow
Ġs in
Ġ j
tu re
Ġre p
Ġca th
Ġcath eter
rac he
Ġlimit s
g n
Ġs li
Ġth or
Ġsli ght
r uc
Ġa ir
t s
Ġex a
Ġview s
ch y
Ġp or
d e
Ġsin ce
Ġenlar ged
Ġo ther
Ġ 2
Ġp resent
Ġo b
Ġb ib
Ġst ruc
Ġl ine
c lu
Ġsu g
Ġstruc tures
Ġrem ain
Ġpo s
ate s
ou gh
mon st
ter min
Ġbib asilar
Ġb as
t al
Ġabnormal ity
si ded
Ġ termin
Ġlar ge
di aphragm
Ġwe ll
monst r
Ġc ould
v c
Ġc m
Ġp lac
Ġh a
Ġm ini
Ġmini mal
u al
Ġinter s
Ġs vc
Ġre f
Ġinters ti
Ġhemi diaphragm
Ġde monstr
Ġchang es
Ġintersti tial
Ġi den
Ġiden tif
m a
p ri
ac h
Ġthor acic
Ġidentif ied
j ec
Ġsi gn
an ce
Ġpro jec
Ġd ue
Ġc al
n ot
Ġimpro ved
Ġref lec
ra tion
le v
Ġopac ification
om y
Ġb y
o ph
Ġapp ro
er n
ve l
al l
Ġre c
Ġslight ly
Ġc t
t ro
Ġde f
Ġst om
Ġstom ach
Ġrep resent
Ġappear ance
rache al
Ġcal c
Ġaor ta
v ic
Ġf rac
u s
Ġri b
in a
Ġinf ec
Ġex clu
Ġ res
Ġa d
Ġabnormal ities
ul a
Ġi ma
i se
p i
Ġf ron
b ly
Ġfron tal
u r
Ġdi s
Ġs p
Ġha ve
Ġp ic
ac t
Ġre tro
Ġc l
w ise
Ġradiograph s
Ġother wise
c ardi
Ġw or
ot racheal
Ġend otracheal
s o
tial ly
Ġs c
ar d
cardi ac
Ġcon sistent
in ed
Ġretro cardiac
x i
g ement
g est
Ġc ar
Ġpo st
Ġsug gest
ast ric
Ġal so
re e
Ġb o
Ġas s
Ġpos si
Ġh y
Ġc ent
Ġcl in
Ġb asilar
Ġclin ical
Ġcent ral
Ġmo re
l ated
Ġf indings
ula ture
Ġvasc ulature
Ġv en
Ġp ar
i z
o ve
Ġbas es
Ġmild ly
Ġab ove
Ġappear s
un c
Ġth an
Ġint act
c ern
Ġwe re
en ing
Ġcon cern
Ġpro min
q u
a tive
Ġex p
ren chy
ly ing
Ġpa renchy
Ġs h
Ġpic c
Ġtermin ates
Ġsi m
Ġs ter
Ġs om
Ġsim ilar
Ġsu per
ediastin um
Ġsign ific
ow e
og astric
Ġre g
pi ration
ron ch
o s
i on
Ġcar ina
Ġc an
Ġsignific ant
Ġmo st
n al
Ġde vic
Ġsu r
Ġle ad
Ġm ul
Ġrem o
cre ase
Ġj u
on e
Ġremain s
Ġinfec tion
re c
ve re
Ġa c
Ġsuper i
ta ined
Ġno d
Ġreg ion
Ġp ac
Ġch ron
Ġ k
Ġend s
Ġexa m
Ġbe low
iz ed
Ġt or
Ġexclu ded
Ġex ten
Ġob tained
unc tion
Ġchron ic
Ġdi se
Ġdise ase
t le
Ġm ark
Ġpro b
te rior
or t
Ġat ri
Ġreflec t
Ġap ical
Ġse vere
Ġf ree
er ative
Ġsilhouette s
Ġn as
owe ver
Ġh owever
Ġtor tu
Ġsp ine
Ġa r
g ular
Ġper sistent
a th
Ġven ous
r ing
Ġpa t
Ġnas ogastric
Ġint ra
Ġdef ini
Ġm ediastinum
Ġparenchy mal
Ġwor s
Ġl in
Ġj unction
Ġb ronch
si ve
mp h
Ġdi ff
lu id
Ġconcern ing
an ded
Ġk n
Ġas piration
Ġhy per
Ġv is
Ġdefini te
Ġc or
Ġe lev
Ġb on
Ġvis ual
Ġenlar gement
as s
st an
pri ate
Ġres ol
Ġappro priate
Ġv er
g er
Ġth at
Ġplac ement
p s
g en
Ġju gular
v id
u re
Ġpro vid
Ġpat chy
Ġe ar
Ġw as
Ġpor table
Ġh e
Ġprovid ed
Ġvisual ized
Ġvolum e
not omy
Ġster notomy
Ġf luid
Ġto p
Ġaor tic
Ġ 3
Ġe t
in f
Ġm edi
Ġatri um
Ġsub stan
Ġun der
y s
Ġexa min
ren t
Ġexamin ation
l ine
Ġs ta
Ġde creased
v en
t ting
Ġi f
Ġbe t
Ġg ro
ent ric
t y
Ġrec ent
Ġsom e
thor acic
Ġimpro v
e x
ren ic
d om
a ting
an d
Ġse tting
a bly
oph renic
Ġbon y
Ġco st
Ġcalc ification
Ġdi st
si ty
h ilar
pri ght
om m
Ġprojec ting
Ġ te
Ġass ess
Ġab dom
Ġv entric
Ġper i
Ġdi ffu
Ġdiffu se
c o
Ġpor t
g or
Ġle vel
Ġen gor
Ġintra thoracic
Ġd en
pac e
Ġsc ar
Ġfrac ture
Ġcan not
tu s
Ġp res
th ough
Ġsu pp
Ġal though
i ated
Ġno w
ow n
Ġover all
r an
Ġare as
Ġc li
Ġdevic es
Ġbo th
in u
Ġgro ss
Ġper sis
m ent
Ġlo c
Ġlin ear
Ġcost ophrenic
on g
Ġmul ti
or der
Ġsupp ort
Ġb order
Ġplac e
if ied
Ġdi aphragm
Ġfrac tures
Ġin crease
ĠĠ ĠĠ
u tion
Ġcli ps
ac es
Ġf ol
Ġdemonstr ated
Ġwi res
Ġinter nal
Ġbet ter
Ġexp anded
Ġan g
Ġi t
Ġs hou
Ġre lev
Ġrelev ant
te c
Ġhyper inf
Ġsta tus
Ġscar ring
Ġcalc ified
es oph
esoph a
Ġh il
Ġc ol
Ġm on
Ġprob ably
Ġang le
Ġd r
b es
Ġst and
al u
Ġev alu
Ġstand ard
Ġgross ly
Ġw all
Ġt rache
Ġfol low
or m
Ġpossi ble
Ġtortu ous
ate ly
Ġprevious ly
Ġrec omm
Ġrecomm en
vel op
Ġcont inu
Ġover t
m o
Ġapp rec
Ġkn own
Ġabdom en
o b
Ġde velop
Ġremo ved
Ġmon it
u le
or ing
Ġca v
Ġde gen
Ġdegen erative
Ġima ged
i g
Ġsug ges
Ġimprov ement
c ed
p ec
Ġu pright
Ġlead s
Ġmonit oring
p le
Ġelev ation
Ġob s
ul t
q ue
Ġunder lying
Ġl it
Ġlit tle
Ġd ra
ri b
Ġpromin ent
ri al
al ly
ys ema
Ġe mph
Ġlo ss
s pace
Ġnod ule
Ġair space
a k
Ġtermin ating
Ġemph ysema
Ġear li
xi m
Ġbas al
on d
Ġpos terior
ate r
Ġappro xim
Ġearli er
ic k
Ġapproxim ately
Ġth ick
Ġdemonstr ate
Ġmark ing
Ġb l
Ġth ough
Ġcon si
os ed
m m
Ġmarking s
Ġc our
Ġsuperi mp
Ġpromin ence
Ġ ro
Ġsub c
il t
Ġw ould
un ting
Ġde tec
Ġs ing
Ġsing le
Ġco mpres
Ġg re
k er
ema ker
r ough
Ġsuperimp osed
Ġdist al
Ġmedi an
Ġg i
Ġwors ening
ti ble
e ous
Ġcon f
Ġpac emaker
Ġcompa tible
Ġthick ening
la vi
Ġperi hilar
lavi an
Ġinf ilt
Ġsubc lavian
Ġmulti ple
Ġprojec ts
Ġgre ater
l ation
Ġover lying
g ical
Ġsubstan tial
ta tion
o sis
Ġhyperinf lated
Ġal ong
Ġgi ven
Ġdiff ic
ac ent
Ġad j
Ġth rough
Ġdiffic ult
Ġad v
Ġbl unting
Ġobs cu
Ġadj acent
or y
Ġare a
m e
Ġs o
Ġt rac
Ġn g
Ġshou ld
Ġ 4
Ġre si
s ure
Ġre la
te ric
Ġbilateral ly
Ġm ass
Ġd es
Ġventric le
Ġ qu
Ġsi de
Ġrela tive
Ġass oc
Ġpersis ts
Ġint o
Ġs ti
Ġassoc iated
Ġ___ :
Ġsuperi or
d le
p lac
Ġ esopha
Ġresi d
le te
Ġen teric
Ġmid dle
Ġinfilt r
Ġex tent
Ġin di
Ġc ro
t o
Ġdetec ted
co mp
Ġsub se
Ġcalcification s
at rial
Ġi j
Ġin clu
o atrial
v asc
Ġcol la
vasc ular
Ġsti ll
Ġcav oatrial
Ġwi den
er al
Ġdis plac
in al
Ġc om
Ġsign s
Ġcon st
Ġexten sive
Ġv e
Ġf ur
Ġconst ant
Ġfur ther
Ġresid ual
Ġin s
Ġmoderate ly
Ġch anged
e ed
st omy
Ġve in
Ġd ay
Ġc ur
ta il
Ġan y
Ġsur gical
' s
Ġsur f
d s
en ed
Ġborder line
Ġsuggest ing
Ġf i
c ath
o vascular
Ġo ut
Ġsugges tive
Ġcro w
Ġti ss
Ġdes c
Ġle ss
re ak
o stomy
y mm
ymm et
Ġresol ved
Ġlim i
Ġhil a
Ġst reak
Ġap ex
Ġima ge
Ġse ver
Ġdemonstr ates
Ġexclu de
Ġengor gement
Ġsurf aces
Ġtu bes
Ġcontinu ed
Ġcom b
Ġi ts
le d
ch n
Ġtrac e
Ġapprec ia
Ġcrow ding
Ġa er
ad e
Ġan terior
Ġsh ow
Ġte chn
Ġdiff e
Ġposition ing
Ġbo dy
Ġhemi thorax
Ġbronch ovascular
Ġadv an
Ġrecommen ded
Ġpar tially
Ġpac er
Ġconsolidation s
di tion
in c
Ġm ade
Ġden sity
p se
Ġdisplac ed
Ġwors ened
Ġsub tle
Ġcolla pse
Ġso ft
Ġthe se
ti ous
Ġinfec tious
Ġresol ution
Ġh i
Ġf il
Ġ z
creas ing
Ġ 5
u p
st ing
Ġlar ger
Ġrelative ly
la vic
Ġnod ular
Ġtrache ostomy
rec t
Ġevalu ation
l o
Ġde crease
Ġremo val
Ġcomb in
o re
Ġcomp lete
l ate
Ġh ern
Ġad dition
en ding
Ġdiffe ren
g res
e xi
Ġstreak y
exi sting
tic ular
Ġcombin ation
Ġp ig
ac k
tif ocal
Ġmul tifocal
Ġpig tail
Ġl y
i al
ymmet ric
Ġdevic e
Ġhern ia
Ġdef orm
b il
Ġ ess
w ard
Ġess en
r ant
Ġpor tion
Ġl ay
Ġac c
Ġminimal ly
Ġlay er
Ġessen tially
z y
Ġpro gres
d ay
Ġmark ed
i que
op erative
Ġcor re
ul ated
te b
e re
Ġlayer ing
Ġover lo
Ġtechn ique
Ġoverlo ad
xi mal
Ġin creasing
ath y
ad rant
Ġqu adrant
Ġvascular ity
e ld
un t
Ġfi eld
Ġengor ged
Ġpro ximal
ina ge
Ġdra inage
c y
Ġlimi ted
Ġse c
Ġprob able
Ġver teb
de red
Ġatelecta tic
Ġb ack
Ġsu p
Ġar ch
Ġsec ond
tu b
Ġconsi dered
op athy
un d
Ġpo ten
ĠĠĠĠ ĠĠĠĠ
Ġfil m
an eous
Ġesopha g
Ġsom ew
ro tic
Ġapprecia ble
h at
Ġh ia
Ġsomew hat
Ġly mph
Ġcur rent
Ġch f
t aneous
ge al
h o
Ġpossi bly
cu taneous
eed ing
Ġexten ds
Ġf eeding
Ġt ran
bil ity
o sity
Ġradiograph ic
a rent
Ġle ast
Ġtortu osity
Ġadvan ced
Ġf ul
Ġn on
Ġapp arent
se l
a m
Ġwiden ing
Ġd ual
Ġmid line
ent u
Ġsuggest s
Ġacc entu
Ġtran s
Ġa f
ec t
Ġaf ter
Ġinfiltr ate
Ġaer ation
ec ted
rib ution
Ġcompres sive
er i
Ġsub cutaneous
Ġti me
c le
Ġnodule s
Ġwh en
Ġm et
Ġver y
Ġas ymmetric
Ġv al
Ġexp ected
ter y
Ġdis cu
Ġhia tal
Ġz one
Ġcour s
Ġdiscu ss
v ing
Ġs a
gm ent
Ġar tery
Ġtiss ue
Ġd ob
Ġpoten tially
Ġre lated
ho ff
Ġte le
Ġtele ph
thor aces
Ġverteb ral
si ble
Ġloc ulated
es sel
Ġdiscuss ed
Ġv essel
a il
Ġsubstan tially
ĠĠ Ġ
te ri
Ġindi c
ic ated
ic ation
h a
Ġpossi bility
Ġpneumo thoraces
ten sion
d es
Ġrepresent s
mo derate
a tic
ol i
qu ent
p ic
c es
Ġassess ment
Ġelev ated
Ġconf lu
in y
Ġal low
Ġsubse quent
Ġt iny
Ġteleph one
Ġsu s
Ġno te
Ġdevelop ing
Ġpost operative
Ġcour se
Ġn ec
Ġper f
Ġear ly
Ġfollow up
Ġsignificant ly
on ent
Ġcomp onent
p ical
g ing
Ġtrache a
Ġpar ticular
Ġassess ed
Ġpres sure
Ġinclu ding
Ġallow ing
Ġval ve
Ġvessel s
f ore
Ġperf orm
Ġf is
Ġkn ob
Ġac comp
Ġreflec ting
te ro
Ġaccomp an
b ar
Ġperform ed
Ġrecommen d
Ġdesc ending
Ġlo bes
Ġster nal
er v
b g
ol og
Ġthor ac
Ġesophag us
Ġp ass
Ġto day
Ġca bg
Ġd ate
Ġe i
Ġcompres sion
oli osis
Ġa mo
Ġo ld
Ġhy p
Ġs tent
Ġventric ular
i gn
Ġc lavic
Ġdra in
Ġdifferen ces
Ġamo unt
o sition
a re
Ġapprec iated
cu r
di es
Ġs em
Ġconsi der
Ġs w
Ġha zy
ardi al
Ġsem i
Ġn ear
os cle
Ġm in
Ġsever ity
Ġsecond ary
Ġh ard
Ġp h
Ġconflu ent
p anded
Ġa ther
Ġather oscle
Ġdis ten
Ġshow s
g an
Ġsh i
s us
Ġshi ft
Ġsw an
Ġreflec ts
Ġver sus
om a
Ġthor ax
tub ated
Ġdeform ity
i ght
Ġpres ence
Ġde g
Ġin v
Ġden se
Ġwor se
Ġ 6
Ġvi sible
or al
Ġpass es
Ġaccompan ied
om in
pec t
Ġloc ation
w are
Ġ .
Ġlin es
Ġsup ine
Ġful ly
a red
Ġhi st
Ġg ran
Ġdeg ree
si de
Ġhist ory
Ġobscu red
p d
Ġgran ul
Ġnec k
Ġbe fore
Ġe l
Ġp red
n ess
Ġhard ware
di st
gan z
Ġon ly
Ġhe tero
Ġatheroscle rotic
Ġp ect
Ġcomplete ly
Ġhetero gen
inc t
gment al
Ġpect oral
b hoff
Ġdob bhoff
Ġco pd
Ġpres um
Ġt w
cu s
it one
f ul
Ġcor rect
Ġrep lac
Ġper ic
Ġal l
Ġevalu ated
Ġparticular ly
Ġtw o
Ġinv ol
Ġmedi al
Ġpred omin
Ġexten ding
Ġheterogen eous
Ġcontinu es
Ġl ing
Ġp ul
Ġcorre lation
Ġparenchy ma
Ġf ib
Ġm ain
Ġsa me
Ġmin or
Ġsubse gmental
Ġei ther
Ġima ges
eri or
p re
ph al
um eral
st inct
dist ribution
Ġinf erior
li ke
Ġindi stinct
Ġcomp l
le r
Ġperic ardial
w e
Ġfollow ing
ra hilar
aly sis
Ġsin us
ce p
Ġ x
l p
Ġfis sure
Ġhe lp
Ġdevelop ed
Ġcours es
l der
Ġcompl ication
t omy
Ġm m
Ġsmal ler
Ġperi ph
Ġevid ent
Ġdevelop ment
Ġins piration
per itone
ro sis
ere x
Ġhyp erex
Ġres ul
Ġm al
un ded
z ed
Ġas pect
Ġd ed
Ġsever al
Ġded icated
Ġclinical ly
Ġf ail
Ġre distribution
Ġex cep
Ġrep e
Ġaddition al
Ġpre ced
u sion
Ġpersis t
Ġon e
rib ed
Ġro unded
Ġfail ure
Ġhe al
Ġrepresent ing
Ġthrough out
Ġpreced ing
Ġshou lder
en cy
ger y
Ġun f
Ġinfiltr ates
erv ical
Ġc ervical
Ġangle s
Ġsur gery
an sion
ad en
th e
Ġlymph aden
vi ew
Ġl uc
at or
Ġposition ed
Ġlymphaden opathy
ron o
res p
g ger
olog y
Ġin d
Ġcor resp
pre ad
Ġa x
Ġwi des
Ġwides pread
Ġg en
Ġax il
om ediastinum
Ġexa gger
Ġpneum omediastinum
Ġsc oliosis
Ġunf ol
i o
Ġrepe at
t ory
Ġra is
de f
pi ra
s ed
Ġhelp ful
pira tory
Ġimprov ing
Ġpar t
Ġle sion
Ġen ti
esopha geal
om e
u ration
Ġi ll
Ġre view
Ġcon v
Ġinvol ving
o in
Ġhi gh
ig uration
inc ing
Ġpul led
Ġconf iguration
Ġconv incing
def ined
unc ed
Ġp rono
Ġprono unced
o se
Ġnew ly
Ġju st
Ġsc an
t ated
Ġm u
Ġd o
Ġesopha geal
p ansion
Ġclavic le
Ġf inding
l at
Ġinf lated
as ta
ri s
Ġrecent ly
ronch ial
ex t
Ġmet asta
Ġn ext
Ġj oin
Ġu p
Ġima ging
Ġenti re
Ġg astric
Ġro tation
te red
Ġopacification s
Ġdesc ribed
Ġap ic
ol ar
ar ac
Ġhyperinf lation
Ġlo op
Ġwor ris
Ġworris ome
Ġ ge
Ġpredomin ant
Ġhil um
ti mal
Ġch arac
Ġclear ly
Ġheal ed
Ġstu dies
Ġplac ed
Ġprojec t
Ġca us
qu i
iz ation
Ġreplac ement
owe l
Ġatri al
Ġf lat
Ġt ra
c i
ĠĠĠĠĠĠĠĠ ĠĠĠĠĠĠĠĠ
Ġb owel
Ġcharac teri
ter n
Ġinf rahilar
Ġflat ten
Ġcor on
am eter
Ġ 8
Ġdi ameter
Ġprojec tion
Ġro tated
Ġg ast
Ġplacement s
Ġsp ec
Ġven ti
ex panded
Ġcomplication s
Ġg as
Ġwiden ed
Ġm ight
Ġab s
o d
Ġgast ro
ve olar
Ġl on
Ġrib s
Ġlon ger
Ġins piratory
cur rent
Ġn e
Ġex t
le vel
Ġexcep t
s c
Ġspec ific
d ra
Ġdiaphragm s
Ġcoron ary
Ġpo or
Ġsus pic
Ġal veolar
Ġwith dra
ta bly
Ġwithdra w
Ġapic es
Ġp late
ra y
Ġde p
Ġdi lated
Ġprogres sion
ro p
a v
Ġ 7
st ruc
rac h
or r
Ġmulti level
orr ha
Ġper ib
phal ic
i led
a que
u pright
Ġpa ged
Ġluc ency
it ral
ce phalic
Ġm itral
Ġhem orrha
Ġhe ad
lavic ular
Ġb rach
ce i
Ġmarked ly
a gn
u es
d uc
Ġdisten ded
Ġa li
Ġcol lec
b er
g in
Ġhemorrha ge
Ġb ia
si ti
ta in
m it
te s
le t
Ġali gn
y pical
Ġprogres sed
Ġs pace
Ġtiss ues
Ġdeform ities
n o
Ġbia pical
Ġm ar
Ġos te
Ġmal ign
Ġremain ing
Ġ 0
Ġcar inal
Ġg o
io cephalic
Ġrep osition
Ġo p
Ġbronch i
Ġbronch ial
Ġmetasta tic
an cy
we en
Ġbet ween
Ġdiffuse ly
Ġbrach iocephalic
l ain
Ġremain der
a g
Ġ1 0
Ġbon es
Ġb en
Ġob li
Ġfib rosis
Ġa den
ul ation
ad ow
Ġentire ly
ro und
Ġno tably
Ġregion s
Ġsh adow
Ġple ase
Ġmar gin
Ġf at
is ed
Ġcle ared
Ġperib ronchial
Ġre cei
Ġgranul oma
Ġf ran
Ġfran k
Ġmu ch
Ġpresum ed
Ġ y
Ġh umeral
Ġindistinct ness
rib u
Ġv ag
Ġsugges ted
Ġa v
Ġling ula
Ġth y
Ġn eed
ter nal
ven ous
Ġm e
Ġaden opathy
Ġmalign ancy
Ġ tension
di s
Ġlateral ly
pec ted
m s
Ġrecei ved
op aque
Ġgen er
Ġt ak
Ġgastro esophageal
Ġfield s
Ġven a
ro id
Ġt re
Ġdi agn
Ġcav a
Ġref er
ical ly
Ġa side
Ġf o
Ġh our
Ġposition s
zy g
Ġcollec tion
Ġadv ised
Ġa zyg
y si
Ġcorresp ond
Ġthy roid
um er
Ġex tubated
Ġabs ence
Ġspecific ally
Ġph ysi
Ġhemidiaphragm s
ec ta
Ġresul ts
Ġwithdraw n
Ġradi opaque
Ġunfol ded
Ġ es
Ġv ia
Ġperiph eral
Ġsp inal
Ġpar tial
Ġdo es
Ġhyper tension
comp lete
Ġappropriate ly
Ġsus pected
Ġob struc
Ġconges tive
Ġposterior ly
eter min
Ġright ward
Ġre late
Ġtrans venous
Ġben e
ur ing
as al
Ġin tubated
Ġvag ue
Ġbronch us
Ġbronchi ecta
Ġm as
mit ted
Ġor ogastric
Ġac co
Ġl um
Ġabdom inal
Ġw ed
Ġsu ch
tion al
Ġel ong
Ġd ated
at ment
qu es
Ġpredominant ly
Ġbib asal
Ġflatten ing
Ġh ad
etermin ate
Ġsub mitted
tec tomy
y ond
Ġbe yond
Ġobscu ration
Ġtak en
w ay
diaphragm atic
Ġcours ing
Ġc omm
Ġhil us
Ġdi c
id ent
Ġext rem
i pp
ic d
tub ation
ipp le
olum bar
Ġbronchiecta sis
Ġn ipple
Ġleft ward
en s
Ġthorac olumbar
Ġaccentu ated
Ġdis co
Ġbene ath
Ġco iled
Ġin c
Ġfo cus
Ġcorre late
i ally
Ġloc al
Ġhy d
Ġover li
Ġs eri
peritone um
Ġ 9
Ġhour s
Ġ r
Ġinclu ded
Ġpneumo peritoneum
Ġsh ort
s ur
ver y
Ġind eterminate
Ġpro s
i ous
Ġop timal
Ġf usion
siti es
Ġtre atment
Ġinc ident
em in
sur gical
Ġair way
Ġexagger ated
Ġdisco very
Ġdist ribution
Ġe ff
Ġ1 1
Ġdiagn osis
ail able
a p
Ġas c
g round
Ġaer ated
Ġjoin t
o den
Ġloop s
Ġme as
Ġback ground
Ġph one
pec ially
Ġventi lation
Ġes pecially
Ġb re
Ġden sities
Ġaccentu ate
Ġav ailable
Ġtra um
Ġsub diaphragmatic
le ad
he re
Ġde vi
eral ized
Ġrais es
ti s
Ġde comp
Ġen ding
Ġin let
Ġdecomp ens
Ġd oc
Ġpat tern
Ġbronch ogra
Ġp la
Ġf ore
e k
Ġm a
ec tion
te m
Ġre ticular
Ġful l
Ġgranul om
Ġat ypical
Ġcon current
Ġhyperex pansion
Ġfore ign
Ġin complete
Ġab out
Ġdisten tion
Ġdoc um
Ġpa th
w here
o thorax
Ġcomm un
mo st
Ġday s
Ġel se
u ff
Ġazyg os
t rac
Ġse e
Ġconf ir
Ġsi tu
Ġvein s
. ,
Ġsugges tion
ci an
Ġelse where
Ġle sions
ced ure
Ġphysi cian
Ġsi te
Ġpros the
Ġli es
Ġpar ts
Ġre trac
e ared
Ġd ou
Ġsuspic ious
Ġbronchogra ms
. :
Ġasc ending
Ġb i
Ġev en
ha ps
Ġdic tation
on es
Ġper haps
Ġbre ast
Ġc uff
ven tional
c er
Ġf e
Ġexp lain
Ġ (
Ġre de
Ġcurrent ly
l ary
en d
s pec
Ġbo dies
Ġm an
Ġar teri
Ġdecompens ation
Ġd emin
Ġet t
en te
spec ific
Ġarteri es
ente sis
Ġres ection
Ġsc at
Ġconfir m
Ġo c
Ġincomplete ly
Ġpac ing
es tion
Ġreview ed
Ġqu estion
Ġhyperex panded
a ture
es ter
Ġobscu ring
Ġdi alysis
Ġy ester
Ġyester day
as es
Ġaxil la
l ung
Ġloc ated
Ġcon ve
Ġz ones
Ġch o
Ġpresum ably
Ġdifferen tial
Ġra ther
Ġclavic ular
Ġapp eared
Ġaxil lary
Ġgo od
Ġpar at
Ġins er
Ġs ul
Ġb ul
Ġat ten
Ġparat racheal
u ous
n ing
Ġi r
Ġwh ere
Ġcon ventional
Ġdrain s
Ġcharacteri zed
Ġelong ation
Ġs en
Ġlum bar
Ġsi ded
peritone al
Ġwi re
Ġir re
Ġcl ose
Ġrefer ring
Ġscat tered
Ġirre gular
Ġof f
Ġres pec
Ġde monst
Ġwe ek
Ġcho lec
u se
Ġadvan c
Ġcons pic
Ġintra peritoneal
ys tectomy
Ġa icd
Ġs ke
Ġlimi tation
Ġapprecia bly
Ġrespec tive
Ġex ternal
Ġcur v
e ther
Ġb est
Ġor ig
Ġling ular
le tal
Ġresol ving
le no
Ġno tif
Ġcholec ystectomy
Ġg leno
Ġobscu res
Ġl ong
Ġde x
Ġske letal
Ġs y
Ġout side
o tic
Ġevalu ate
Ġdex tro
Ġsi x
Ġcommun icated
Ġsevere ly
Ġs he
Ġple u
Ġwh ether
Ġar tif
Ġseri es
Ġmark er
Ġev ent
pi te
Ġc e
Ġdob hoff
p osition
Ġ1 2
Ġsh ar
Ġdes pite
Ġmas sive
f luid
iti s
monstr ated
Ġob vious
Ġwed ge
Ġtraum a
Ġtermin ate
Ġshar p
Ġin j
Ġf und
Ġse gment
Ġpro cedure
Ġdevi ation
Ġe m
Ġse p
Ġno ting
c tomy
r y
Ġe ti
Ġreflec tive
Ġmass es
Ġal most
Ġsinus es
y ph
Ġobli que
Ġorig in
Ġfund us
Ġsc le
erv ation
ne l
Ġplate like
Ġdiaphragm atic
Ġc ta
Ġk yph
h umeral
mp t
low er
Ġa ge
Ġalign ment
ast ases
ain t
Ġmet astases
Ġappro ach
Ġcorrespond s
end ent
Ġf aint
ir d
f act
oph y
Ġexam s
Ġhe ight
Ġmid lung
Ġfull ness
r ast
Ġsa tis
Ġde tail
Ġsatis fact
en ted
Ġto ward
Ġnon specific
Ġlobe ctomy
h ed
Ġch in
Ġobs ervation
Ġperiph er
ten ded
x ation
Ġlarge ly
Ġcolla ps
Ġac cess
Ġmedi ally
te rial
Ġt racheal
Ġoste ophy
an nel
Ġsatisfact ory
j or
Ġconspic uous
Ġma jor
Ġcont rast
Ġreposition ed
Ġdep endent
Ġth ird
Ġnear ly
Ġaddition ally
Ġextrem e
Ġsul cus
Ġcollaps ed
c a
Ġdi rect
Ġgleno humeral
p id
ver se
Ġsuperior ly
Ġweek s
Ġhem o
Ġpla ques
e ur
ib er
la mm
qui red
Ġinf usion
Ġac rom
Ġprogres sive
Ġno de
Ġco ar
eur ys
or ted
ri ll
Ġres ult
Ġoverli es
Ġpro per
Ġcal iber
Ġpo in
Ġfis s
c um
Ġnotif ication
ib rill
Ġf our
Ġg ra
ibrill ator
ll ing
or d
Ġem b
v ening
Ġcatheter s
Ġco il
mpt om
Ġre duc
ra ting
ur y
Ġinj ury
si tive
ter m
all ic
Ġcol on
Ġincident al
Ġf ir
oc lavicular
Ġfi xation
Ġmet allic
Ġclear ing
Ġsy mptom
neum othorax
Ġradi ation
dis tended
Ġgener ator
Ġfir st
Ġcaus ed
Ġmeas uring
Ġb and
Ġresul ting
Ġa de
o on
Ġlo bar
Ġdef in
Ġevent ration
Ġade qu
Ġover inf
Ġb all
Ġsilhouet ting
Ġrais ing
Ġnod es
Ġac tive
Ġm inu
Ġeff ort
Ġball oon
Ġdou b
Ġtu ber
Ġconges ted
Ġshe ath
Ġtrans verse
Ġstruc ture
iti ve
Ġdefin itive
we lling
Ġa m
Ġdef ibrillator
c ul
Ġind welling
u res
Ġwh i
c tion
Ġsu tures
Ġthe ir
b it
Ġp ast
se vere
ribu ted
Ġhyd rop
l ass
bit us
Ġsix th
Ġdextro sc
Ġappear ing
Ġsuper vening
Ġgro und
Ġeti ology
Ġse ven
la tation
Ġsup rac
Ġdoub t
Ġdi latation
Ġadvanc ement
ex pansion
Ġdextrosc oliosis
Ġapparent ly
Ġrede monstrated
Ġtuber cul
u mp
Ġan eurys
Ġc en
3 0
cle ar
Ġfib rotic
Ġsuprac lavicular
Ġun clear
ect omy
Ġcardi ophrenic
Ġinf lamm
Ġdis c
si zed
ti m
Ġsymptom s
Ġremo te
i oclavicular
e rect
Ġacrom ioclavicular
l ast
Ġf if
Ġpleu ra
Ġce phal
k ing
Ġindic ative
Ġhydrop neumothorax
Ġfif th
last y
sc ar
Ġradiograph ically
t ous
Ġtoward s
Ġrespective ly
ymmet ry
Ġs ymmetric
Ġm ate
Ġar terial
Ġfilm s
Ġdemonst rating
scar ring
Ġs k
Ġmate rial
il y
Ġobstruc tive
Ġpath ology
Ġseven th
Ġpost surgical
p y
ulmon ic
Ġm ere
Ġrep orted
os c
Ġmere ly
Ġsubsequent ly
Ġdemin eralized
Ġtip s
g ent
Ġconve x
Ġgra ft
Ġwhi le
Ġpoor ly
p ass
Ġcro ss
Ġasymmetric al
Ġby pass
Ġt ri
Ġan n
Ġjoin ts
Ġradi oden
Ġreplac ed
ple ural
umer us
p e
Ġh umerus
Ġp ump
Ġperipher y
Ġre ac
Ġindic ate
Ġcorresp on
g lass
di alysis
Ġb one
Ġw ar
Ġas ymmetry
Ġhemo dialysis
al low
Ġprosthe tic
in ess
Ġha z
Ġemphysema tous
Ġexamination s
Ġcorrespon ding
Ġunfol ding
ĠĠĠĠĠĠĠĠĠĠĠĠĠĠĠĠ ĠĠĠĠĠĠĠĠĠĠĠĠĠĠĠĠ
Ġhaz iness
Ġadequ ate
Ġclavicle s
or tic
Ġsta bly
Ġalign ed
s ha
Ġ -
stan ding
Ġsh unt
Ġartif act
Ġindic ated
Ġdocum ent
Ġwh ose
Ġcaus ing
le ss
Ġlimit ing
in d
position ed
Ġthorac entesis
cur red
t oma
i st
en et
Ġrem arkable
Ġsen sitive
Ġple thor
p ed
Ġen sure
v entric
m ation
Ġatten tion
Ġminu tes
ventric ular
ro duc
l oc
Ġextreme ly
Ġsk in
Ġh ema
Ġex tubation
tro ph
s tem
Ġplethor a
Ġint roduc
Ġhyper troph
Ġconsider ation
Ġmain stem
sha ped
Ġ1 5
Ġsh allow
Ġgener ally
Ġre l
e p
Ġin iti
Ġin tubation
Ġdisplac ement
i te
Ġthe n
Ġconsolid ative
Ġscan ning
Ġqu ite
Ġno table
Ġrep ort
Ġdis cre
Ġoverinf lation
Ġosteophy tes
p ort
Ġcuff ing
a ir
c t
Ġl ord
o le
Ġal tern
ch annel
l ateral
Ġi c
Ġde line
og en
Ġinclu des
or s
Ġpar am
Ġgranulom as
a b
Ġsuspic ion
Ġic d
Ġcurv ature
Ġreposition ing
Ġcon tu
Ġretrac tion
Ġdiscre te
Ġlord otic
Ġcont in
Ġ ten
Ġhema toma
Ġbas ed
Ġinser tion
l or
Ġthe y
Ġlimitation s
Ġm ak
op timal
Ġairway s
Ġaltern ative
Ġch ain
am ber
a ortic
Ġhypertroph ic
ro w
Ġtor so
Ġesophag ogastric
Ġan alysis
Ġover la
Ġdef ined
Ġfour th
Ġca ge
Ġcontin ue
a sis
Ġun cer
Ġuncer tain
Ġpa d
Ġdefini tion
at ous
tic al
Ġshadow s
Ġsub optimal
Ġsub p
Ġre current
s ing
Ġpneumon ic
Ġat t
Ġaccentu ates
ar row
Ġf ew
Ġwh at
Ġinferior ly
Ġn arrow
Ġsubp ulmonic
l an
Ġe k
Ġscle rotic
o id
Ġek g
en tation
Ġsharp ly
Ġtubercul osis
l ob
s y
Ġborder s
v ocal
Ġunder g
qui vocal
Ġb asis
Ġdis tension
Ġsup rahilar
id uc
ase ous
Ġg aseous
Ġf iduc
is hed
Ġwar ran
Ġindic ating
e l
Ġhyp o
Ġfiduc ial
Ġgranulom atous
Ġh ole
rop lasty
Ġcardi o
Ġi mm
osc op
Ġre ad
Ġst ri
Ġn or
Ġthere fore
Ġacco unt
Ġd uring
Ġde termin
Ġm or
0 0
Ġemb ol
Ġcephal ization
Ġres p
Ġstent s
Ġin teri
Ġcontu sion
Ġinteri m
f il
Ġc er
Ġobstruc tion
inf lated
Ġpredomin ance
Ġunderg one
umer ous
Ġn umerous
Ġfiss ural
Ġh r
Ġportion s
fil led
it ary
lu c
Ġkyph osis
Ġneed s
4 5
Ġdi min
Ġwarran ted
Ġha bitus
Ġar ds
Ġresp on
Ġbi op
Ġiniti al
Ġf av
Ġradioden sity
Ġpa in
Ġnec ess
Ġparam ediastinal
at ory
Ġinclu de
1 0
Ġhemidiaphragm atic
Ġalternative ly
Ġpneumon itis
lar ge
Ġra pid
Ġmost ly
Ġnon distended
Ġtechn ical
Ġcan cer
Ġhe av
Ġaneurys m
l as
Ġf ar
Ġtu b
Ġdeline ated
p ro
1 5
Ġcoar se
ar i
ed ic
x t
Ġca use
gh th
u oden
Ġei ghth
Ġcoil s
s es
Ġpoten tial
Ġth ree
Ġs ar
ac e
Ġconflu ence
Ġst ron
Ġne o
Ġfor mation
Ġtra ver
Ġdimin ished
co id
Ġaccentu ating
p enet
Ġsc ap
Ġdiffe rent
y ing
Ġconfirm ed
Ġbe ca
Ġacco unting
p a
Ġcon te
Ġd own
Ġen ter
ure sis
Ġexcep tion
Ġreduc ed
Ġposition al
Ġtrac t
a er
Ġbeca use
Ġbiop sy
Ġsar coid
Ġde creasing
Ġradiograph y
Ġchronic ity
Ġunder penet
Ġconte xt
z ation
Ġl ast
Ġretro s
Ġstron g
Ġthorac ostomy
Ġcen tered
Ġgen eralized
Ġnormal ly
Ġindic ation
Ġanterior ly
Ġtrans esophageal
Ġn ur
Ġinf ar
Ġdefinite ly
Ġmal positioned
Ġflatten ed
r ated
Ġc ir
ch amber
Ġval v
Ġretrac ted
Ġbi ventricular
Ġcon tain
Ġhyd ro
Ġmarker s
aer ated
Ġp et
Ġfollow ed
Ġcharacteri zation
Ġimm edi
Ġb le
Ġpart ly
Ġdi uresis
se ction
Ġcomb ined
Ġr ule
o ther
le x
er ved
Ġd ating
Ġres t
Ġup on
Ġe pic
l um
Ġac quired
Ġd uoden
Ġsu ture
Ġag o
tero lateral
x ta
le ment
Ġju xta
Ġar th
Ġprosthe sis
re a
Ġepic ardial
Ġt ypical
Ġinser ted
2 0
Ġco existing
Ġshoulder s
Ġdocum ented
Ġro und
Ġinflamm ation
tim eter
lum en
Ġple ur
Ġdis loc
Ġexplain ed
ed ing
Ġpul l
Ġoste op
b est
ra tive
Ġlevel s
Ġrespon sible
Ġe lement
os ure
Ġre ach
Ġpor ts
plac ed
Ġpleur x
i ter
Ġp ri
Ġas best
og n
Ġoverli e
Ġduoden um
Ġor i
pp ing
Ġchron ically
ab dom
Ġal rea
Ġgo iter
Ġosteop en
Ġalrea dy
Ġinfilt rative
Ġpri m
l t
Ġsignific ance
y opathy
Ġcardiom yopathy
Ġaccompan ying
ar ily
Ġextrem ity
c on
Ġrec ogn
Ġsur ro
Ġp y
mpres sion
Ġcav itary
Ġre quired
Ġsh ap
Ġfe lt
Ġdis section
abdom inal
dis placed
Ġincident ally
n er
Ġw ind
Ġan other
Ġdist ributed
Ġman if
Ġwind ow
c av
Ġcom mon
ch ond
Ġlocal ized
) .
il l
Ġconfiguration al
Ġcontinu ous
Ġoc curred
or tion
Ġwi de
ogen ic
Ġrep air
Ġpy lor
Ġacc um
Ġp ec
oscop y
j unction
ul us
Ġse que
Ġdisloc ation
c in
Ġcon junction
Ġpath olog
Ġretros ternal
Ġseque la
Ġcon dition
Ġsti m
Ġasbest os
Ġp m
Ġmo ve
Ġe ach
Ġab ut
Ġhypo inflated
Ġmanif es
v ity
Ġhyper luc
Ġstreak s
f low
Ġpec tus
Ġext ra
Ġlong standing
Ġnarrow ing
Ġ ke
r n
ul ator
Ġp lain
5 0
Ġs ys
Ġsi zed
Ġse cu
the less
Ġc p
oc entesis
eral ization
Ġsurro un
u b
Ġe c
Ġra ise
Ġcalc ific
Ġster n
Ġwed ging
neum on
tu red
Ġed ge
Ġprior s
c m
Ġn in
Ġout flow
Ġbe ing
Ġne ver
Ġar m
Ġrel ates
Ġstim ulator
Ġnin th
Ġcost o
Ġman ner
a pp
Ġe quivocal
Ġexp osure
Ġshow ed
siti vity
Ġi mpression
Ġk in
Ġventi lated
Ġsarcoid osis
Ġdemin eralization
Ġo g
Ġpersis ting
Ġsep ar
1 2
Ġf unction
Ġre tic
Ġoc cu
Ġre ques
ary n
Ġcont ribu
Ġindic ates
Ġhead s
Ġsurroun ding
Ġreques ted
4 0
Ġinvol v
op las
Ġsta bility
Ġconsider ing
Ġpoin ting
Ġmak es
Ġke ep
at osis
Ġtraver ses
in ear
Ġenlar ging
Ġexagger ating
Ġp us
Ġf lex
Ġrecommend ation
Ġmetasta sis
Ġkeep ing
Ġconsolid ated
ou ght
Ġde si
Ġm y
us ual
v is
er gent
um or
Ġsub pleural
Ġhia tus
Ġscle rosis
Ġstri pe
Ġnecess ary
Ġun usual
Ġdi rec
Ġcaus es
Ġcoar s
Ġcer tain
l ing
Ġthe ra
Ġmu st
l and
y ed
il inear
Ġdifferen ce
x r
Ġc xr
Ġdetec tion
Ġthera py
u ation
un ted
Ġcli p
Ġcurv ilinear
monst ration
Ġirregular ity
Ġloc ulation
Ġobs erved
Ġdetec t
Ġcross es
aryn x
i ze
p m
Ġe lec
Ġm is
un ts
esopha g
ob ronchial
ho le
Ġquestion able
Ġpus hed
Ġpersistent ly
Ġth ought
ic i
os sible
Ġthorac ocentesis
Ġheal ing
Ġt umor
lu s
Ġsp le
Ġcav ity
Ġann ular
s p
Ġsi tting
Ġconve yed
Ġble eding
b o
m id
Ġt b
Ġsys tem
esophag us
Ġdetail s
Ġpylor us
- ___
as h
Ġca re
Ġg lob
Ġprojec ted
cum ulation
Ġnever theless
Ġup ward
Ġann ulus
k en
ar t
__ __
Ġvisual ization
Ġsen sitivity
if ted
Ġsh own
tion s
Ġsh ifted
Ġtrac king
sp ine
i es
on ed
Ġmo tion
Ġf ragm
Ġreduc tion
u d
Ġp edic
Ġl ate
em ergent
Ġintroduc er
Ġmanifes tation
Ġex ist
Ġca vi
Ġdou ble
Ġinflamm atory
Ġp lu
Ġi vc
om atosis
Ġless er
Ġoverla pping
Ġpedic le
Ġv p
Ġto o
Ġpos terolateral
Ġcomponent s
Ġfiss ures
Ġcardio thoracic
Ġimp ossible
Ġscap ula
Ġcar cin
chond ral
a ding
ardi um
Ġexten d
Ġmeas ures
Ġstern um
Ġf act
is m
Ġpneumon ectomy
Ġasymmetric ally
Ġnur se
o k
Ġa round
Ġe rect
Ġev ol
Ġfor ward
Ġelong ated
ri ght
. .
Ġst y
ren cy
Ġfil ter
Ġhigh ly
Ġatt ribu
Ġth in
Ġm uc
Ġd one
Ġobscu re
Ġcir cum
Ġdesi red
Ġplu g
ti um
Ġreg ard
Ġdetermin e
pa rency
Ġw ill
Ġsta bil
Ġsurf ace
Ġsty let
Ġt r
oc i
Ġtrans parency
neumon ia
Ġinf orm
Ġtub ing
bo ard
l ant
Ġli ver
ren ce
Ġ1 3
Ġbronch oscopy
Ġembol ism
Ġf oci
Ġfrac tured
Ġit sel
Ġitsel f
Ġd ash
Ġrep res
qu ence
Ġaccum ulation
Ġdash board
Ġth us
Ġn ature
Ġintersti tium
Ġsp ic
Ġloop ed
Ġcon se
Ġal one
Ġinfilt ration
Ġlum en
Ġemb oli
Ġunderpenet ration
Ġhem othorax
Ġseri ous
Ġl ater
Ġ1 6
Ġp el
Ġto tal
Ġspic ulated
ol ateral
Ġbo re
Ġbl o
Ġtrac ed
Ġverteb ra
Ġnon displaced
Ġconsider able
Ġrede monstration
n ant
Ġv ari
Ġinter pre
Ġrem nant
Ġattribu table
Ġreflec ted
Ġartif ac
Ġpoin t
Ġrecogn ized
ang ular
it al
Ġkyph otic
Ġcen timeter
Ġs cre
Ġte mp
Ġside hole
Ġvalv ular
Ġdirec ted
Ġfragm ent
Ġch annel
Ġaccentu ation
Ġne oplas
Ġimmedi ately
l ous
Ġb lu
Ġpre operative
Ġblu r
i ary
Ġobli qu
Ġheav ily
Ġsecu re
Ġcavi tation
Ġse ating
Ġbase line
Ġdis h
ci es
Ġpla que
Ġmor ph
Ġcosto chondral
Ġstabil ization
Ġblo od
c al
n t
pac es
Ġcorre lated
like ly
Ġabut ting
en cies
Ġre nal
Ġcompa re
m et
ar ding
Ġre tu
Ġlo ok
tu al
ot omy
Ġte am
Ġfe asi
Ġn one
Ġverteb roplasty
Ġfeasi ble
t or
as on
Ġha ze
Ġsep tal
Ġenter s
Ġevol ving
5 5
th ere
Ġre qui
Ġesophag ectomy
Ġabs cess
Ġbul la
Ġsple n
Ġre tained
ced ural
Ġ0 5
Ġcontain ing
Ġscre w
Ġre ason
ur gent
Ġreg arding
Ġl ack
ob struc
Ġthick ened
Ġmas tectomy
Ġextra pleural
0 5
Ġco al
Ġradi olog
Ġimp lant
Ġdist ortion
itone al
Ġobliqu ity
Ġdemonst ration
Ġm d
ten ce
Ġradi ology
Ġexagger ate
Ġne i
ang e
Ġbul lous
Ġresult ant
ti g
ri es
k n
Ġazyg ous
1 1
cu bitus
Ġde cubitus
met ric
obstruc tive
Ġc y
Ġsi ted
Ġco inc
Ġli p
Ġexp lan
r um
Ġlymph ang
Ġsep tic
Ġinvolv ement
Ġconse quence
Ġblur ring
Ġexplan ation
Ġa ff
Ġdefinitive ly
Ġneo esophagus
Ġinfar ction
Ġc ough
Ġec ta
Ġnei ther
o und
Ġa ble
Ġresi ding
Ġtri angular
Ġosteopen ia
Ġpel vis
Ġcentimeter s
en teric
tic ally
Ġ q
Ġun likely
Ġmon th
Ġro ta
Ġnodular ity
Ġwithdraw al
Ġcoal es
Ġin n
Ġf low
Ġaneurys mal
l ay
li min
per ic
Ġgro w
Ġbl unted
Ġshap e
Ġkin k
Ġretu rn
Ġan ch
Ġt y
Ġse cre
Ġopac ified
Ġrule d
d al
ta iled
Ġlo b
Ġde ep
Ġatten uation
Ġatt ributed
Ġpatholog ic
Ġhyperluc ency
Ġartifac tual
Ġv s
op er
iti c
Ġsus pect
r ate
Ġ1 4
ta ken
Ġrota tor
Ġty pe
ac u
Ġnas o
Ġpersis tence
Ġoverla p
Ġexist s
Ġinform ation
Ġmorph ology
2 5
Ġ ,
si tu
Ġluc encies
Ġjuxta hilar
Ġ___ -
Ġde tailed
Ġon ce
Ġly ing
Ġtr ue
os p
Ġcoil ing
Ġprim arily
Ġcertain ly
3 5
Ġre curred
Ġbil iary
at um
Ġtraum atic
Ġm ig
Ġor der
Ġden o
Ġstrong ly
Ġas pec
od ular
Ġnaso enteric
Ġaspec ts
u pper
Ġmil li
Ġneed ed
Ġarth roplasty
Ġmis taken
Ġsecre tions
oph arynx
Ġdep osition
Ġreac cumulation
Ġlymphang itic
Ġcoales c
te st
Ġresid es
Ġintroduc tion
Ġsu c
inf ilt
Ġadvanc ing
Ġsymmetric ally
Ġori entation
Ġluc ent
Ġs low
lecta sis
ass ess
Ġacco unts
Ġmak ing
Ġfol d
Ġy ear
Ġt un
Ġh al
Ġlocation s
Ġcharacteri ze
Ġ ;
Ġo v
Ġan t
Ġex cav
Ġcompar able
Ġcentral ly
Ġbronch itis
as ed
Ġe ch
Ġma ke
app ear
infilt rate
Ġexcav atum
Ġheav y
Ġhal f
er ve
Ġd est
Ġpneumo peric
Ġpneumoperic ardium
' t
. ___
m an
Ġs ten
ri d
Ġpre limin
Ġprelimin ary
Ġb ub
Ġrib ca
Ġres piratory
kn own
Ġdest ruc
Ġribca ge
Ġt ree
Ġac cur
Ġcost al
Ġfollow s
Ġcontribu te
Ġflex ed
Ġbub ble
a di
ar ing
Ġis land
Ġsc out
cur rence
Ġ0 8
Ġmilli metric
j u
ne led
ra di
is h
Ġr ange
Ġtun neled
Ġov oid
Ġle v
Ġimpro ve
Ġfil led
Ġsplen ic
Ġant rum
re lated
ac er
at ter
l ates
t ate
Ġatheroscle rosis
Ġelec tro
Ġan ti
cus pid
Ġ0 9
Ġtubercul ous
Ġtri cuspid
Ġplug ging
t ra
Ġsp aring
Ġw ater
Ġun known
at s
Ġsimilar ly
Ġpres entation
i ding
Ġap art
Ġop aque
b ased
iz ing
Ġdense ly
Ġce ll
Ġperipher ally
Ġmuc ous
Ġv ar
Ġde pic
Ġ0 4
Ġcoinc iding
n am
x ic
Ġw et
Ġpro be
Ġmargin s
Ġmor ning
radi ation
Ġan at
ve x
Ġexp ansion
Ġconsideration s
Ġ ring
Ġh osp
Ġbo ard
ĠĠĠĠ ĠĠĠ
ĠĠĠĠĠĠĠĠĠĠĠĠĠĠĠĠĠĠĠĠĠĠĠĠĠĠĠĠĠĠĠĠ ĠĠĠĠĠĠĠĠĠĠĠĠĠĠĠĠĠĠĠĠĠĠĠĠĠĠĠĠĠĠĠĠ
Ġhosp ital
f e
Ġl atter
Ġconfirm ation
Ġp unc
le y
tu ally
Ġ1 7
Ġoste o
Ġdevi ated
Ġsymmetric al
r as
re ad
ate lectasis
Ġre assess
Ġside port
Ġglob ular
test inal
adi ly
Ġb are
Ġex i
Ġthorac otomy
Ġecta tic
Ġbare ly
Ġc ri
Ġre adily
Ġto xic
Ġ2 4
Ġsp ur
pro cedural
appear ing
Ġen tered
oc ardi
op lasty
Ġper mit
ĠĠĠĠĠĠĠĠ ĠĠĠĠĠĠĠ
ĠĠĠĠĠĠĠĠĠĠĠĠĠĠĠĠĠĠĠĠĠĠĠĠĠĠĠĠĠĠĠĠĠĠĠĠĠĠĠĠĠĠĠĠĠĠĠĠĠĠĠĠĠĠĠĠĠĠĠĠĠĠĠĠ ĠĠĠĠĠĠĠĠĠĠĠĠĠĠĠ
Ġexi sting
Ġwi d
se c
Ġs mo
Ġs paces
Ġdist inct
Ġly tic
Ġteleph oned
Ġdep ending
tra um
Ġ ult
Ġtub ular
Ġpunc tate
Ġm ic
Ġb rid
res sion
ve al
Ġsp read
Ġshow ing
Ġ- -
Ġretic ul
ju gular
Ġwid th
Ġtrans jugular
Ġori ented
ici ent
Ġinterpre tation
Ġlip omatosis
o si
Ġre veal
Ġun e
Ġsu ff
de monstrated
ove red
Ġvisual ize
ys tic
Ġradiolog ist
Ġult ras
Ġp e
Ġper cutaneous
Ġinters pace
Ġnon urgent
Ġcephal ad
Ġcy st
traum atic
Ġultras ound
Ġc lar
is ted
Ġdi lation
Ġune quivocal
le ft
Ġper man
Ġventric ul
umer able
Ġoverinf lated
Ġdisc overed
Ġtri ple
pro cedure
Ġinn umerable
Ġperman ent
Ġv ats
Ġd ors
Ġu se
Ġpre c
Ġwh o
Ġfi ve
Ġeff ect
Ġosteophy te
Ġs er
Ġb ed
Ġf air
Ġcan n
Ġbronch op
Ġgre at
Ġbrid ging
Ġreticul on
a ge
Ġn erve
ol d
Ġcarcin oma
Ġtoxic ity
Ġprec ise
an ces
Ġf inal
Ġfocal ly
Ġsupp or
Ġnon emergent
sc ribed
Ġech ocardi
Ġreticulon odular
c om
Ġc ystic
Ġh or
Ġsi des
Ġgastro stomy
Ġprim ary
Ġserious ly
l in
Ġre expansion
dy nam
Ġimp ac
Ġcolon ic
Ġfav oring
Ġrapid ly
Ġdors al
Ġcardi ogenic
Ġaor t
Ġ2 0
Ġcollection s
Ġs tem
Ġat te
cess ful
Ġ1 8
Ġcal lus
ina ting
Ġsp on
oper itoneal
Ġu s
Ġcal l
Ġfe ver
Ġunderpenet rated
Ġoccu py
Ġcare ful
Ġcri tical
sec tional
Ġfair ly
o ing
on tal
ta tive
iz ontal
io tic
Ġtemp or
Ġscrew s
Ġle ading
om ogen
Ġac ro
Ġpass ing
Ġobli te
Ġinfar ct
Ġventricul operitoneal
Ġhor izontal
Ġm ed
ual ly
Ġtrache obronchial
Ġconsider ably
Ġdisc on
osc oliosis
Ġimmedi ate
Ġarth rop
Ġacro ss
Ġre currence
Ġex acer
Ġrec or
Ġdra ma
Ġben ign
Ġsitu ation
Ġten ting
Ġrepres en
Ġcoalesc ent
Ġanti b
Ġunequivocal ly
Ġtempor ary
is s
Ġvi ral
Ġpor tably
Ġidentif y
Ġexten sion
Ġapic olateral
Ġaccur ately
Ġsuff icient
Ġexacer b
Ġantib iotic
Ġin den
Ġe mp
Ġradi o
Ġpac k
Ġrecommendation s
Ġlate nt
Ġrequi re
Ġrepresen tative
o red
Ġ rough
Ġo ur
Ġm en
Ġh er
Ġor gan
Ġse em
Ġdi d
Ġend p
Ġperib ronch
Ġquestion ed
Ġosteopen ic
acu te
Ġrecor ds
Ġb ari
Ġas sis
Ġso on
io d
Ġcoars ened
Ġrough ly
Ġbari um
i tec
s vc
al le
Ġresid ent
Ġarch itec
olog ies
Ġreac tive
s olid
Ġe pi
Ġend obronchial
Ġintra vascular
Ġscap ular
Ġaff ec
Ġmig rated
omogen eous
g oing
u g
ar one
Ġon going
Ġhyper den
Ġam iod
Ġradioden se
Ġinden tation
Ġamiod arone
th rough
Ġp eg
Ġretic ulation
Ġpermit s
Ġor th
Ġcorre lates
Ġeti ologies
Ġminu te
py lor
Ġvalv es
Ġslow ly
u ish
Ġsuperimp osition
Ġsul ci
Ġneoplas m
pi es
Ġdic tated
Ġshap ed
Ġsuc cessful
Ġdepic ted
Ġp enet
Ġs um
la ge
Ġk er
Ġoff ic
Ġstri king
Ġnecess arily
Ġoccu pies
pylor ic
Ġc ran
Ġn um
Ġin testinal
Ġprocess es
gres sive
Ġhigh er
Ġfav or
Ġspur ring
Ġbronchop neumonia
2 3
s er
Ġh and
Ġdi ss
Ġli e
Ġpar a
Ġdist ing
Ġdetec ting
Ġreac tion
solid ation
Ġorth op
Ġnum ber
Ġatri o
Ġcommon ly
____ ____
Ġmonth s
Ġoccupy ing
iss ural
c k
y ema
ti l
Ġe ma
Ġse gmental
Ġsub acute
Ġdra ined
Ġcrow ded
Ġphysi cal
con solidation
Ġorthop edic
r up
t inu
Ġm i
Ġh omogeneous
Ġexp an
Ġker ley
res sed
Ġt a
Ġcommun ication
Ġlook s
Ġdiscon tinu
Ġendp late
0 8
b ore
Ġvi r
ula ting
Ġhyp opharynx
loc ulated
con vex
Ġdisting uish
e val
g re
th an
Ġn eg
ti ated
Ġb ro
moderate ly
cav oatrial
Ġyear s
3 2
a ment
Ġi ab
en ds
en timeter
ron ic
Ġag gressive
Ġperi vascular
Ġang ulation
Ġgen eral
Ġlev oscoliosis
Ġdiss emin
gre ater
Ġiab p
2 6
p ulmonary
si f
te ad
Ġs ay
Ġl v
Ġli g
Ġne ut
Ġdiagn os
Ġimplant s
Ġdeno te
Ġanat om
5 6
m en
n d
Ġ ?
Ġo lder
tion ed
Ġor al
Ġsub t
Ġdist ally
Ġdetec table
Ġins tead
Ġcur led
pid ural
Ġmy el
Ġepi g
Ġsum mation
4 8
c ular
i p
Ġe pidural
ac terial
ch dal
Ġacute ly
ded icated
Ġdis cern
Ġdestruc tion
Ġemp yema
Ġassis t
Ġi p
Ġh ow
om inating
Ġair less
Ġ0 7
Ġtre ated
Ġdisc ord
Ġsequela e
chdal ek
g i
p neumonia
th ma
il ateral
Ġsi z
Ġcardi ovascular
Ġfor m
Ġpar as
Ġdextro convex
Ġreturn ed
Ġaffec ting
1 8
o ti
Ġb ig
Ġun ex
Ġun ilateral
Ġate lec
Ġst ra
Ġbo chdalek
Ġpar alle
Ġsubc entimeter
Ġneg ative
0 2
4 1
Ġf ac
Ġcon tig
Ġd ys
Ġco re
Ġcar oti
Ġdr ug
Ġanch ors
0 4
1 7
3 6
e j
e ffu
h an
Ġas thma
ograph y
li p
Ġsa fe
rono d
Ġhemo dynam
Ġten th
Ġvari ation
Ġspon dy
Ġlig ament
men sion
ej un
) ,
1 9
2 8
5 3
5 4
i gh
Ġth ose
al e
mp le
Ġdi mension
Ġdis p
Ġscar s
Ġpred ominating
Ġbul ging
Ġnotif ied
Ġdown ward
Ġatrio ventricular
Ġh ous
Ġu sing
Ġcar ries
Ġpost obstructive
Ġcorrect ly
Ġfav ors
Ġrest ric
Ġq ual
Ġcontig uous
effu sion
Ġo val
ver teb
Ġmonit or
Ġcomm ent
2 9
4 7
p inal
Ġsubstan tiated
Ġpoin ts
Ġreach es
Ġsepar ately
0 1
al tered
ti es
Ġcon clu
Ġre al
Ġun altered
Ġse ed
Ġob tain
renchy mal
Ġmulti loculated
Ġexagger ation
Ġdep osi
Ġcaroti d
0 3
3 9
Ġm agn
Ġpo sitive
Ġint rac
Ġqu an
Ġprojection al
Ġimpac tion
1 6
4 6
o st
si des
cu le
Ġsu re
Ġden ser
Ġfol ded
Ġgi ving
Ġel lip
Ġwar rant
Ġparas pinal
3 4
o f
p atic
Ġch amber
Ġsc ale
omin ant
Ġreplacement s
Ġmalign ant
Ġflex ure
Ġlob ulated
Ġqual ity
Ġc v
Ġbe sides
Ġpre existing
Ġos sif
Ġres pect
Ġte ll
Ġarthrop athy
Ġi le
Ġcon cei
Ġbe h
Ġca p
Ġg land
Ġlar gest
Ġpostoperative ly
Ġenter ing
Ġcontain s
Ġmed ical
Ġdissemin ated
Ġbig ger
Ġconcei v
1 3
2 2
d in
o th
Ġoptimal ly
Ġexacerb ation
Ġseem s
Ġhous e
Ġbeh ind
4 4
Ġc ase
Ġh is
Ġsh a
Ġcor tical
Ġav r
Ġpleu ro
tim ated
Ġvertebra e
Ġvari ant
2 4
Ġpa uc
Ġcross ing
oscop ic
Ġhyperluc ent
Ġcoars ening
Ġbulla e
Ġellip tical
Ġsha ft
Ġpauc ity
3 7
4 3
5 7
ol uc
Ġradi oluc
Ġimp lan
1 4
Ġb b
ro ph
Ġre qu
Ġas ci
Ġtu rn
ogra m
Ġob jec
lat ory
Ġeff ec
Ġembol us
Ġmic ronod
Ġbed side
Ġmyel oma
Ġile us
Ġasci tes
3 8
p ortion
Ġan terolateral
ne ath
Ġappear ances
Ġunder neath
Ġinj u
Ġip si
Ġsiz able
5 8
as piration
Ġd ominant
Ġco ver
Ġcomp le
Ġex act
if y
Ġprogres sing
Ġventi latory
Ġcarcin omatosis
Ġcann ula
Ġipsi lateral
b l
u ge
Ġp se
Ġex isted
Ġcal led
cardi ogenic
and oned
Ġmass like
Ġinvol ve
Ġshe et
Ġsuppor ting
verteb ral
Ġinju ries
Ġpse ud
Ġp lan
Ġo per
res ol
Ġcon tent
il ity
ve red
Ġpa ge
Ġab andoned
ur gi
Ġreg urgi
Ġregion al
Ġro ds
Ġthorac o
dist ributed
Ġfragment s
Ġkink ed
Ġatelec t
Ġregurgi tation
5 2
c ir
f issural
Ġc lus
Ġupper most
Ġexclu des
Ġav oid
Ġproper ly
Ġband s
Ġreach ing
Ġglob al
Ġrepres ented
in ter
Ġgleno id
Ġadequ ately
Ġnarrow ed
Ġdetermin ed
3 1
i um
Ġ term
Ġf lu
Ġkin king
Ġgrow n
f er
Ġc la
Ġis in
ac ted
Ġh uge
st roph
Ġpo le
Ġcont ribution
Ġimp ort
Ġosse us
Ġintra fissural
Ġdesc ends
Ġconvex ity
Ġneoplas tic
han ced
4 2
s tic
u ity
Ġo pp
es tig
Ġb ran
Ġpro duc
tif ied
Ġinv estig
lob ular
Ġlate st
Ġmen tioned
Ġlv ad
Ġbran ch
0 9
2 7
t ural
Ġ___ %
Ġacu ity
rom e
out ine
monstr ates
Ġcalc ium
Ġtechn ically
Ġvag al
Ġr outine
Ġoc clu
Ġsy nd
cum scribed
Ġformation s
Ġelec t
ici ency
Ġdeposi ts
Ġatelect ases
cir cumscribed
Ġsynd rome
si le
Ġre distributed
Ġun til
Ġcont acted
Ġcor dis
Ġfil ling
Ġtran si
Ġsmo oth
Ġexpan sile
0 6
0 7
3 3
: ___
j acent
o ver
u ter
Ġinter f
de sis
Ġproximal ly
Ġrel ay
Ġfact ors
Ġvir tually
Ġdiagnos tic
ardi ac
Ġsi ts
der ness
Ġu r
Ġg all
Ġhem op
Ġng t
Ġdifferen ti
Ġconspic uity
Ġcla mp
5 9
Ġo uter
Ġl ap
Ġremain ed
Ġexten ded
Ġmu cus
Ġcollec ted
Ġy et
Ġten derness
Ġsten ting
Ġneut ral
Ġconceiv ably
Ġcomple tion
5 1
Ġse qu
Ġsub jacent
Ġmin d
Ġsepar ation
Ġrelay ed
2 1
i ation
Ġpossi bil
Ġac cep
Ġtak ing
Ġobstruc ting
Ġlocal ize
Ġq a
Ġelectro de
Ġvar ious
Ġthoraco abdominal
Ġb at
Ġf ine
ra ys
Ġinter position
Ġmain ly
Ġexagger ates
av r
Ġheight s
Ġflow ing
Ġelect ronic
il d
Ġse al
Ġmild er
Ġex ce
Ġmid portion
Ġband like
lob ar
Ġpatholog ical
Ġinvolv es
Ġrequ est
Ġtransi ent
f unction
or ding
Ġf lo
Ġtermin ation
Ġfol ds
Ġacc ording
Ġne ph
Ġlocal izing
Ġnur ses
Ġanch or
Ġelectro des
eval u
Ġfac ility
d u
ar th
Ġsi tes
pac ity
Ġcar ing
Ġar ms
Ġhe patic
inf lamm
Ġatten ding
Ġmassive ly
Ġatte mp
Ġus ually
Ġoblite ration
Ġpossibil ities
4 9
Ġ '
si p
Ġm ri
edi an
Ġj ejun
de monstrates
Ġpost traumatic
Ġpres erved
dist al
Ġprogressive ly
Ġtraver sing
Ġechocardi ography
Ġaccep table
c ome
Ġ #
Ġi v
Ġt avr
se al
Ġ1 9
Ġwor k
Ġperi od
Ġiniti ally
Ġuse ful
Ġdrama tically
Ġmagn ified
i tion
o thoracic
en ced
Ġcon ne
Ġde c
Ġsub lu
Ġagain st
Ġlymph oma
Ġei ght
Ġcollec ting
Ġdirect ly
Ġabut s
Ġdisp lay
Ġpseud o
h y
w er
or ts
ac cumulation
Ġb acterial
Ġun less
Ġver tical
Ġver tically
Ġbul ge
Ġgraft ing
Ġcer vic
Ġsecu red
Ġconclu sive
Ġpleuro desis
Ġcontent s
Ġsequ en
a tures
c p
t re
Ġp ulmonic
Ġn sip
Ġf in
Ġmo dal
Ġreg ressed
Ġbronch o
stan ces
Ġmedi port
Ġbul k
Ġkyph oplasty
Ġcontribu ting
Ġfact or
Ġsubt ly
igh ted
Ġinterf ace
c ation
Ġp ur
Ġbe come
Ġde co
Ġwe ighted
Ġcombin es
Ġtrans p
Ġfib ro
Ġacco unted
Ġfe atures
Ġcircum stances
Ġser ial
Ġarchitec tural
Ġepig astric
Ġdiscord ance
Ġimplan ted
m ediastinal
ti tu
Ġcon sis
Ġun able
op ath
Ġradiograph demonstrates
Ġend ogastric
Ġscan s
Ġdiameter s
Ġ0 6
Ġimport ant
Ġsequen tial
ri tis
Ġinter ven
ort un
Ġinclu sion
Ġeffec tive
Ġbat tery
inflamm atory
Ġcervic othoracic
Ġw ay
st ance
ty sis
Ġalong side
Ġbre ath
position ing
Ġanatom ic
Ġur gent
Ġhemop tysis
tre atment
g ra
s ures
Ġa mon
Ġe p
ri um
ri ding
Ġevid enced
Ġpres sures
Ġpredomin ately
Ġinspiration al
Ġeff ac
Ġexplain s
Ġmuc oid
Ġclus ter
Ġamon g
x ed
th es
Ġc ts
Ġs te
Ġf em
mal l
it ud
is o
Ġclear ance
Ġha ving
Ġtrac k
Ġmargin ated
Ġthyroid ectomy
Ġconcurrent ly
Ġman y
Ġwhere as
Ġlong itud
Ġwarrant s
m ild
en able
ral ateral
Ġle ak
Ġsi ck
ia ble
dy stroph
Ġg lass
Ġpos ted
us ted
Ġcar ti
Ġrepe ated
Ġbul let
Ġmajor ity
Ġam enable
Ġtemp er
Ġsten osis
Ġosteo dystroph
Ġep iso
Ġosteodystroph y
o ce
s k
u ted
ar inal
Ġi di
Ġun if
Ġcont ralateral
our ce
Ġst ate
Ġ0 3
Ġpros thes
Ġclar ify
Ġflo or
Ġsick le
Ġunif orm
Ġprosthes es
s mall
Ġp cp
Ġs ource
Ġri sk
tu be
Ġintra venous
Ġtrac tion
Ġcorre la
ces sive
Ġdep art
Ġdep ression
Ġes timated
Ġdecompens ated
Ġman di
Ġthin k
Ġcircum stance
lin es
Ġaort opulmonary
Ġperibronch ovascular
Ġparalle ling
Ġossif ication
Ġmicronod ular
opath ic
Ġtemper ature
Ġidi opathic
Ġdepart ment
c ys
c ribed
p ir
or ation
om egaly
Ġpneumo cys
Ġpre fer
Ġper itoneal
at oce
Ġac tually
Ġsta tion
Ġmas k
Ġsepar ate
Ġpenet ration
Ġjejun um
Ġlongitud inal
Ġpneumocys tis
Ġ /
Ġh ol
ic ial
oc a
Ġparam edian
Ġimm un
Ġembol ization
Ġwater seal
Ġdys function
Ġradioluc ency
du ce
Ġmandi ble
f usion
l icated
Ġb if
an eurys
ra ble
Ġre ading
Ġas pir
Ġdef iciency
Ġcur ve
Ġnon cardiogenic
Ġsegment s
Ġaccess ed
Ġinterven tion
p tion
p os
t osis
Ġapp end
Ġca val
Ġper it
Ġdef ect
Ġpost radiation
Ġmonit ored
Ġnon dedicated
Ġcharacteri stic
Ġme an
Ġsk inf
las ties
Ġrecogn ition
Ġorgan izing
Ġoffic er
Ġbro ken
m edi
u a
z ing
it ated
Ġli ght
Ġmore over
inf ection
Ġcontinu ing
mo re
Ġsubc arinal
Ġresid ua
Ġ- -___
Ġten din
Ġgreat ly
Ġfin ally
Ġfem oral
aneurys m
Ġp ate
Ġprovid e
Ġunder inflated
Ġpull ing
Ġspondy lo
Ġrestric ted
Ġoper ative
Ġflu or
Ġappend age
Ġcomp lex
Ġreg ression
Ġph arynx
Ġlocal ization
Ġwhi te
Ġreac cum
Ġgrow ing
Ġhyperden se
Ġobjec t
Ġperit racheal
c ted
c lage
e per
s on
th ing
si gn
Ġof ten
id en
Ġse t
Ġpro duce
Ġcont act
Ġresol ve
olog ic
Ġcer clage
pa renchymal
Ġperibronch i
Ġema il
Ġcover ing
resol ution
Ġgall st
Ġcarti lage
Ġaspir ated
Ġskinf old
Ġspondylo tic
, ,
t in
Ġp an
Ġe asi
Ġf le
Ġcon gen
Ġpneum atoce
ta bl
Ġde eper
Ġexa mple
Ġpor ta
Ġ2 1
Ġrela ting
cath eter
des cribed
Ġ0 0
Ġobli ques
Ġr up
Ġfaint ly
Ġble b
chond rom
ost osis
Ġdifferenti ate
Ġpseudo aneurysm
sign ific
iden tified
Ġpneumatoce le
b ronchial
c ence
Ġbe gin
Ġper son
Ġmid thoracic
Ġ2 2
Ġ2 3
ur cation
Ġcentral ized
Ġdist ance
oli otic
Ġes tabl
Ġsitu ated
Ġ( ___
app eared
Ġcommunication s
hy d
signific ant
p t
Ġ ent
Ġn p
ol itis
Ġor opharynx
Ġun comp
Ġcomp ens
is cule
Ġinter lobar
Ġver b
Ġwall s
Ġinclu sions
Ġcom min
Ġmin iscule
Ġmain tained
Ġpleu rop
Ġgra d
ind eterminate
Ġema iled
evalu ated
Ġsublu xation
Ġmodal ity
Ġperibronchi olar
Ġfle xi
Ġuncomp licated
p lain
s sion
Ġthe m
en hanced
Ġe g
Ġh d
Ġri ding
pac emaker
Ġinter medi
ven ti
Ġbene f
Ġsuboptimal ly
Ġupward s
Ġhol ds
Ġbif urcation
plain ed
l s
Ġin ges
Ġin significant
mp ly
Ġre lation
rom ised
Ġpresent ly
Ġinters paces
Ġac qui
Ġdiscu ssion
Ġreveal s
Ġechocardi ogram
Ġcran ial
Ġunex plained
Ġcv l
Ġexce eding
Ġattemp ted
Ġcongen ital
Ġverb ally
Ġcommin uted
Ġacqui sition
z one
Ġsi mply
Ġre ally
tic ip
Ġinterval ly
Ġreflec tion
Ġpost procedural
Ġhyper ostosis
Ġpres ented
Ġcav itated
Ġconfir ms
Ġcir c
Ġcertain ty
Ġatte mpt
Ġhyperden sity
Ġprefer ably
Ġflexi on
b i
c ult
e ve
Ġs ent
Ġin tended
Ġw an
Ġf ung
ta ting
Ġco vered
Ġres or
Ġass um
Ġdist orted
Ġsup ra
av itary
Ġoc cult
Ġretros pect
Ġrequi res
Ġoblite rating
Ġdrama tic
ticip ated
Ġc ut
Ġw ax
Ġcon com
Ġto ge
ax i
pp ed
it ant
Ġpro cedural
oc ar
Ġev acu
Ġu pd
val ve
Ġexclu sion
Ġapproxim ate
vasc ulature
Ġobli ter
Ġclose ly
Ġloculation s
Ġinterpre ted
lay ing
Ġosteo arth
Ġreassess ment
Ġarchitec ture
Ġta mp
Ġhemodynam ically
Ġintrac avitary
Ġbegin ning
Ġconcom itant
Ġtoge ther
Ġ er
on ade
ar ge
Ġe qui
di rec
Ġd uc
Ġpro ved
ten tion
co st
Ġgo ing
Ġfe ature
Ġrel ax
pro ximal
cin oma
________ ________
Ġunex pected
Ġhemodynam ic
Ġeasi ly
Ġexceeding ly
ocar cinoma
Ġupd ated
Ġtamp onade
o ff
v es
Ġ "
Ġc res
ar io
en ario
Ġle n
Ġti m
Ġpatient s
Ġref e
Ġsc enario
omin ate
Ġperic ardi
Ġmal position
Ġcontu sions
Ġcircum scribed
Ġreason ably
chondrom a
l ator
m ic
r ous
Ġan ticipated
Ġlo ose
Ġor ific
Ġex piratory
Ġli k
Ġinf er
Ġcompar ing
Ġsta ff
Ġbrach y
Ġec mo
Ġtotal ly
cal c
Ġdestruc tive
Ġoffic e
Ġquan ti
Ġbroncho vasculature
Ġrelax ation
l ong
s h
Ġi de
ti tial
Ġm axi
Ġre ver
Ġen ough
Ġk ne
gen cy
Ġperf oration
Ġshift ing
Ġrais ed
Ġdiagn osed
Ġobvious ly
Ġdetermin ation
Ġpylor ic
Ġsmo king
Ġradio pacity
Ġclamp ed
Ġcorrela ting
cost al
Ġorific e
p osed
si a
Ġs olid
Ġre direc
Ġpo wer
is sion
Ġsc oliotic
rect omy
olog ist
Ġamo unts
Ġperic ardium
Ġenti ty
Ġexplain ing
Ġoblique ly
Ġpoin ted
Ġintroduc ed
Ġrespon se
Ġmanifes ted
Ġmig ration
titu tion
Ġtrack s
hyd ration
Ġinges ted
Ġcirc ulation
u ro
Ġm us
thor ac
Ġ___ ;
Ġex changed
Ġab rup
ll a
Ġad min
Ġdis appeared
Ġsp an
Ġvis c
Ġearli est
dle s
Ġventi lator
Ġdocum entation
Ġresection s
Ġhypo x
Ġsuc cessive
Ġpe er
Ġquan tif
Ġneph ro
oca val
Ġfung al
Ġevacu ated
Ġabrup t
h is
p ar
s u
t ment
y ear
Ġm r
Ġf la
Ġen chondroma
Ġinter costal
Ġmid c
Ġsta ple
Ġtrans bronchial
Ġloop ing
Ġaden ocarcinoma
Ġr un
Ġinn ominate
Ġstra d
Ġcore valve
Ġeffac ement
Ġintermedi us
a pical
c op
g l
er gency
Ġf ace
us ed
Ġintra pulmonary
Ġcor ac
Ġve il
Ġbronchi olitis
vis ual
Ġdirec tion
Ġorder ing
Ġwork up
Ġconne cted
Ġpate nt
Ġcres c
Ġbrachy cephalic
Ġa ch
ri lobular
Ġwi der
Ġpro st
Ġview ed
Ġhemi thoraces
Ġdis rup
Ġcent rilobular
Ġwors en
Ġro d
Ġdisplac ing
Ġheterogen ous
Ġprojection s
Ġacrom io
Ġradiolog ic
Ġvisc eral
Ġprost ate
Ġc ou
Ġf u
Ġd a
Ġde his
Ġpo ol
oc y
Ġinter vertebral
Ġinter posed
Ġcompar tment
Ġwor st
Ġexp ect
Ġatri ocaval
Ġsw allow
Ġrefer rable
Ġfo und
Ġscat ter
Ġem ergency
Ġcir cular
Ġreach ed
Ġpenet rated
Ġcran ially
Ġcompens atory
Ġduc t
Ġkne e
b ack
i ate
s titial
Ġp al
Ġc re
Ġt ail
ph renic
se t
Ġev ening
at ch
Ġrec ord
Ġsome tim
Ġins titution
Ġpass ed
Ġop tim
luc tu
Ġta ke
Ġbro ad
Ġspondy l
Ġdeco mpres
Ġdehis cence
Ġsometim es
a bility
o mal
Ġf luctu
em ar
st ment
Ġst ated
Ġimp ing
Ġend ovascular
Ġinters tial
vic e
Ġcl osure
Ġsupp orted
Ġapprec iate
Ġany more
Ġtechn ologist
Ġmar g
Ġdiscontinu ed
Ġtransp arent
Ġwan ing
Ġosteoarth ritis
cop d
a renchymal
e red
v r
Ġ ul
Ġi cu
Ġs ac
id e
Ġsi mple
em ia
Ġun d
Ġun de
Ġinter ventional
Ġinter vening
Ġu sed
de monstration
Ġadv ance
Ġ___: ___
Ġessen tial
Ġbronchiecta tic
Ġmeas u
Ġser vice
Ġcareful ly
Ġocclu sion
Ġpleurop arenchymal
Ġwax ing
Ġquanti ty
Ġnephro stomy
b d
e ity
h em
al led
or ting
en ess
mal e
ch est
oc on
Ġob long
Ġnod ulation
Ġapical ly
ex isted
Ġph renic
Ġ0 1
Ġ0 2
Ġphysi ologic
Ġdisco id
ortic ation
Ġreason able
Ġecta sia
Ġanat omy
Ġseed s
Ġlap ar
Ġbulk y
Ġresor ption
Ġhypox ia
Ġcou ple
a icd
m um
p ose
Ġc ry
Ġin te
Ġpro ble
gm en
Ġmay be
Ġcl os
Ġassess ing
Ġne uro
Ġbronchogra m
Ġfe male
Ġman ub
app ro
Ġmy co
Ġsplen omegaly
Ġlip oma
Ġclar ification
Ġdec ortication
Ġeffective ly
Ġmus cle
Ġacromio humeral
Ġcry pt
g ic
w h
Ġa ware
Ġpo ck
op ulmonic
Ġassoc iation
Ġphysi ology
Ġoc ca
Ġdeline ation
pa tient
Ġsple en
Ġlob ulation
Ġlev ocon
Ġaort opulmonic
Ġpara hilar
Ġsafe ly
Ġaccording ly
Ġtim es
Ġquantif y
Ġpool ing
gmen tectomy
Ġmyco b
Ġpock et
th y
in oph
te ms
Ġl a
Ġe os
Ġb ur
Ġri m
Ġnormal ized
Ġde li
Ġag ent
Ġqu er
Ġlayer s
Ġheterogen eity
def ibrillator
Ġmargin ally
Ġbul b
Ġaccum ulating
neumon ic
Ġcoars eness
Ġinform ed
Ġfibro sing
Ġdecompres sed
Ġeos inoph
, .
i ted
t om
te ration
ti me
ac uation
ic in
Ġlo cule
ch an
gen ic
Ġgi ve
Ġconf orm
Ġtrans fusion
Ġmet al
Ġshort ness
Ġsystem ic
Ġlob ular
fe ren
Ġus ual
Ġmen is
Ġdisplay ed
Ġspondyl osis
Ġcrypt ogenic
Ġlevocon vex
Ġeosinoph il
d uoden
e mph
e lling
Ġc olum
ti zing
Ġin de
Ġm vr
ul ates
ro tizing
Ġv icin
ta tic
Ġun it
Ġsu ction
Ġmo ved
Ġpa ds
Ġev acuation
Ġvasc ul
Ġal teration
Ġhemi di
Ġsp laying
Ġpost op
Ġsur ve
inf lation
Ġro ot
Ġlymph atic
Ġnec rotizing
Ġunf ortun
ud al
Ġsubt ot
inter stitial
Ġconsis ting
Ġrefe rence
Ġmidc lavicular
Ġvicin ity
- -___
e lla
f ocal
o mp
in es
al ign
Ġp t
Ġp ending
Ġm atch
Ġb ra
Ġt ap
id ne
ent ral
edi al
Ġsp ared
Ġk idne
Ġgastro duoden
Ġme chan
ist ration
Ġmi xed
Ġdiscontinu ity
Ġobtain ing
Ġplan e
Ġadmin istration
Ġdeli vered
Ġeosinophil ic
Ġcolum n
Ġunfortun ately
Ġgastroduoden al
c ated
p tal
u id
Ġn ine
ti ce
Ġf a
ra m
Ġse gmentectomy
Ġbe li
Ġcardiom ediastinum
per i
Ġha ir
Ġad m
Ġad ded
Ġte ar
Ġprominent ly
Ġcur ved
ecta sis
ca bg
Ġcosto diaphragmatic
Ġinvestig ation
Ġinvestig ated
Ġbranch ing
Ġreaccum ulated
Ġide al
Ġtail ored
emph ysema
h eart
k le
r ou
Ġp rac
en sitive
um b
ast rium
ia bly
oc omp
Ġdi ver
ograph ic
us ci
Ġres ected
Ġdegen er
Ġadj u
Ġhern iation
Ġtrans luc
Ġcharac ter
Ġcurv es
Ġnone theless
Ġaff ect
Ġgrow th
Ġaccur ate
lin ing
Ġimmun ocomp
Ġmarg inal
usci tation
j usted
al ed
ed ema
Ġis out
Ġre verse
Ġd y
Ġon set
Ġover lay
Ġpre vascular
Ġca ps
Ġexclu ding
Ġres uscitation
Ġbronch oscopic
Ġexamin ed
Ġins uff
Ġins ensitive
Ġnec rosis
cur ring
Ġrepe ating
Ġabs ent
Ġasc er
Ġma mm
Ġirregular ly
Ġdeline ate
Ġsys tems
Ġcontribu tes
Ġsuppor tive
Ġepig astrium
gra de
Ġepiso de
Ġrup ture
Ġoptim ized
Ġclos er
Ġocca sion
l os
Ġno tice
Ġin ad
Ġch em
Ġor din
Ġex piration
Ġinter mit
Ġca pping
Ġper if
tic ul
Ġtermin al
Ġiden tical
Ġkn ow
Ġ3 0
Ġadj usted
Ġout lining
Ġdrain ing
Ġhypertroph y
Ġec g
Ġunusual ly
Ġtoo th
Ġcoalesc ence
Ġintrac ardiac
Ġopp osed
Ġepiso des
Ġwhite out
Ġestabl ished
venti lated
Ġinfer olateral
Ġspan ning
Ġunde res
Ġquer y
Ġsubtot al
Ġadm ission
Ġinad ver
Ġintermit tent
b ronch
d g
s ub
u k
w ing
Ġth rom
Ġc bd
ti v
res s
an ding
Ġv entral
Ġle uk
Ġd emar
Ġ___ -___
ogra ft
ase ptal
Ġvi si
ll ation
Ġend ograft
Ġass y
Ġpar aseptal
Ġang ulated
Ġro om
Ġcur ls
Ġhern iated
Ġretrac ting
Ġbi le
Ġosteophy tic
pe l
Ġnur sing
ill ance
oper ic
Ġreveal ing
Ġcyst s
Ġanatom ical
Ġparalle l
Ġcap tured
Ġturn ed
Ġgallst ones
Ġdisrup tion
Ġmanub rium
Ġsurve illance
a ti
f ib
p ost
v ent
w i
Ġ :
en th
en tic
Ġb reak
Ġw ound
Ġv ary
ta ge
Ġcardi a
Ġre d
Ġor dered
Ġse quence
Ġpro xim
Ġex cre
Ġint ral
Ġelev enth
Ġsta ge
Ġang i
Ġcompres sed
Ġconf ident
Ġcrow d
operative ly
ho od
Ġallow s
Ġsw elling
Ġr v
Ġbreast s
Ġosteophy tosis
Ġcavi tating
Ġmic ro
Ġarthrop lasties
Ġsuccessful ly
eval uation
Ġocclu ded
Ġfluor oscopic
Ġmycob acterial
Ġmenis cus
Ġbeli eve
Ġimmunocomp romised
Ġordin ary
Ġproxim ity
s up
x y
Ġa ris
Ġp n
Ġthe lower
te llation
Ġs ymmetry
Ġl acer
Ġin jec
Ġin ability
Ġm ural
Ġan s
Ġf dg
Ġre cess
ch ange
Ġen hanced
Ġcons tellation
is tic
Ġon line
creas es
Ġinf lation
Ġdis ch
Ġconsistent ly
Ġsetting s
Ġdist orts
Ġcompl icated
rop lasties
Ġirregular ities
Ġrel iably
Ġpull back
Ġmis sed
Ġmi mic
inter val
Ġopp ortun
Ġpan cre
Ġgrad ual
bi op
Ġcresc entic
Ġul tim
Ġvascul itis
Ġhemidi aph
Ġlacer ation
v olum
Ġp i
Ġp ut
si tial
te ral
Ġis ol
ul ate
ro tated
Ġto ler
ch ronic
ear ly
lec tomy
se en
Ġcomp rom
op e
Ġinter sitial
ss a
Ġj us
Ġbronch ogenic
Ġhe re
Ġevalu ating
Ġij v
Ġtrans catheter
Ġallow ances
Ġtra pped
Ġfo ssa
Ġr ul
ap y
Ġdisc los
Ġread justed
Ġbiop si
Ġhydro thorax
Ġelement s
Ġwide ly
Ġcircum feren
Ġech o
til ity
Ġbleb s
Ġmaxi mum
Ġascer tain
Ġinadver tent
biop sy
Ġdisclos es
g agn
j ejun
r u
al ectasis
si c
as tic
Ġm es
Ġan tero
ul oplasty
neum o
it z
Ġat alectasis
ad der
val ent
Ġrec on
cardi a
Ġpar ac
Ġsim ult
Ġvis cus
Ġro of
Ġdiffic ul
Ġnec rotic
Ġpectoral is
Ġfib rous
rop en
tain ing
Ġtre itz
Ġapproach ing
Ġreported ly
Ġdocument s
Ġdetermin ing
Ġaccum ulated
Ġartifac ts
Ġsecure ly
Ġneut ropen
Ġossif ic
Ġobjec ts
su ed
visual ization
ocy tosis
Ġtap ered
Ġmechan ical
Ġadju stment
Ġunderes timated
tiv ation
gagn i
Ġsimult aneous
c ol
n ed
r in
r ning
s en
Ġthe cavoatrial
Ġin st
um inal
an z
Ġover hydration
Ġg et
Ġg anz
Ġinf ra
tive ly
Ġpar ap
Ġsur pri
Ġju d
ty pe
Ġcav ities
Ġthickening s
Ġout patient
Ġverteb roplasties
und ant
oscle rosis
Ġph ase
Ġinvol ved
Ġx ray
Ġcoron al
ca ve
Ġdoubt ful
Ġmor gagni
osi te
Ġpe ak
com b
Ġdiscord ancy
Ġstra igh
Ġproduc ing
Ġclamp ing
Ġmean time
Ġtendin opathy
Ġbenef icial
Ġstrad dles
Ġinde ed
Ġthrom b
wi th
Ġvary ing
Ġexcre ted
volum e
Ġcircumferen tial
Ġparap neumonic
r d
t ry
al veolar
or ph
di ty
un ds
Ġpro f
Ġen c
Ġinter lobular
li ght
asi a
Ġsub chondral
Ġmid zone
Ġcomparison s
uc kle
Ġrep orts
de velop
Ġsuper olateral
Ġsuper infection
Ġinfection s
Ġhyper sen
ps in
Ġventricle s
Ġpul se
Ġtak es
Ġhydrop neumo
Ġreac tivation
Ġenter tained
Ġdisloc ated
Ġsurro unded
Ġdesi gn
Ġsidehole s
Ġdeco mpression
Ġste p
pos terior
Ġbenef it
Ġer o
Ġequi valent
calc ified
Ġrun ning
Ġsac cular
Ġproble m
Ġalteration s
rou p
Ġperif issural
Ġopportun istic
Ġisol ated
Ġstraigh ten
c ing
c oplas
i as
p endent
p neumothorax
y comb
Ġ ter
th ird
Ġp r
Ġe q
ac ia
id es
ch ed
ph a
Ġ___ ).
et te
der ly
Ġsize able
Ġab lation
Ġover dis
Ġg roup
Ġrec t
Ġmul tin
one ycomb
Ġnod al
Ġdist inc
Ġresi de
Ġel derly
Ġlocal iz
Ġstern oclavicular
Ġkink s
Ġring s
Ġreassess ed
dynam ic
Ġhorizontal ly
Ġexacerb ated
Ġgallst one
Ġbra in
Ġtransluc ency
pel vis
Ġtoler ate
col la
try psin
Ġhypersen sitivity
coplas ma
Ġmultin odular
c ts
g th
o king
p ment
r and
te rom
Ġl ll
as m
Ġin h
di lated
Ġan ulus
Ġh oneycomb
ff y
ta sis
om atous
Ġ___ =
Ġde b
ew ise
Ġmil iary
Ġst anding
Ġpre dis
Ġal pha
Ġper tin
Ġg uid
ot tic
Ġ2 5
ma ge
Ġres em
Ġpac s
Ġbronch osp
Ġvisual ly
Ġhe ading
Ġsta ges
ĠĠĠĠĠĠĠĠĠĠĠĠĠĠĠĠ ĠĠ
Ġshort ly
Ġorig inal
Ġam orph
ĠĠĠĠĠĠĠĠĠĠĠĠĠĠĠĠĠĠĠĠĠĠĠĠĠĠĠĠĠĠĠĠ ĠĠĠĠĠĠĠĠĠĠĠĠĠĠĠĠĠĠ
Ġrel iable
Ġfav ored
Ġasbest osis
Ġmy oc
Ġmy coplasma
Ġevol ution
Ġcoinc ides
Ġpara esophageal
Ġflu ffy
Ġent ry
Ġgrad ually
Ġlik ewise
Ġredirec ted
gl ottic
Ġlapar oscopic
Ġnotice able
Ġhydropneumo thoraces
Ġpertin ent
b ed
i ble
m ia
t rache
re teral
Ġo vere
Ġis s
Ġb ot
res t
Ġf ash
Ġlo oking
ch arac
Ġbe com
Ġsil l
Ġedema tous
Ġex change
Ġst ar
vi sion
aly zed
Ġsub glottic
Ġmid esophagus
Ġsp lin
ule s
Ġgre ate
Ġdisplac es
Ġins pec
Ġhi v
Ġdeg ra
Ġten d
con taining
Ġextra thoracic
Ġdeno ting
Ġanti trypsin
Ġvar ic
Ġvar ied
Ġdistinct ly
Ġimpac ted
Ġaort osclerosis
Ġach i
align ment
Ġdiver ticul
Ġconfident ly
Ġaris ing
Ġultim ately
Ġdistinc tion
Ġ___= ___
Ġamorph ous
Ġfash ion
charac teri
Ġsplin ting
i le
m ass
p olar
r ance
v ole
Ġa dynamic
re tro
Ġthe mid
Ġc ement
Ġs ol
Ġre tention
Ġcomp an
houet te
Ġsilhouette d
Ġst rand
rac ted
Ġti l
Ġsub phrenic
Ġintersti tal
Ġkn uckle
Ġsome thing
Ġbl astic
Ġconf ined
Ġconf used
Ġcur ving
Ġtrace able
Ġincreasing ly
Ġsa id
the sis
Ġentire ty
Ġge ographic
rach iocephalic
way s
Ġacrom ion
Ġcv p
Ġtransp lant
Ġfibro thorax
Ġestabl ish
Ġobliter ates
Ġequi pment
Ġpericardi tis
Ġcompartment s
Ġimping ing
Ġmeasu red
Ġbur den
Ġpt x
Ġvisi bility
Ġassy metric
sup ine
Ġdifficul ty
rin sic
Ġinst rum
Ġlocaliz es
colla pse
Ġovere x
Ġgreate st
Ġinspec tion
b y
b rachiocephalic
w alled
re es
Ġp en
Ġc vc
ed s
Ġo xy
Ġin creases
un k
ul y
Ġre expanded
ble s
Ġcomp romised
ec k
Ġinter section
li hood
Ġca udal
Ġlike lihood
Ġenlar ge
Ġnot ch
ir ds
Ġidentif iable
Ġpic ture
Ġconcern ed
Ġthick ness
Ġbl unts
Ġcur ling
Ġout line
Ġprogres s
Ġph d
Ġpreced ed
Ġgen u
duc tion
Ġop en
Ġwarran ting
ari es
other apy
oplas tic
Ġabscess es
Ġaff ected
Ġclar ified
Ġdistinguish ing
Ġrestric tion
Ġmicronod ules
bl adder
Ġgall bladder
Ġent rance
thorac entesis
Ġcorac oclavicular
Ġda mage
Ġprac tically
Ġbiopsi ed
Ġrecon struc
Ġsurpri sing
Ġrect angular
Ġhoneycomb ing
Ġbronchosp asm
Ġoxy gen
b ol
i mal
l ic
m ar
p en
t ary
t op
Ġp in
Ġp ill
Ġp lates
or ated
Ġo wing
Ġin ten
Ġm ess
di c
Ġb ar
Ġf all
Ġf las
Ġcon ce
Ġre in
Ġre oc
Ġd ome
Ġch eck
Ġex cur
Ġra pi
ec ts
if ying
Ġpre pyloric
Ġpre vent
Ġal ways
Ġabnormal ly
Ġrep orting
Ġpor tal
Ġdef ects
Ġsc ope
Ġsim ulating
Ġar g
Ġtrac h
Ġany thing
Ġfi st
Ġadvan tage
Ġnon visualization
Ġy o
Ġneed le
etermin ant
Ġtypical ly
Ġdiscern ible
Ġneph rectomy
Ġrup tured
Ġcut aneous
Ġlen gth
Ġlik ley
Ġredirec tion
Ġcorac oid
Ġpal sy
Ġlocule s
Ġinjec table
Ġjus tified
Ġsimultaneous ly
terom edial
Ġsol itary
Ġoverex panded
Ġgenu ine
Ġmess age
Ġexcur sion
c lavian
p nel
s ternal
s tatic
w or
in creased
te chn
Ġl ad
ac tive
un ited
Ġh um
Ġcon tained
Ġcon duction
ra pnel
Ġre evaluated
om ies
pac er
Ġpro ced
Ġas per
Ġdi aph
Ġu ip
Ġchang ing
Ġpre gn
Ġpre clu
Ġal tered
Ġg ir
rem ent
he patic
Ġsli ver
Ġad he
Ġremo de
Ġintra aortic
Ġaortic opulmonary
rib ut
Ġesophag ram
Ġnote wor
Ġdeg rees
Ġmal e
Ġrotation al
Ġeven ly
Ġoff er
Ġaccess ory
sha ft
Ġhydro static
Ġmis sing
Ġfragm ented
ok ed
Ġdys p
Ġuniform ly
sh ot
Ġrever sed
omal acia
wh en
Ġkidne y
Ġinsuff iciency
characteri stic
vole mia
Ġflas h
Ġrapi dity
Ġyo ung
Ġproced ures
Ġasper g
Ġnotewor thy
d um
n ight
u te
Ġa u
ti a
Ġe limin
ri tic
Ġb ic
Ġan omal
um on
ne a
Ġre vision
Ġun related
Ġprocess ed
den sity
den dum
he aled
Ġpos ture
Ġpar alysis
os u
rec ent
Ġpres ervation
Ġpersis ted
Ġemph asi
Ġtrans fer
Ġafter no
Ġhyp oplastic
Ġresul ted
Ġtra pping
Ġgastro jejun
Ġwithdraw ing
Ġthy m
severe ly
Ġinfar cts
ici an
ud ent
Ġtr unk
Ġdepic ts
Ġprecise ly
Ġmi x
Ġeffec ts
Ġopp osite
venti lation
arge ted
Ġpericardi ocentesis
Ġneuro genic
Ġdemar cated
fib rosis
Ġcomprom ise
Ġparac ardiac
Ġpr udent
Ġafterno on
i ma
m l
p o
p or
t racheal
Ġa vascular
Ġl ump
Ġno on
Ġm ediastin
di uresis
Ġt argeted
Ġle a
Ġun s
Ġapp li
is tent
is ms
Ġpa id
Ġvasc ula
Ġwe ight
Ġmid shaft
at ology
Ġinf low
Ġpresent s
Ġad dendum
Ġsh rapnel
Ġsuper f
Ġtortu rous
Ġdisten ds
Ġenti ties
Ġgo es
Ġr ll
Ġem ergent
Ġsep sis
Ġdependent ly
Ġsymptom atology
Ġann uloplasty
Ġhema t
Ġarth ritis
con t
Ġdeno ted
Ġdeno tes
Ġradioluc ent
Ġclus tered
Ġwork ed
hem orrha
appro priate
Ġbulb ous
Ġfa ther
Ġans wer
Ġdesign ed
Ġmyoc ardial
Ġtend on
retro cardiac
techn ique
Ġtransfer red
Ġgastrojejun ostomy
Ġvascula tures
c loc
d ant
f a
f orm
i mp
m ick
ar a
Ġl av
er cing
Ġh id
Ġh ick
Ġf lan
il lary
Ġse lec
Ġse ated
Ġpro t
Ġpro ven
Ġmo d
Ġfocal ity
Ġu reteral
min imal
Ġover ly
den cy
Ġother s
ma il
Ġsh in
Ġintra parenchymal
Ġmulti lobar
Ġindi rect
quent ly
Ġperform ance
Ġinv oked
oin t
av ailable
Ġhemorrha gic
Ġrefer able
Ġmeas ure
Ġatten dant
Ġsen ds
Ġsy n
Ġtri polar
Ġtraver sed
Ġog t
Ġorgan ized
Ġorgan isms
Ġmi mick
stroph ic
Ġexce eds
evalu ate
Ġpur pose
Ġreaccum ulating
________________ ________________
Ġmaxi mal
Ġfluctu ating
Ġdy strophic
Ġpi ercing
Ġter ms
Ġbot tom
Ġtil ted
Ġfist ula
osu pp
Ġlump ectomy
cont rast
cloc k
Ġlav age
Ġhick man
Ġflan k
g ged
o rem
p ied
p oint
th ia
th irds
in testinal
al asia
Ġp ne
le ural
Ġi m
Ġn ight
Ġs ched
en tioned
Ġin se
Ġin ner
Ġin appropriate
Ġb asi
ro b
Ġcon gl
ne w
mon ia
Ġcardi al
Ġcardi operic
ent al
om er
Ġun co
Ġun available
Ġse iz
et y
ew el
ec al
ec tious
Ġinter rup
if e
li thia
asi ve
Ġg un
Ġg ut
ir ing
Ġj ewel
Ġrep lete
de pendent
ach y
Ġpost inflammatory
Ġcan al
Ġjunction s
Ġcor rec
inf ectious
Ġdist racted
Ġpres ump
Ġtrache omalacia
Ġobs erve
Ġaf orem
Ġthorac oplasty
Ġsemi upright
Ġme lan
Ġhyd ration
Ġr ml
Ġcho le
Ġten dency
Ġhypo ventilation
Ġhole s
Ġtr uly
Ġosteo ly
Ġmic u
Ġreveal ed
Ġcann ulates
Ġspon taneous
Ġdiagnos es
Ġconclu sion
Ġplan es
Ġcontribution s
Ġimmun osupp
Ġfluor oscopy
Ġ(___ ,
par able
Ġach alasia
Ġla be
Ġmamm ary
Ġintral uminal
develop ing
trache a
Ġbecom es
Ġdiverticul um
Ġcompan ion
Ġau gm
Ġsuperf icial
Ġhid den
Ġmimick ing
Ġsched ule
Ġinse parable
Ġcongl omer
Ġcardioperic ardial
lithia sis
Ġjewel ry
Ġaforem entioned
Ġmelan oma
a ded
a ged
c ent
c oma
h ing
p at
w ent
Ġthe r
ar ticular
Ġi at
Ġl arynx
Ġin ade
ic e
Ġsi ght
om eter
Ġch ond
Ġnormal ization
Ġde lay
Ġlow est
Ġex cessive
Ġas y
Ġapp ara
Ġradi ating
eg ally
Ġsub jec
Ġbas olateral
Ġrec umb
Ġclin ician
Ġunder went
Ġsta t
Ġimprov es
Ġdist orting
Ġro tary
Ġ4 8
Ġconst ruc
Ġdesc ri
pect oral
pre vious
Ġgastro intestinal
Ġbrach ial
ber kn
Ġr n
Ġrecogn ize
Ġpatholog ies
Ġcosto vertebral
Ġsepar ated
Ġoccu pied
Ġmanifestation s
Ġpreoperative ly
Ġretu rning
Ġcy cle
Ġantibiotic s
Ġform ed
Ġstra ight
Ġrestric tive
Ġsmooth ly
Ġdifferenti ation
Ġattemp ts
gra m
pos es
Ġtendin itis
Ġpal p
wh ich
Ġleuk ocytosis
Ġdisch arge
Ġpancre atic
Ġneutropen ic
Ġhum eri
Ġgun shot
Ġinade qu
Ġappara tus
berkn ife
b asal
d den
d ling
e ved
g et
y ne
on ec
Ġa di
Ġno tic
Ġin ver
di cular
Ġb r
ou ch
Ġan ast
ro genic
Ġv ol
Ġle av
Ġre identified
Ġch alle
ation s
Ġco unt
ce toma
Ġsu dden
Ġde terior
Ġcardiom egally
Ġen h
Ġcons ul
Ġcons titu
Ġmo t
is ter
op ing
Ġst o
Ġst ric
Ġhemi arth
Ġtermin ated
Ġsh il
tle d
Ġintra m
Ġhyper volemia
Ġcor rob
Ġdist ribu
Ġlinear ly
Ġro w
Ġextensive ly
Ġout let
lo d
Ġacc es
Ġtrans mit
Ġinv asive
Ġheterogeneous ly
Ġmal alignment
Ġind eterminant
Ġdep ressed
Ġbronchi olar
Ġrecei ve
Ġr u
Ġr fa
Ġoc curring
Ġmaterial s
Ġcardio esophageal
las tic
Ġcondition s
Ġfunction ing
Ġmy cetoma
Ġremnant s
Ġcy berknife
appear ance
Ġspur s
Ġmyel omatous
Ġimplan table
Ġplan a
resol ved
Ġsublu xed
Ġdisplay s
Ġconsis ts
Ġobliter ated
Ġrun s
Ġstrad dling
visual ized
Ġfu ture
Ġla min
peri hilar
Ġcaps ule
Ġintermittent ly
Ġangi ography
Ġantero posterior
Ġsill ou
Ġmediastin oscopy
Ġchole lithiasis
Ġschedule d
Ġiat rogenic
onec rosis
Ġanast om
Ġleav es
Ġchalle n
b dom
g it
i re
i oca
m ented
s py
u ated
v as
al though
Ġs pacer
en ces
Ġis sued
as tia
ri ty
ul lary
Ġwi spy
Ġsi gm
Ġde v
ew ire
og ast
is thesis
Ġpneumon ias
ron e
Ġper pen
Ġg yne
Ġsub sternal
Ġinf lu
Ġimp ella
Ġhemi thoracic
Ġsin ister
Ġpresent ing
Ġdis lod
Ġcl ot
Ġsim ulates
Ġdist ress
Ġscar ing
ment ary
mo tility
Ġhetero top
Ġtw el
Ġoste otomy
Ġoste onecrosis
Ġdic tating
Ġman a
Ġquestion s
Ġorig inating
Ġsharp ness
Ġsymptom atic
Ġdoub ted
Ġtuber osity
Ġstron ger
Ġreason s
Ġhospital ization
com astia
Ġreticulation s
Ġdiscern able
Ġdys motility
Ġbranch es
Ġcorrela tive
Ġmeasu rement
Ġdegener ate
Ġoccasion ally
Ġoverdis tention
Ġguid ewire
Ġinstrum entation
Ġreconstruc tion
Ġpill s
Ġdysp nea
Ġrecumb ent
Ġsto ol
Ġhemiarth roplasty
Ġacces sible
Ġsigm oid
Ġperpen dicular
Ġheterotop ic
. )
f th
g astric
g rity
p ossible
t te
v ised
y sis
Ġa way
re l
Ġp as
ar ity
te x
le s
or ally
Ġs qu
Ġm ac
Ġw alled
Ġan alyzed
Ġt ral
Ġf lus
Ġle g
Ġre curring
Ġre vised
om en
om an
om ediastinal
em ber
Ġlo st
tu e
be ctomy
ph er
Ġpro ve
Ġopac iti
Ġopac if
Ġ___ )
Ġmild y
Ġat lectasis
lar ged
Ġover riding
ges tion
Ġhem ia
he um
Ġidentif ies
ma tic
iz able
Ġbronch opulmonary
Ġsupp le
Ġadj oin
lo se
Ġsec tion
Ġsec tional
Ġnon dilated
Ġsa git
olog ical
Ġreplac ing
Ġpredomin ate
Ġcoron aries
Ġme ta
Ġnipple s
Ġatten uated
Ġartif icial
Ġcen ter
Ġdisc lose
Ġdiscre p
Ġelement ary
Ġextra vas
Ġfunction al
Ġpel vic
Ġrequi sition
Ġmed ication
Ġcran ioca
Ġpara vertebral
Ġvir tue
Ġdisp arity
Ġdownward s
Ġconceiv able
Ġexact ly
Ġproduc t
Ġconne ction
Ġmodal ities
Ġtendin osis
Ġpneumatocele s
Ġassum ing
Ġsupra diaphragmatic
Ġfla gged
hem othorax
Ġinte grity
Ġconform s
Ġdegener ation
Ġchem otherapy
Ġmimic s
Ġero sive
Ġachi eve
Ġreoc currence
Ġpregn ancy
Ġremode ling
Ġenh ance
Ġmot tled
Ġshil houette
Ġchallen ging
ogast rectomy
Ġgyne comastia
Ġtwel fth
Ġadjoin ing
Ġsagit tal
a f
a i
g un
th ick
Ġa a
Ġc c
or n
di agn
Ġb ent
Ġan teromedial
Ġt al
Ġt achy
Ġri se
Ġcon ver
Ġcon cav
Ġpneumo bil
be it
Ġcont ribut
Ġst ran
Ġpre pectoral
Ġal beit
Ġper ia
Ġrem ission
Ġinf use
Ġsli gh
Ġpos tero
Ġdis order
Ġsp ot
Ġpost procedure
Ġpar tic
Ġcor tic
Ġunder inflation
Ġte st
ran ial
Ġresidual s
Ġesophag ogastrectomy
Ġnon rotated
Ġgran ular
Ġpect orally
Ġpresum e
Ġcompl ic
Ġind uc
Ġreview ing
Ġtra verse
Ġdep end
Ġali mentary
Ġr heum
Ġasc ends
Ġoc currence
Ġevent s
Ġevent rated
Ġcollaps ing
Ġcephal ized
Ġunderg o
Ġsar coma
Ġble ed
Ġrecogn izable
Ġposterolateral ly
Ġvar iable
Ġassis ting
Ġaffec ts
Ġexpan ding
Ġdissemin ation
Ġassist ant
Ġmagn ification
Ġrequ iring
Ġoper ation
Ġimport ance
Ġinvestig ate
Ġpleurop ulmonary
Ġassum ed
Ġlen ticular
calc ification
Ġcre ating
Ġmatch es
Ġkidne ys
Ġchem o
Ġred undant
Ġmes h
Ġeq ual
Ġconce al
Ġbic on
ima ging
Ġlea ving
Ġmod est
Ġseiz ure
Ġconstruc t
Ġnotic ed
Ġmana gement
Ġtral i
Ġdiscrep ancy
thick ening
Ġpneumobil ia
Ġstran ding
i ar
l isthesis
m ark
m eter
n g
p neumon
s light
t on
Ġa id
Ġp ulmon
Ġi tem
Ġn a
Ġs pi
en larged
er rant
Ġm s
Ġm ember
Ġb it
ro l
id ed
id ence
Ġpneumo th
Ġun resolved
lec tion
Ġbe gun
Ġpro fusion
Ġ___ '
Ġen ded
Ġapp e
Ġpa ir
Ġon es
Ġab undant
Ġab errant
Ġpre existed
Ġca pacity
ric al
Ġwh e
at ric
Ġend o
Ġha mar
Ġidentif ication
Ġsh or
Ġac tual
Ġar rest
Ġcor tex
inf erior
Ġborder ing
Ġbl unt
Ġtechn i
Ġnon calcified
Ġnon dependent
Ġhyp oden
Ġperic ardiac
Ġcompl ain
Ġmal positioning
Ġext rinsic
Ġrecei ving
Ġgranuloma ta
Ġvague ly
Ġpros tatic
Ġcuff ed
Ġman ip
Ġoc cur
Ġpleu ritic
Ġscle ro
Ġgraft s
Ġradioden sities
Ġoverla ps
aer ation
con gestion
Ġpatholog ically
Ġreturn s
ju stment
nam ic
Ġdiscon ne
Ġsufficient ly
Ġexpan der
Ġdiscontinu ities
Ġip f
Ġstra in
resol ving
Ġrelation sh
bi ventricular
Ġda ta
Ġsimple st
Ġfa iled
Ġdy namic
operic ardium
Ġhemidiaph gram
Ġprof ile
Ġstraighten ing
Ġstar ting
Ġsyn des
Ġlabe led
previous ly
bdom en
Ġhemia bdomen
Ġsupple mented
Ġtal c
Ġperia ortic
Ġcortic ated
Ġinduc ed
Ġbicon cave
Ġhamar toma
Ġrelationsh ip
a sion
g emia
h ette
n cy
u ber
Ġc u
ar ged
or ily
Ġo li
Ġno min
Ġin ci
Ġe ver
Ġm edic
res sing
Ġt ren
Ġf re
Ġf ormal
Ġple ure
Ġre n
Ġd on
Ġch il
em bol
ang er
Ġun ch
Ġpro portion
Ġde hydration
Ġsil hou
ia ting
Ġex uber
Ġcle are
Ġclear s
ten sive
Ġlower most
vi tation
Ġover distended
Ġmid trachea
at oid
ll ate
uc cessful
Ġhem opericardium
Ġinterval s
monstr ate
Ġsign ify
Ġad d
Ġsp e
Ġsp ines
Ġpost treatment
Ġconcern s
Ġpromin ant
Ġexp os
os te
Ġ3 6
ex istent
Ġdiffu sion
Ġemph asis
Ġconf ines
Ġconf idence
Ġso unds
Ġ4 5
Ġqu ick
Ġcom e
Ġfurther more
Ġfi xed
Ġhi p
ward s
Ġsa ber
erv es
Ġinv asion
Ġhigh light
Ġabs ol
Ġthy mic
Ġbibasal ar
ident al
Ġasc ribed
Ġman ometer
Ġkyph oscoliosis
Ġsatisfact orily
Ġreduc es
Ġdocument ing
Ġmanif est
Ġcontinuous ly
Ġstern oman
Ġattribu te
rid ement
Ġdiscontinu ation
Ġform er
Ġintrac ranial
Ġturn s
Ġplan ned
Ġdec ided
Ġste llate
Ġmask ed
Ġpate ncy
Ġimping es
Ġmuscle s
Ġintral ob
Ġangi ogram
Ġdeb ridement
Ġiss ues
Ġrein tubated
Ġasperg ill
Ġemphasi zed
Ġuns uccessful
Ġpiercing s
Ġcorrec ted
Ġconglomer ate
Ġsubjec t
Ġdescri ption
Ġcorrob orated
Ġcranioca udal
Ġconcav ity
Ġcontribut ory
Ġrheum atoid
Ġspi ral
Ġoli gemia
Ġnomin al
Ġmedic ine
Ġpleure x
Ġexuber ant
Ġcleare r
Ġexpos ures
a rence
b ling
c ine
c tasis
m ophy
m edian
o pacity
t og
t ran
t rial
v ulus
th is
Ġa vid
Ġs pher
er ing
Ġno thing
Ġin side
Ġin test
ri t
Ġb ow
un tered
ou th
Ġf li
Ġv ac
Ġcardi op
Ġch arge
em ic
it ous
Ġco oper
ph oid
Ġpro por
st inal
Ġen co
Ġpo ly
Ġpa ger
Ġcont rol
Ġli ft
ogra ms
Ġu tility
ow led
Ġover laying
Ġover night
Ġca bles
Ġal tog
ren ced
Ġmid way
ib it
Ġ2 8
ma iled
Ġrec order
xi phoid
Ġexp lor
Ġac kn
Ġtor sion
Ġver ge
ĠĠĠĠ Ġ
Ġfol ding
tec tom
Ġadv is
Ġany where
Ġout lines
Ġaccompan ies
Ġfib ronod
Ġind ole
oin testinal
Ġdo pp
Ġspec ial
Ġdep th
Ġfrank ly
Ġtre at
Ġmas tectom
Ġconfirm ing
Ġem an
Ġgra de
Ġgra vitation
tim ate
Ġreac tions
Ġstri p
Ġdimin ish
Ġke pt
Ġsurroun ds
Ġequivocal ly
Ġcough ing
peric ardial
Ġcoalesc ing
Ġ-- ?
Ġfac ing
inter ventional
Ġproduc ed
Ġhemop neumothorax
Ġbroncho alveolar
Ġpur poses
Ġurgent ly
Ġmean s
Ġassum es
Ġrefe renced
thorac otomy
Ġfla il
Ġtake off
sub clavian
ati tis
Ġpn ue
Ġdisch arged
Ġpancre atitis
Ġget ting
Ġprof ound
Ġstraighten ed
Ġeq ually
Ġdeb ris
Ġresem bling
Ġvaric es
Ġappli ances
Ġprot ru
Ġinterrup tion
Ġvol vulus
Ġstric ture
Ġru gger
Ġdev iating
Ġpas sive
Ġtachy cardia
Ġappe arence
Ġsyndes mophy
Ġspe ak
Ġabsol ute
Ġsternoman ub
Ġspher ical
Ġpropor tional
Ġenco untered
Ġaltog ether
Ġackn owled
Ġfibronod ular
Ġindole nt
Ġmastectom ies
Ġgravitation al
b ted
f i
h t
o esophageal
s al
t um
v ement
Ġ >
Ġ \
Ġ ~
Ġ um
Ġ xiphoid
Ġa xi
al ation
Ġc ic
ar get
or rect
Ġi l
Ġi ld
Ġs tero
er s
ri min
di ent
un changed
ou bted
res h
um a
an ed
Ġt arget
Ġh ear
Ġf it
Ġcon du
ne ctomy
ta ke
Ġsi cu
ent s
Ġre imaging
Ġd uration
Ġlo os
Ġor if
ter s
ang ing
it ing
Ġco existent
Ġpro ce
___ .
Ġat test
Ġmo der
is tered
Ġpa ying
Ġab ility
Ġstu mp
Ġfor ms
Ġg ap
ot ra
ach ed
Ġinfec tive
Ġretro peritoneal
Ġretro listhesis
Ġcl oth
ard s
Ġass ure
os ternal
Ġnas ointestinal
Ġelev ate
Ġhe pat
ex tubation
Ġcost osternal
Ġte xt
Ġstand point
Ġtrache ob
ule nt
Ġcav o
lavic le
Ġarch es
eri es
Ġnote s
cep tible
Ġmal function
gin ous
Ġfo od
Ġinc on
Ġdevi ates
Ġgranulom atosis
Ġpath ogen
Ġcommun ic
Ġretrac t
lung s
Ġcho ice
Ġbul lectomy
Ġce phalic
Ġorigin ates
Ġgra dient
Ġfixation s
Ġembol ic
Ġduoden al
aryn geal
Ġstabil ized
Ġconse quent
Ġinterpre t
Ġmilli meter
Ġbronchop leural
Ġsuppor ts
Ġendp lates
Ġvir us
sif orm
Ġvariation s
Ġchamber s
Ġproduc es
Ġtransient ly
Ġpur sued
Ġpur ulent
Ġeffac ing
Ġ(___ )
Ġassum e
Ġide ally
Ġfu siform
Ġswallow ing
Ġund oubted
Ġlapar otomy
appro ach
Ġpocket s
align ed
Ġinsuff icient
bronch ograms
Ġneutropen ia
Ġinh alation
Ġiss ue
Ġcheck ed
Ġdiaph ysis
Ġgir dles
Ġanomal y
umon ia
Ġselec tive
Ġaugm ented
Ġanastom osis
Ġextravas ation
Ġtechni ques
Ġcomplain ts
Ġfre quently
tran s
Ġfli pped
Ġcooper ate
Ġeman ating
Ġsternomanub rial
Ġacknowled ged
Ġcondu it
Ġloos ening
Ġtracheob ronch
Ġundoubted ly
- -
b ase
d eg
d emar
f or
f ol
l ined
l ication
l ind
m ul
n odular
t ch
x ture
y st
in ar
in tubation
in atum
Ġthe right
ar terial
si ze
le n
ti vity
ti ocytosis
Ġs le
Ġl ab
Ġin timal
Ġe luc
Ġm outh
Ġb un
Ġw a
gh orn
Ġf lor
Ġcon ed
Ġcon cave
ta bility
Ġd d
om et
Ġor ph
be t
st rate
Ġopac i
se e
Ġde ci
Ġed ges
oc k
der ma
rac tion
Ġpre vi
Ġti ll
Ġal ler
Ġint rinsic
Ġlim b
Ġpor cine
Ġstruc tural
Ġplac es
Ġplac ing
Ġidentif ying
Ġsign ifying
Ġcal lous
Ġappro ved
ur g
Ġdis position
Ġdis sec
Ġretro grade
Ġcar inatum
qu ing
Ġexp ressed
Ġac ce
Ġk ap
Ġk ub
Ġpat ch
Ġintra operative
inf rahilar
Ġmedi stinal
Ġsta ghorn
ex p
Ġte xture
co ast
co iled
xim ately
Ġro le
Ġpacemaker s
Ġcom ing
Ġout p
Ġdifferen tiated
Ġdeform ed
Ġtrans hepatic
Ġval ue
Ġperf usion
the li
Ġup take
Ġtra vel
Ġbia trial
Ġalign s
Ġbronchi ol
dis h
Ġes timate
Ġobstruc ted
etermin ed
Ġinc orrect
Ġr ou
Ġr po
Ġdevi se
Ġpla quing
Ġdemonst rable
Ġcholec yst
Ġsep tum
Ġapproach es
Ġaneurys matic
Ġread justment
Ġresp ond
Ġhr s
Ġjuxta phrenic
abdom en
Ġsple nectomy
Ġfragm entation
Ġcavitation s
Ġcoal ition
Ġcy lind
Ġsten ted
Ġbubble s
ocardi tis
Ġradio opaque
Ġsiz es
Ġdisp rop
Ġdeposi t
Ġcover s
Ġeffac ed
Ġinfer om
Ġadmin istered
Ġdisrup ted
Ġfluctu ations
Ġund etermined
Ġinte res
Ġinte rest
Ġproble ms
Ġthromb osis
Ġpredis pose
Ġresem bles
Ġdegra ded
Ġdegra des
Ġstrand s
Ġsurprising ly
Ġbar otra
Ġpreclu des
Ġgir dle
Ġelimin ated
hemorrha ge
Ġosteoly tic
Ġdelay ed
Ġinver sus
Ġbr us
Ġconstitu te
Ġdislod ged
af ter
pneumon ectomy
Ġna me
Ġmanip ulation
Ġsclero derma
Ġpnue monia
Ġstero id
demar cated
Ġeluc id
Ġflor id
Ġorph aned
Ġkap osi
Ġcholecyst ostomy
Ġcylind rical
Ġbarotra uma
b asilar
b owel
c or
c ement
c ap
d ose
f ace
h ibit
i v
k et
k yph
l ctasis
o ke
o venous
o alveolar
o theli
r ates
w ors
Ġ umb
re x
re lla
Ġp rone
Ġthe upper
Ġs al
en ker
en omen
Ġl anger
Ġin stinct
ac y
Ġb al
Ġb ac
Ġan emia
ral uminal
Ġt om
Ġf used
Ġf ecal
ro i
Ġwi ring
Ġpneum atosis
Ġv om
Ġv ast
Ġsi tus
Ġre evaluation
Ġd u
Ġd ental
om f
Ġto ol
edi ally
sis t
ch ase
it on
Ġun com
Ġse ats
Ġco p
Ġbe am
Ġpro mpt
Ġex er
Ġtu rning
op neumothorax
Ġpre op
Ġfor d
Ġmid ly
ss ub
Ġag re
Ġimp act
Ġend ocarditis
ib asilar
per sed
Ġthor ough
Ġthor aces
Ġmini mum
Ġinters persed
Ġappro val
Ġappro xi
pi ent
Ġsp a
Ġsp rea
Ġcar ry
Ġpar alyzed
Ġpromin ences
Ġsim ulate
Ġpac king
Ġcor d
Ġelev ating
stan d
Ġresol ves
Ġver ified
Ġprovid es
Ġloc ally
Ġconf o
Ġqu o
Ġsubse gment
Ġfil l
Ġz enker
Ġhern ias
Ġquadrant s
Ġtran ssub
Ġnon contrast
sel ves
am ous
ect ly
teri a
Ġperf ectly
Ġaccomp l
Ġmin eralization
Ġph enomen
Ġconfluent ing
we red
Ġfail s
Ġext raluminal
Ġdep ends
no te
Ġshadow ing
Ġy i
roid ectomy
Ġlum ens
Ġrede monstrate
Ġshar per
mptom atic
Ġdisc rimin
Ġconvex ed
ogen ous
Ġhypo tension
Ġdifferent ly
Ġhyperluc encies
ling ular
Ġaccumulation s
Ġvari ety
Ġblur red
Ġobliqu ed
Ġmorph ological
Ġsmo ker
Ġfever s
Ġta per
han s
verteb roplasty
Ġhis tiocytosis
Ġradioluc encies
Ġconclusive ly
Ġpur chase
Ġpan coast
Ġthem selves
su peri
Ġcresc ent
ocy st
Ġconform ing
sub tle
Ġhemidiaph ram
Ġmes otheli
Ġjud ging
Ġsuperolateral ly
Ġoverdis tension
Ġvaric ella
Ġachi eved
bol ic
Ġadhe sion
Ġadhe sions
Ġmix ture
hemorrha gic
Ġimmunosupp ression
Ġchond roid
Ġasy mptomatic
Ġpalp able
Ġinadequ ately
Ġdeterior ation
Ġconsul tation
Ġopacif ies
Ġmeta bolic
Ġpartic les
Ġchemo embol
Ġdisconne cted
Ġbow ing
Ġadvis able
Ġdiminish ing
Ġcic atric
Ġdd x
Ġaller gic
Ġbronchiol oalveolar
Ġinteres ting
Ġbrus hing
Ġumb rella
Ġlanger hans
Ġapproxi ma
Ġsprea ding
Ġtranssub clavian
Ġmesotheli oma
Ġchemoembol ization
a ta
b ut
c ortic
d own
e vent
f ic
g uid
k in
l asia
o led
p in
s table
s eries
u em
in duc
Ġp pd
Ġp here
Ġp umon
Ġc ll
ar ca
le ts
Ġi i
ed ullary
Ġo m
Ġis coiled
as arca
Ġin struc
Ġe as
Ġm ental
ac cum
Ġb ol
un ion
Ġan asarca
ul sion
Ġt ack
Ġt old
Ġh o
il iar
Ġle an
ra tch
ang i
Ġun identified
tu se
tu itous
Ġco mpressions
Ġco lectomy
Ġpro l
Ġ___ /
Ġate lctasis
et al
Ġen g
Ġpo oled
Ġsil ou
Ġconsolid ate
Ġmo di
der ing
Ġcont ributed
ten ing
Ġinter ventricular
Ġcompa res
Ġst ates
Ġvi gor
Ġpre vertebral
Ġfor tuitous
Ġg ain
Ġg ot
Ġsub strate
Ġmid night
Ġ___. ___
rom egaly
Ġob tuse
omy el
all oping
Ġrec over
Ġcalc ulus
Ġdis k
cardi omediastinal
Ġsc ratch
Ġsc alloping
os tic
ion ella
Ġremo ving
Ġac tivity
Ġatri a
Ġar r
Ġaspiration s
Ġver ify
Ġ3 5
Ġsta tions
Ġthick er
Ġsurgical ly
Ġout ward
Ġfil ls
Ġ5 5
bil ateral
Ġsecond s
Ġtran sition
Ġnon union
am iliar
Ġtrans cutaneous
Ġperf orated
olog ically
cur v
itone um
Ġhyperex tended
Ġunf av
Ġne ural
let on
Ġvag us
Ġthy romegaly
dis m
Ġrefer s
Ġrefer red
Ġes cap
Ġfocus ed
Ġrede monstrates
Ġsen ile
Ġske leton
Ġorigin ally
Ġacrom ial
ord in
Ġreduc ing
Ġdisc omf
Ġcorresponding ly
Ġnarrow s
Ġfiducial s
Ġrespon ded
Ġindication s
Ġble bectomy
Ġstimulator s
Ġglob ally
Ġmorph ologic
cal iber
Ġcoales ced
Ġdepic t
Ġcann ulation
Ġsoon er
Ġhyperden sities
Ġpenet rating
Ġanatom ically
gi ven
Ġparalle ls
Ġbb s
Ġproduc tive
Ġ# ___
Ġbreath ing
mild ly
Ġimmun e
Ġintermedi ate
Ġresor bed
Ġrever sal
Ġspan s
Ġmidc lavicle
Ġexpect oration
Ġcre ates
Ġund ulation
Ġund ulating
appro ximately
thy roidectomy
Ġpt bd
Ġbreak s
Ġpn uem
Ġans wered
Ġcomprom is
Ġjud ged
Ġpeak ing
Ġasperg il
imp ro
Ġadi pose
ouch ing
Ġintram edullary
Ġdistribu te
Ġsillou ette
Ġsqu amous
Ġleg ionella
Ġopaciti y
ai di
diagn ostic
Ġwhe e
Ġinci pient
Ġchil aidi
Ġsilhou tte
Ġquick ly
Ġintest ines
Ġcloth ing
Ġcommunic ate
Ġmillimeter s
bet ter
Ġdisprop ortion
roi dism
Ġvom iting
Ġuncom mon
Ġyi eld
superi or
Ġcicatric ial
cortic ated
event ration
guid ed
induc ed
Ġphere sis
Ġbol us
Ġtack s
Ġvigor ous
Ġdiscomf ort
a min
b ral
c ity
c lavicular
f re
f ied
f ety
h osis
i red
l ty
m ary
p red
p us
p art
p orts
r hosis
s a
s tent
s he
s tim
s ug
u tive
in osis
on ary
Ġc cu
Ġc rac
Ġn ative
ti tion
Ġo mitted
Ġin g
Ġm atter
di d
ou sity
um othorax
ul ous
an ced
an ket
Ġt able
Ġt ag
Ġh ide
Ġf un
ro ax
ic ir
ne ck
Ġthere after
ra ph
ra me
Ġre li
Ġre evaluate
Ġre new
Ġre sist
Ġd ro
Ġd em
Ġlo ad
ch o
tu ration
Ġco unts
Ġbe long
cu tive
Ġsil ic
Ġex hibit
Ġapp er
oc entric
oc rit
Ġra re
Ġab d
Ġradi otherapy
ograph ically
Ġlateral ization
Ġal ve
Ġper cei
Ġper ceptible
Ġg u
ot umor
Ġwh ole
gm ata
tic ulation
Ġhemi thyroidectomy
de len
Ġ2 6
Ġpos teromedial
Ġsign fic
Ġdef ine
Ġinfec ted
Ġretro spec
Ġass ump
Ġpromin ance
qu ency
Ġexp and
Ġsh unting
Ġcan did
Ġju xt
Ġac inar
Ġtor tous
Ġmark s
Ġpat ulous
Ġbronch ocentric
Ġcor pus
Ġhe si
Ġmedi as
Ġunder sur
Ġsome one
Ġperi o
Ġsupp lement
Ġbl anket
Ġso le
Ġ4 0
Ġsti gmata
Ġins ult
Ġins pected
Ġstreak ing
Ġcomb ine
athy roidism
tub er
Ġlymph ovenous
Ġnon cardiac
Ġnon obstructive
Ġnon diagnostic
Ġtrans fi
ect omies
Ġsa fety
Ġsem icir
Ġnear by
Ġpresum ing
Ġpersist ant
Ġill ness
Ġge ographically
Ġspec k
Ġgas less
tain s
Ġmar row
Ġleftward s
Ġr anging
Ġsee ing
Ġrede velop
Ġrespec ts
Ġobservation s
Ġgenerator s
Ġadequ acy
Ġaltern ati
Ġdiscrete ly
oscop e
Ġhr ct
Ġdimin utive
pro min
Ġcir rhosis
Ġvalv uloplasty
Ġjuxta mediastinal
Ġstim ulation
Ġmis alignment
bo dy
Ġcarcin oid
Ġconse quently
Ġconse cutive
Ġcoinc ide
Ġlymphang itis
Ġisland s
Ġcri teria
Ġimpac tions
Ġspon ge
Ġradio fre
ser ted
Ġhand ful
Ġdiscontinu ous
Ġdiscord ant
han cement
Ġpseud ocyst
Ġproduc ts
Ġinterf aces
Ġdisplay ing
Ġcarti la
pos si
Ġpan lobular
Ġwan ed
Ġwax ed
calc ific
thorac ocentesis
Ġfluctu ated
Ġmarg inating
Ġcouple d
Ġneuro stim
Ġmanub rial
Ġmycob ac
Ġinde pendent
Ġleuk emic
Ġdemar cation
fib rotic
Ġpn a
Ġthromb us
Ġenc as
Ġbar rel
Ġconce aled
Ġarg ues
Ġthym oma
Ġhemat ocrit
Ġanswer ing
form ation
Ġunco iled
Ġosteoly sis
Ġinadequ ate
Ġtransmit ting
Ġinflu en
Ġcomplic ating
mark ed
slight ly
Ġpneumoth roax
Ġtren delen
Ġintralob ar
Ġaspergill osis
Ġcardiop ul
Ġprotru ding
Ġsyndesmophy tes
Ġaxi al
Ġil lu
Ġbun dles
Ġdissec ting
wors ening
Ġphenomen on
Ġpumon ary
Ġlean ing
omyel itis
Ġpnuem othorax
Ġaspergil lus
Ġwhee zing
Ġrenew ed
Ġpercei ved
Ġsignfic ant
Ġassump tion
Ġundersur face
Ġtransfi x
Ġsemicir cular
Ġalternati ves
Ġradiofre quency
Ġneurostim ulator
. "
a vid
b one
b urg
b ibasilar
c c
d f
e f
e mp
e lec
e rence
g kin
i ric
i etal
j d
l li
m ur
n s
p rior
r or
s tage
u ps
z a
Ġ __
in s
Ġp l
Ġthe ore
Ġc r
ar ach
te inosis
or i
or ra
or able
Ġi mpres
Ġn et
ti ple
ed ded
Ġs on
Ġs ate
Ġs end
es ta
Ġin comp
Ġm k
Ġm l
Ġm ur
ri be
ac ath
Ġw atch
Ġh od
Ġf asc
Ġcon ge
Ġcon cent
il ing
Ġv ide
Ġthere by
ra in
Ġpleural ly
Ġre appearance
Ġd ail
Ġd jd
ol ic
Ġun united
Ġse es
est ration
pac ities
lec ystectomy
ce ll
Ġpro teinosis
se ous
Ġde creases
Ġcomp osite
Ġate le
Ġpo ore
Ġex ud
Ġmo vement
og ens
Ġpa p
Ġpa ired
op leural
Ġradi al
min ant
Ġlobe ct
Ġpre feren
ges tive
Ġal le
lu x
Ġg a
Ġg ent
Ġrem ove
at sis
Ġinf or
Ġ___. .
Ġhem orra
Ġend oscope
Ġsli ding
Ġbas ally
Ġmini m
ma tive
tro de
Ġdef lection
vic es
Ġexclu sive
Ġdis appearance
Ġsp il
Ġsp oon
cardi al
cardi omegaly
Ġpar ticul
Ġpar ietal
Ġreg ular
Ġcan ted
Ġac df
Ġintra abdominal
Ġhyper par
Ġhyper trans
Ġprovid er
Ġmedi us
Ġexamin e
Ġgro unds
ex amin
Ġport acath
Ġengor gment
Ġscar red
Ġpres ternal
Ġcol lp
mo an
mo sis
ob lastic
Ġcompres sing
Ġgi ves
Ġconf erence
me sis
Ġside ports
Ġindi vid
Ġindi sting
Ġconst ric
Ġins tability
lo aded
Ġback wards
und ancy
Ġful minant
am eral
teri um
teri zed
teri zation
Ġthorac oscopy
Ġswan s
Ġinv oke
Ġinvol ution
Ġdevelopment s
Ġdevelopment al
Ġne u
Ġoste oblastic
Ġav m
dis tention
Ġrightward s
Ġr ind
sur gery
Ġeff orts
ap ati
Ġasc ribe
Ġsubdiaphragmatic ally
Ġdoc tor
Ġpla ting
Ġpath ogens
Ġphysician s
Ġfe ll
Ġbul ges
Ġdextro cardia
Ġdextro curv
Ġemb edded
cul ous
Ġground glass
Ġplethor ic
Ġintroduc ing
Ġlord osis
Ġcontin ually
Ġten ted
Ġuncertain ty
Ġnarrow er
Ġunderg oing
Ġhypo inflation
pro b
Ġhydro xy
Ġosteop or
met ry
Ġradiolog ical
Ġlymphang i
Ġaneurysmal ly
Ġtun nel
tra pping
Ġcann ulate
Ġbronchop neumonic
Ġmed ullary
uish able
Ġparas ternal
Ġatelec atsis
Ġdec ide
hy th
Ġinterven tions
Ġhol low
Ġcharacteristic s
Ġcomplex ity
hyd ro
Ġcompens ation
Ġrever ses
Ġfla re
Ġprac tition
bronch i
bronch oscopy
Ġred o
Ġred undancy
Ġjus tif
jejun al
Ġinfra diaphragmatic
Ġjud ge
Ġenc ased
Ġero sion
Ġguid ance
Ġinten se
Ġarg u
Ġuns table
Ġimmunosupp ressed
Ġaugm entation
Ġther mal
Ġpalp ation
Ġdistribu tes
Ġlamin ectomies
Ġspacer s
Ġflus hed
calcification s
Ġunch aged
Ġstrip es
Ġum bil
Ġhepat omegaly
Ġtracheobronch oplasty
exp and
Ġoutp ut
Ġprompt ly
Ġagre ed
Ġaccompl ished
Ġtaper ing
Ġunfav orable
Ġchilaidi ti
pred ominant
Ġfun dic
cho lecystectomy
Ġapper ance
Ġalve olitis
Ġhesi tate
tuber culous
Ġspeck led
Ġmycobac terium
Ġinfluen za
Ġtrendelen burg
lli te
Ġtheore tically
Ġsate llite
Ġmur mur
Ġhod gkin
Ġdail y
Ġpoore r
Ġexud ate
Ġlobect omies
Ġexclusive ly
Ġhyperpar athyroidism
Ġcollp ase
Ġindisting uishable
apati te
Ġdextrocurv ature
Ġhydroxy apatite
Ġpractition er
b us
c entric
c ally
d ual
f u
h r
h owever
l inear
p atoce
s ation
s ter
u de
v ol
y lo
z en
Ġ ________________________________
th ecal
in clu
al lower
Ġc ited
ar ter
le sion
Ġi li
Ġn iss
ti le
Ġs ear
Ġs ort
Ġo pd
Ġl u
Ġl ul
Ġis ch
Ġno cardia
es pecially
ri ous
ac ardiac
Ġb uc
un ding
res o
Ġt ace
Ġt ribut
gh b
Ġf x
ro s
Ġri j
Ġv as
Ġv ns
Ġle d
Ġthere to
id ation
Ġre t
Ġd up
om ing
Ġch ild
Ġch arach
ter stitial
it ude
Ġun chn
Ġco c
Ġopac ifying
Ġde t
Ġatelecta is
Ġen comp
Ġen hancement
og r
Ġdi ast
op lication
Ġinter n
vi al
li es
Ġover dose
Ġpre procedure
Ġpre tracheal
Ġca ud
Ġper istent
Ġper itoneum
Ġg j
Ġg one
Ġg rid
ther apy
Ġwe gen
ut um
Ġenlar gment
at ypical
tic ula
ss oming
ll ular
Ġbut ton
Ġos h
tif orm
Ġcath e
de vices
Ġ2 7
Ġ2 9
Ġpos teri
Ġha pp
Ġref lux
us ing
Ġres piration
Ġfron t
Ġsp utum
Ġclin cal
Ġpar ameter
Ġexp lic
Ġsh ock
Ġsh allower
os al
Ġsur ger
Ġtortu ousity
Ġar ticulation
Ġintra pleural
Ġintra thecal
Ġbronch io
ps ulated
Ġhe patoce
Ġ3 3
Ġsubstan ces
Ġunder side
Ġsta mp
ex tensive
Ġdist ant
Ġte h
Ġte ther
Ġden s
ment al
Ġmulti channel
ob li
Ġdra w
Ġsuperimp os
Ġinfilt rating
Ġdes erves
Ġ5 2
Ġ5 8
lo ver
Ġlay ered
Ġesophag itis
Ġsomew here
Ġlymph omatous
Ġnon ag
Ġtrans thoracic
Ġtrans mitted
Ġindic ator
Ġph oned
Ġshift s
Ġpul m
Ġfail ing
Ġunf amiliar
def orm
Ġconvincing ly
Ġge omet
gin ated
ag ain
ag raph
Ġmargin ates
Ġfat ty
Ġwed ged
Ġhyd rone
trac e
Ġconfirm atory
Ġsy no
Ġfund oplication
Ġsep ta
Ġdextrosc oliotic
Ġcorrespon ded
loc ation
Ġchain s
lum bar
Ġdislocation s
flow ing
ling ula
____ __
Ġstabil izing
Ġpel ves
Ġblo ssoming
Ġtemp oral
Ġnei ghb
assess ment
Ġant ral
Ġosteo chondrom
Ġsuff ers
Ġcann ulating
Ġemp iric
Ġseem ing
Ġsum mary
________ ______
Ġta pping
Ġdiscern ed
Ġfac et
Ġhous esta
Ġcomment s
Ġconclu ded
Ġmagn itude
Ġcomple ted
Ġpseud otumor
Ġoper ated
Ġoper ating
over lying
Ġdifferenti ating
Ġflo tation
Ġneph rou
inflamm ation
Ġjejun ostomy
Ġconne c
Ġste ep
Ġbif id
Ġent ra
Ġinges tion
Ġcut off
Ġobliter ate
Ġhemodynamic s
Ġlen tiform
Ġtim ing
sh adow
Ġhypox emia
Ġquantif ication
Ġabrupt ly
Ġfu sions
Ġul cer
Ġunde rex
Ġclos ures
Ġmatch ing
Ġhair pin
Ġdiver ticula
Ġcaps ulated
Ġmamm ogram
Ġbiopsi es
Ġinh omogeneous
Ġbecom ing
Ġsill houette
Ġstar ted
mass es
Ġpen umonia
Ġpen umothorax
mar ginated
Ġrein serted
Ġarg ue
Ġpregn ant
Ġpreclu ding
Ġremode led
Ġthym us
Ġthym ectomy
Ġhemat ogenous
________________________________ ______________
Ġunco iling
Ġpresump tive
Ġpresump tively
Ġbr ought
Ġconsul ted
Ġsillou hette
Ġmeasurement s
Ġflus h
Ġsligh ly
Ġshor ter
Ġhypoden se
Ġexpander s
Ġcu bitus
oste al
Ġexplor atory
Ġspeak s
Ġabsolute ly
Ġopaci tes
Ġtravel s
Ġrou x
kyph oplasty
Ġsal ine
Ġtom ography
Ġspa res
Ġinteresting ly
Ġom r
Ġrecover able
Ġescap es
Ġresist ance
Ġsilic one
Ġjuxt acardiac
Ġsole ly
Ġillu st
emp yema
elec trode
Ġson ogram
Ġvide o
Ġpap illary
Ġpreferen tially
Ġminim ize
Ġspil lover
Ġparticul ary
moan ry
Ġindivid ual
Ġfell ow
ster notomy
Ġ________________________________ ______________________________________________
Ġili ac
Ġniss en
Ġbuc k
Ġchild hood
Ġencomp ass
Ġwegen er
Ġexplic it
Ġsurger ies
Ġhepatoce llular
Ġnonag gressive
Ġhydrone ph
Ġosteochondrom atosis
Ġhousesta ff
) :
+ /
? )
a ff
a dy
a iton
b ri
b ow
d ec
e sis
e ce
e tence
f lex
i m
l og
l ide
m or
m ed
m ediastinum
o unds
r ary
s ue
u lectomy
z rd
Ġ ]
Ġ +/
in der
in op
on uc
Ġa mp
Ġa ut
Ġth ro
Ġp lus
Ġp ouch
Ġp lastic
Ġc ig
ar der
ti p
ed ed
Ġo stomy
en se
Ġl up
Ġl isted
es e
Ġin active
Ġe ve
Ġe ase
Ġm ra
ri ac
ri se
ri tory
ac rom
Ġb rache
Ġb old
un ar
un der
ou red
Ġw ing
Ġw ent
Ġw ard
Ġan gular
Ġan eur
res ection
an s
Ġh omogen
Ġri sing
il ation
ic ially
ly mph
Ġv a
Ġv eter
Ġv alu
Ġsi t
mon th
ent ing
Ġre appeared
Ġd ub
om as
Ġlo ading
Ġor o
ch f
Ġun rec
tu r
tu ring
ear s
ph ysi
st o
Ġopac ific
Ġcomp act
Ġcomp elling
Ġcons ult
Ġex c
Ġex lu
Ġex pi
Ġex terior
Ġex peri
Ġmo reso
is tence
Ġpa per
Ġev al
Ġradi onuc
Ġu zrd
Ġst one
Ġst ones
Ġpre ci
ge on
Ġper hilar
Ġper me
ren al
Ġsub cu
at te
at ly
ss ed
Ġcompar ative
Ġcongestion s
Ġimp lying
Ġj unc
Ġob ese
Ġbas o
lev ation
Ġrec ru
Ġct pa
us cular
Ġres ts
pi ginous
Ġretro tracheal
Ġcl as
Ġwor th
so ft
Ġpar athy
Ġreg ressing
os terior
Ġmark et
Ġnas al
Ġintra tracheal
Ġcor pect
Ġelev ates
Ġfluid opneumothorax
Ġunder line
Ġgro ove
Ġassess able
Ġabdom inop
Ġperi hepatic
Ġperi osteal
co sis
Ġloc ate
Ġcol lar
Ġangle d
Ġtrache oesophageal
Ġfollow ups
mo thorax
ob i
Ġdevelop s
ple ase
Ġobs erves
Ġbl adder
Ġgre w
Ġconf using
Ġdesc end
Ġless ened
Ġhi m
ticular ly
Ġacc idental
Ġful ler
Ġnon enlarged
Ġtrans position
Ġtrans formation
Ġsa mp
tero stomy
bar rel
Ġsem is
Ġsemi erect
Ġdisten ding
Ġhist oplas
Ġel bow
Ġreplac es
Ġling ulectomy
ler ated
resp on
Ġax is
Ġscan ned
Ġup loaded
Ġcharacteri zing
Ġgast rectomy
Ġabs or
Ġabs cence
Ġext rac
siti s
Ġoste omyelitis
Ġben d
Ġmargin ation
Ġme th
Ġme et
Ġdiagn ose
Ġmas king
Ġlum inal
Ġextrem ities
Ġretrac tile
Ġbi electrode
Ġfe bri
Ġaxilla e
Ġexternal ly
Ġevent ually
Ġtri ang
ind eterminant
Ġatt ached
el vic
Ġembol ized
luc ent
penet ration
penet rated
Ġextra pulmonary
Ġextra ordin
Ġretic ulated
Ġpus hing
Ġelec tive
Ġmis placed
Ġplu eral
Ġscapula e
Ġcircum flex
Ġplug s
Ġscre ening
Ġdish is
Ġlook ed
Ġexplanation s
Ġinfarction s
peric ardi
.___ .
Ġlev o
fe rence
Ġcri sis
Ġser oma
Ġser piginous
Ġfac il
Ġcover age
Ġocclu ding
Ġsequ estration
Ġpur sue
Ġconsis t
Ġimportant ly
Ġprefer red
pos ing
Ġfluor o
Ġ(___ ).
Ġ(___ ),
Ġbifurcation s
Ġcirc ulating
Ġosteoarth ritic
Ġer ror
Ġfla p
Ġswallow ed
Ġimping ement
Ġocca sions
Ġbur st
Ġquer ied
tom as
Ġtear s
Ġinferolateral ly
Ġassy metry
Ġmicro calcifications
sup rahilar
Ġultim ate
Ġthromb osed
with in
develop ment
Ġter ritory
Ġpredis poses
Ġpredis posing
trache ostomy
Ġbot tle
Ġcompan y
Ġinten sive
Ġprevent ing
Ġanomal ous
Ġpresump tion
pat chy
Ġadi p
Ġlamin ectomy
Ġanastom otic
Ġsqu are
Ġsligh lty
Ġpostero inferior
Ġmodest ly
Ġcu rious
Ġren dered
Ġadd ressed
Ġhighlight s
Ġhighlight ing
Ġexplor ation
Ġdopp ler
deg ree
Ġsle eve
Ġwa ist
Ġacce lerated
Ġinferom edial
Ġconfo unding
Ġeas y
Ġsilou hette
Ġmodi fied
Ġgot ten
impro ved
part um
Ġexpand s
Ġcandid ate
Ġmedias tium
Ġredevelop ment
promin ent
Ġcartila ginous
possi bly
Ġencas ing
Ġtransfix ing
Ġ__ ___
ori ented
Ġimpres sive
Ġconge sion
Ġconcent rated
prob ably
inclu ding
Ġsear ch
Ġdup licated
Ġunchn aged
Ġdet ached
Ġcathe terization
Ġparameter s
Ġtether ing
Ġgeomet ric
Ġneighb oring
Ġnephrou reteral
Ġexplicit ly
Ġhydroneph rosis
Ġ+/ -
Ġcig are
Ġlup us
Ġbrache o
Ġexpi red
Ġradionuc lide
Ġcorpect omy
Ġabdominop elvic
Ġhistoplas mosis
Ġfebri le
Ġextraordin arily
a e
b id
c entimeter
c illary
d r
e en
e ff
e levation
f ir
f ication
h ema
h ge
i w
i ac
i us
l ot
l idation
m y
n a
n es
p ulsion
s tion
s ta
s pic
s paces
v ated
x pansion
z es
Ġ &
in ous
on al
on ged
Ġa ce
Ġa me
Ġa ler
Ġth umb
Ġth irds
Ġth resh
al se
Ġp lasty
Ġc d
Ġc ast
Ġc ere
Ġc ases
ar m
ar s
ar se
le ar
le ration
le man
or gan
Ġi tems
ti e
ti ty
Ġs pite
Ġs erve
Ġl and
Ġin cre
Ġe very
Ġe bus
Ġm ut
Ġm at
Ġm am
ri st
ri form
un fol
ou ra
Ġw ron
Ġw ounds
Ġw rist
Ġan cillary
ul i
ul l
ul iar
an terior
Ġt um
Ġt ng
Ġt ouching
gh ted
ate mesis
Ġf an
Ġf aces
Ġf alse
mal ign
ro g
il la
il iac
ic u
ic it
ne t
Ġthere of
mon ary
Ġcardi pulmonary
Ġleft sided
Ġre dist
Ġre ady
Ġd er
Ġd ot
Ġd ump
em ed
ax illary
ax illa
Ġlo t
Ġor nam
ang es
ang ement
ch air
Ġun inter
astin al
Ġse eding
ph y
ph one
Ġ___ "
se quent
Ġde al
Ġde emed
Ġcomp uted
hou r
Ġcardiom edi
Ġen vi
Ġen ca
Ġex istence
Ġas d
Ġas k
Ġas pira
Ġmo ving
Ġdi asta
Ġpa ging
Ġpa get
Ġcont rary
Ġab pa
op osterior
ten ed
Ġinter rog
Ġu re
Ġu pp
Ġst op
if erative
if ies
li ar
li oration
Ġbil ob
Ġover shadow
Ġti ght
Ġstu d
Ġca ble
Ġper si
Ġper cent
Ġwe ak
Ġsub m
Ġag gra
Ġimp lies
Ġhem atemesis
lac e
Ġaor to
Ġj p
Ġair trapping
Ġair spaces
diaphragm s
Ġref el
Ġiden tity
Ġreflec tions
oph aryngeal
Ġappro x
Ġrec tal
Ġstom a
Ġcalc if
Ġcalc uli
Ġsp ring
Ġretro pulsion
cardi ophrenic
Ġwor king
so id
Ġsc aff
Ġass es
Ġsim ulated
os seous
Ġsur round
Ġsur geon
Ġac id
Ġpac e
Ġdise ases
Ġatri obi
Ġfree ly
Ġar c
Ġintra gastric
Ġdiff ering
Ġfluid s
inf ar
Ġunder taken
Ġunder stand
Ġsome time
ex ternal
Ġdist raction
Ġperi diaphragmatic
co mpression
Ġsupp osed
Ġhil l
Ġtrache oplasty
Ġovert ly
ple uro
Ġapproxim ates
tation s
Ġ4 2
Ġins terstitial
Ġcur l
Ġfi x
Ġcrow n
Ġpacer s
inc idental
pse ud
up ine
lo be
lo yed
Ġmultifocal ity
Ġpigtail s
Ġhia tial
Ġnon acute
Ġnon resolving
Ġnon hemorrhagic
Ġtrans ped
Ġsa ve
Ġpass age
Ġsw e
Ġmin us
Ġhard ly
Ġshi el
Ġinv ading
Ġ6 0
Ġneck lace
Ġpred ates
Ġinvol uted
Ġfib rill
Ġindistinct ly
we ek
aden opathy
ator ily
Ġenti red
Ġtra m
rop athy
Ġop tion
Ġfo al
Ġfo ley
Ġfo resh
Ġazyg oesophageal
ques tion
Ġr ate
Ġpros pec
ap ular
Ġ( #
Ġdifferential s
Ġir ri
Ġoff set
Ġorigin s
Ġorigin ate
Ġorigin ated
Ġsuprac ardiac
Ġhema tomas
Ġdisplacement s
air space
Ġdeline ating
Ġinsertion s
sy m
el chair
Ġhypo xic
Ġhypo volemia
Ġmor bid
pro jec
Ġconte mp
con tu
Ġaccum ulate
Ġpec uliar
Ġdesi re
emergent ly
Ġpedicle s
Ġthin ning
Ġregard s
Ġrota tory
lay ed
Ġsecre tary
infilt rates
assess ed
ĠĠĠĠĠĠĠĠĠĠĠĠĠĠĠĠĠĠĠĠĠĠĠĠĠĠĠĠĠĠĠĠĠĠĠĠĠĠĠĠĠĠĠĠĠĠĠĠĠĠĠĠĠĠĠĠĠĠĠĠĠĠĠĠ ĠĠĠĠĠĠĠ
Ġreticul o
Ġclar ity
Ġechocardi ographic
Ġemp ty
Ġpack s
Ġorgan s
Ġorgan ization
ser tion
Ġpara aortic
Ġhomogeneous ly
Ġlig ation
Ġdiagnos able
Ġatelec a
Ġcaroti ds
Ġasthma tic
Ġdeposi ted
Ġellip soid
Ġimplan tation
roph ic
Ġpage able
Ġtransi t
Ġrequest ing
arth rosis
Ġjejun al
Ġconne ct
Ġpseudo arthrosis
Ġconsis ted
opath ies
Ġcluster s
Ġfem ur
Ġmean ing
Ġeasi er
Ġcompens atorily
bi le
Ġfung us
Ġobliter ans
Ġcres t
Ġtim ed
par tial
par ticularly
Ġfu dic
Ġcre ation
Ġcre ated
Ġ___:___ .
Ġneuro log
Ġlobulation s
Ġmenis coid
Ġsuction ing
Ġsurve y
Ġmatch ed
Ġnine th
Ġtransluc ent
Ġmamm ilation
Ġperif ocal
Ġleuk emia
Ġbreak age
Ġinjec tion
Ġmes enteric
Ġparac entesis
Ġdifficul ties
Ġenc oura
Ġstep off
Ġinh aled
Ġmyoc ardium
Ġreconstruc tive
Ġreoc curred
Ġdysp lasia
ima ged
Ġappli ed
Ġtendon itis
Ġselec ted
Ġpne u
Ġpne mothorax
Ġinterrup ted
Ġcorrec tion
Ġexcessive ly
Ġsudden ly
Ġdeterior ated
Ġintram ural
Ġtransmit s
Ġinflu ence
Ġdislod gement
Ġcenter ing
Ġconnection s
ai red
Ġconver sation
Ġcomplic ates
Ġwhe elchair
Ġdata base
Ġtren d
Ġformal ly
Ġren der
Ġintralob ular
Ġaspergill oma
Ġpoly angi
Ġattest s
Ġmoder atly
Ġincon sistent
fol low
mul tiple
Ġdeci sion
Ġprevi os
Ġacce leration
Ġinferom edially
Ġname ly
Ġsteroid s
Ġelucid ate
cor re
Ġbal anced
stand ard
Ġdiscrimin ate
Ġapproxima ting
Ġapproxima tively
Ġinstruc ted
accum ulated
Ġprol onged
Ġcompromis ing
Ġdisproportion ate
she ath
Ġcrac k
Ġatele tasis
Ġinfor mative
Ġhemorra hge
examin ed
Ġconstric tive
bronchi ectasis
Ġjustif ication
fu sions
Ġtribut aries
ros thesis
Ġcharach terized
Ġdiast olic
Ġcaud ally
Ġsuperimpos ing
Ġsyno vial
Ġentra pped
Ġillust rated
Ġthro at
Ġaneur sym
Ġdub ious
Ġunrec ogn
tur bed
physi ologic
Ġperme ability
Ġjunc ture
Ġclas sic
Ġparathy roid
Ġsamp ling
Ġsemis upine
Ġadip osity
Ġcigare tte
Ġbracheo cephalic
Ġame lioration
unfol ded
Ġwron g
Ġfalse ly
malign ancy
Ġornam entation
Ġenvi ron
Ġenca psulated
Ġdiasta sis
Ġaggra vated
Ġatriobi ventricular
pleuro desis
Ġtransped ic
Ġfibrill ation
Ġforesh or
Ġfudic ial
Ġpolyangi itis
, ?
/ ___
: .
a ps
b s
b ul
b ular
b order
b acterial
c ar
c tation
c ology
c ord
c ences
d ged
e u
f rac
f rame
g s
g y
g ragm
h ist
i an
i pper
k y
l me
m teric
m art
n i
n od
o ta
p on
p lic
r ual
r usion
r ub
s ar
s or
s ent
t ant
u ished
u rative
w o
Ġ *
th ac
in ternal
Ġa ro
Ġa vi
Ġa rise
re positioning
Ġp es
Ġp edi
Ġp ure
Ġc pa
ar l
si lar
si ton
le b
or ac
or atory
or adi
Ġn j
Ġn uc
ti o
ti li
ti tis
ed e
Ġs ch
en ded
en erative
Ġl s
Ġl po
es the
Ġin ward
Ġin tention
Ġe ft
Ġe fusion
Ġm all
Ġm and
ri el
ing s
ing er
di aph
di lection
ac tion
Ġb rac
Ġb ise
Ġb ring
Ġb ending
Ġb anding
Ġw omen
Ġan ky
Ġan esthe
um ed
Ġt l
Ġt ric
Ġh ar
Ġh op
Ġh ence
Ġh ug
Ġh ope
Ġf ast
Ġf ain
Ġf rame
ro ke
ro cal
ro bed
Ġri g
Ġcon ern
Ġcon cord
Ġwi t
Ġright sided
Ġle t
Ġple rual
Ġsi houet
mon as
Ġre w
Ġre cur
Ġre tains
Ġd w
Ġd ose
Ġd rop
Ġd ominating
Ġd ressing
ol ation
ol ds
om ach
om edial
Ġch art
Ġto e
em as
Ġlo dged
Ġor opharyngeal
ch i
ch ron
it ate
Ġun re
Ġun change
Ġun diagn
Ġco un
ph arynx
ce eding
Ġpro m
st omach
cu al
se gmental
Ġde lete
Ġcomp re
Ġen s
Ġen terostomy
Ġpo p
Ġconsolid aiton
ia bility
oc ol
oc ative
Ġmo bile
og onal
Ġdi ag
Ġdi vision
Ġcont rain
Ġli st
Ġon to
Ġra y
Ġpneumonia e
op rosthesis
Ġev ocative
ten cy
Ġradi ogr
Ġinter body
ain e
Ġu tili
Ġst ress
Ġst roke
Ġlateral ity
vi sible
li m
li gi
li ghted
Ġbilateral ity
Ġpre dilection
Ġti b
ron ically
Ġfor am
Ġca di
Ġal ters
ke letal
ad justed
Ġwe b
Ġsub s
Ġsub acrom
Ġwh y
at in
at on
Ġinf rac
out side
Ġimp er
Ġimp ending
Ġimp air
Ġend oprosthesis
Ġ___, ,
tif act
Ġcath ter
gn s
Ġexa ger
de l
Ġha mm
Ġha mart
Ġsign al
Ġsign ifies
Ġcal f
omy omatosis
Ġdef lated
Ġad mitted
Ġdis organ
Ġdis robed
Ġsp are
Ġsp arse
Ġsp layed
Ġretro peritoneum
Ġretro cardial
Ġsc ant
gest ing
Ġpost pyloric
Ġpost thoracotomy
Ġpost partum
ree xpansion
Ġbo arder
Ġpossi bl
qu arter
Ġexp ense
Ġsh unts
os a
os keletal
Ġatri us
Ġlin ing
Ġhyper tensive
Ġver ses
ps ed
Ġhe aded
Ġ3 1
Ġunder sto
Ġsta b
Ġgro in
Ġsupp ression
Ġsupp urative
Ġnow here
Ġcli pping
Ġpersis ten
Ġmulti lobular
Ġmulti plic
Ġcol d
Ġcol itis
Ġcontinu ity
mo th
Ġbasal ar
Ġsubc orac
me a
Ġ4 1
Ġ4 4
Ġ4 6
plac ement
Ġresid ue
Ġinfiltr ated
Ġwiden s
Ġdisplac e
Ġve teb
Ġve iw
Ġins titu
Ġout lined
Ġfil ament
Ġz ipper
Ġ5 0
Ġ5 7
Ġ5 00
Ġnodular ities
lo bectomy
Ġly sis
Ġacc ident
ere sis
Ġsup ras
Ġsecond arily
am ediastinal
Ġtrans ver
Ġafter wards
Ġtime frame
Ġmet s
Ġsa w
Ġdob off
Ġperform ing
Ġaccompan y
Ġmin nes
sus pected
Ġ. .
Ġinvol ute
Ġmedial ization
Ġcompl aint
cep tion
Ġunf used
the tic
Ġlymphaden op
Ġlymphaden opathies
view s
Ġind enting
Ġhigh est
Ġhigh lighted
Ġconfiguration s
ris k
Ġtra be
Ġbowel s
dra in
rop ath
Ġop tic
Ġop ened
Ġav ulsion
Ġme thy
dis location
Ġgener ous
Ġcorrespond ence
Ġphysi ological
Ġcomm ented
Ġdic tate
Ġr cc
Ġeff aces
Ġfore arm
Ġpath cy
Ġcommun ity
Ġbi v
Ġbi polar
Ġinser t
Ġconspic ious
Ġartif icially
Ġevent ual
ry late
Ġapproach ed
Ġcoar ctation
Ġcolon oscopy
cul oskeletal
Ġmate riel
Ġrecurrent ly
Ġhypo chond
oscop ically
Ġfar r
ari an
Ġbeca me
other wise
Ġpy ogenic
cav itary
Ġrepair s
cin osis
Ġstim ulating
Ġec centric
app ed
app arent
Ġsepar ating
oplas ties
Ġpus h
Ġmy e
Ġdetect or
Ġmis s
esophag ectomy
Ġmuc osal
Ġcircum ference
Ġtr unc
Ġpel lets
Ġinterpre ting
Ġmorph ologically
Ġrequi rement
Ġaff or
Ġsecre tion
Ġov arian
.___ ,
Ġsten otic
adi ti
ju st
Ġvar iability
Ġwet ness
Ġosteo chondroma
traum a
Ġbrid ge
Ġclar ifying
Ġradio pacities
Ġorgan ism
Ġepi hilar
Ġorth ogonal
Ġstriking ly
Ġdisting uished
Ġdistinguish able
Ġneg ligi
Ġgeneral ize
Ġsay s
Ġepig lot
Ġairless ness
Ġatelec asis
bl unting
Ġelect ronically
Ġur ge
Ġur ged
Ġouter most
Ġattemp ting
Ġdec ending
Ġpseudo monas
hy per
Ġtransp lan
Ġfibro calcific
gra ph
gra ms
Ġste ps
Ġleak age
Ġmicronodular ity
Ġaspir ate
medi al
Ġreaccum ulate
Ġpan creas
Ġsupra aortic
Ġevacu ate
Ġduc tal
Ġlen ds
Ġpericardi otomy
Ġbrachy therapy
Ġrever ted
Ġrever sible
Ġkne es
Ġmus culoskeletal
par tially
par amediastinal
Ġfla me
Ġcresc enteric
Ġfu ther
Ġcre ate
Ġoptim um
Ġlapar oscopy
Ġsubtot ally
Ġbra id
Ġmechan ism
Ġbeli eved
Ġadju sting
Ġascer tained
sub sequent
Ġvisi bly
pel vic
Ġpi ece
Ġput ting
Ġinadvertent ly
Ġpredis position
bed ded
Ġcement oplasty
Ġtil ting
Ġinstrum ents
Ġpin s
Ġinten tional
Ġpreclu de
Ġelimin ate
Ġanomal ies
por table
imp osed
Ġprot rusion
Ġmaximal ly
Ġpne monia
Ġim bedded
Ġbasi lic
Ġbasi cally
Ġseiz ures
Ġspontaneous ly
Ġlabe l
Ġconglomer ation
Ġchond rocal
Ġasy metric
Ġsubjec tive
Ġstric t
Ġcorrob or
Ġaa a
Ġconver ted
Ġdisorder s
Ġequal ization
Ġconceal s
Ġshor tening
Ġhypoden sities
Ġoccur s
Ġdisconne ction
Ġinci sion
Ġever sion
Ġchil aditi
Ġvac ated
Ġprofound ly
Ġsyndesmophy te
Ġspeak ing
Ġproce ed
Ġproce eds
Ġmoder ated
deg enerative
Ġlab oratory
Ġpatch es
Ġincorrect ly
Ġrou te
Ġelucid ated
Ġbal ance
Ġdu o
Ġconfo unded
Ġzenker s
Ġsmoker s
Ġinstruc tions
accum ulating
Ġho ok
Ġarr hyth
Ġcompromis es
sug gestive
Ġdro oping
Ġrare ly
Ġretrospec tive
Ġretrospec tively
Ġperio ds
Ġcardiopul moanry
Ġpl ural
Ġincomp etence
Ġwatch ing
Ġfasc ia
Ġgent leman
Ġhypertrans lucent
Ġosteopor osis
Ġargu ing
Ġcoc aine
Ġstamp ed
obli que
Ġseeming ly
Ġunderex posed
Ġbuck shot
mor l
Ġaut o
Ġexlu ded
Ġbaso apical
Ġrecru des
pericardi otomy
hema toma
Ġthresh old
Ġmut li
Ġmam moth
Ġtum ors
Ġaspira ting
Ġbilob ed
Ġpersi si
Ġweak ness
Ġrefel ct
Ġfix ating
Ġminus cule
Ġentired ly
Ġempty ing
Ġateleca tasis
Ġunrecogn ized
Ġenviron mental
Ġtranspedic ular
aps ular
border line
hist ory
lme thac
Ġpedi atric
Ġnuc lear
Ġsch morl
Ġmand atory
Ġbise gmentectomy
Ġhop es
Ġhug ging
Ġfain ter
Ġutili zing
Ġforam en
Ġsubacrom ial
Ġhamm er
Ġhamart omas
Ġundersto od
Ġmultiplic ity
Ġsubcorac oid
Ġveteb ral
Ġminnes ota
Ġmethy lmethac
Ġhypochond riac
Ġnegligi ble
Ġchondrocal cinosis
Ġmethylmethac rylate
. /
. ).
. ),
? ?
a h
a turation
b ac
b ig
c ri
c li
c ould
c ial
c entu
c lin
c lip
c entral
e te
e ps
e vid
f ac
f our
f ted
f rom
f ree
g ate
g am
g she
h en
h as
i e
i er
i sion
i ro
i sis
i ve
i ment
i tes
j p
k s
l f
l ad
l sy
l phone
m b
m ediastin
m is
m ay
n ding
n ary
n iotic
o x
o ar
o ic
o ly
o ax
o ir
o unded
o aneurysm
o pacities
p res
p et
p resent
p tive
p ina
p ore
p orted
p nea
q e
r t
r asc
s hou
s ten
t d
t an
t oscoliosis
u ght
u st
v o
v ar
v essel
w den
z ones
Ġ )
th at
in t
in ce
in crease
in sertion
Ġa mple
re si
re am
re sia
Ġth re
al so
Ġp il
Ġp he
Ġp laying
Ġp jp
Ġc ul
Ġc entesis
ar p
ar te
ar ded
ar ison
ar ment
ar cer
ar coma
si x
si cu
or oid
or pore
Ġi ght
ti h
ti ss
ti bility
Ġs ought
Ġs bo
Ġo be
Ġo ss
en ia
en cing
Ġl ax
Ġl at
Ġis n
Ġno se
Ġin terior
Ġe j
Ġe th
Ġm egaly
ri x
ri eval
di ffu
di gns
Ġb or
Ġb uckle
Ġb inder
Ġb ears
un less
mp ted
ou lsy
Ġw tih
Ġan te
res sions
an ticipated
Ġt and
Ġt rial
Ġt ry
Ġt apped
Ġh ome
Ġh cc
ate lecta
Ġf ro
Ġf ind
ro ach
ro unded
Ġri gh
Ġcon ven
il unar
ic us
Ġv es
Ġv ocal
Ġv ad
Ġple x
Ġsi d
Ġcardi ology
Ġre en
Ġre loc
Ġre inflation
Ġre expand
Ġd h
Ġd x
Ġd ri
Ġd anger
Ġd ht
Ġch es
Ġch ylo
Ġch oroid
Ġpneumo con
ang itic
it s
it ting
Ġun in
Ġun sure
Ġun dra
Ġun dis
Ġun displaced
Ġun tre
Ġun sh
Ġun respon
Ġun anticipated
tu p
tu ous
Ġse tup
Ġco exi
Ġco ag
Ġco py
Ġco ordin
Ġco wden
be red
ph ragm
est ard
pac ification
ve ci
Ġpro trac
st ream
cu itous
cu ssed
___ ,
Ġ___ ),
se p
Ġde trac
Ġcomp li
Ġcomp ounded
Ġlow re
Ġcons ent
Ġcons titution
Ġcons lidation
Ġed mea
ia d
Ġat resia
Ġex ostosis
oc oc
Ġmo bility
Ġmo tor
Ġpa re
Ġcont racted
Ġcont oured
Ġab duc
op y
op lasia
ten ance
Ġradi graph
Ġinter current
Ġcompa tibility
cre te
Ġu ter
Ġu per
Ġst re
Ġst ring
Ġst art
Ġlateral ized
Ġlateral izing
vi ding
vi se
vi ated
li ed
Ġpre pon
Ġpre ceeding
Ġti lt
Ġfor ce
ld ef
Ġca d
Ġca me
Ġal th
Ġal ter
Ġper is
asi x
Ġg er
Ġg arment
ged ly
ad justment
ot rex
Ġsub hilar
Ġsub sc
Ġwh ic
Ġwh om
Ġmid level
Ġmid point
at ley
Ġinf il
Ġinf eri
ini i
rem ia
rom a
Ġcompar ably
Ġcompar ision
Ġbut t
Ġunrem ak
Ġag ree
Ġhem os
Ġend ole
Ġend oscopy
Ġend arte
Ġos tia
per sistent
he al
he rent
Ġj iro
Ġrep roduc
Ġrep aired
de line
de monstrate
Ġline a
Ġpos ter
Ġref orm
ma ture
Ġsign ed
Ġrec ede
Ġdef icient
Ġfrac turing
Ġres to
Ġres erv
Ġad vise
Ġdis use
Ġsp inous
Ġcl ou
Ġcl ock
Ġcar i
Ġcar t
Ġcar inii
Ġpost biopsy
Ġbo unded
Ġpar ad
Ġpar agraph
Ġexp lo
Ġexp ression
Ġsuper position
os arcoma
Ġcan ula
Ġac tion
Ġk ind
Ġprob ability
ort ant
Ġnas opharynx
Ġintra bronchial
Ġwors ens
Ġcor ds
Ġenlargement s
Ġwas hou
Ġ3 4
Ġ3 8
Ġet c
Ġmedi ast
Ġunder ling
Ġsta y
Ġsta sis
Ġsta ting
Ġsta tis
and rant
Ġcost oph
Ġdist ort
Ġte s
Ġte ch
Ġperi lesion
Ġpres sed
Ġcli mb
Ġloc ating
Ġinternal ly
Ġcol lateral
Ġevalu able
Ġtrache omegaly
Ġrecommen ed
Ġcontinu ation
rib ing
Ġemphysema tic
mm ing
Ġsuperimp ose
Ġsubc lavicular
Ġsubc apsular
Ġtrac ts
Ġ4 7
Ġdes aturation
Ġqu andrant
Ġcom es
Ġcrow ds
Ġdesc ent
Ġtechn ician
Ġcombination s
Ġoverlo aded
Ġsec tions
Ġback board
Ġful fil
Ġnon active
Ġnon united
Ġnon characteristic
Ġnon infectious
Ġnon tuberculous
Ġnon standard
Ġtrans cri
Ġdiscuss ing
oli th
Ġnec es
Ġperf used
Ġtoday s
Ġsem ilunar
Ġph ys
gan i
Ġ6 6
Ġpred ating
Ġpresum able
Ġtw ice
ful ly
Ġling ering
Ġmain tains
Ġmain tenance
pre table
we ll
Ġmal placed
Ġind ents
pira tor
Ġill icit
lat z
Ġjoin ing
Ġup stream
Ġapic o
Ġtra jec
Ġext raction
dra inage
Ġdep loyed
Ġdep ressions
rop neumothorax
Ġgo al
Ġaden oma
Ġy ou
Ġy estard
Ġav ail
Ġrefer ral
Ġmas qu
Ġlum b
ens ation
Ġinc arcer
Ġr hyth
Ġeff fusion
Ġma turation
trac king
Ġbi hilar
Ġman omet
Ġman eu
Ġarteri os
Ġquestion ably
Ġsul cal
Ġdextro positioning
Ġfund al
Ġkyph oplasties
Ġfiss ue
ord otic
Ġdefin es
Ġdefin tie
Ġam l
Ġam ylo
Ġam niotic
tim ates
Ġremote ly
Ġann ual
Ġwar ts
sha pe
Ġaltern ate
Ġparam ediastinum
Ġten ds
Ġsubp ulmonary
Ġfew er
Ġstri ated
Ġmor gani
luc ency
Ġrespon ding
Ġrespon sive
Ġfar ther
pro s
pro ved
pro ven
pro gres
Ġcir cuitous
con fir
Ġpy opneumothorax
Ġwindow ing
Ġstern i
Ġcosto chond
Ġdirec tions
bo embol
-___ .
Ġthin ner
Ġregard less
Ġspic ulation
Ġtotal ity
Ġvari es
Ġscre en
Ġtemp ted
Ġblur s
Ġblur ry
Ġmorph ologies
tor so
Ġradiolog ically
Ġseptic emia
Ġvs d
Ġnaso jejunal
Ġmig rating
Ġhalf way
Ġcell s
Ġpunc ture
Ġpermit ting
Ġdistinct ness
Ġsuff ering
Ġhor ner
Ġcall back
tative ly
Ġbenign ity
Ġinden ted
Ġemp y
Ġepi pharynx
Ġker ly
Ġoffic ial
Ġhand s
Ġvir tual
Ġsiz ing
Ġdrug s
Ġdisp al
Ġobtain able
Ġcv a
Ġossif ied
Ġcap able
Ġterm ian
Ġ___% .
Ġur gency
Ġbat wing
Ġfin digns
Ġconsis tency
Ġste mming
Ġlongitud in
Ġmean dering
Ġskinf olds
Ġofficer s
Ġfluor oscopically
Ġeg gshe
Ġosteoarth ropathy
mic u
Ġquanti ties
Ġrever sing
cop e
Ġoptim ize
Ġbroad ly
Ġspondyl itis
hem o
Ġbur sa
kle s
Ġtransluc encies
Ġcaps ular
los ing
Ġnotice ably
Ġunderes timates
Ġinadver tant
bronch itis
Ġthrom boembol
Ġdemar c
Ġbile af
Ġopportun ity
Ġpi riform
Ġput s
Ġtoler ated
ru gger
Ġrecon si
Ġparac ardial
Ġsurpri sed
Ġenc ases
Ġenc roach
develop ed
Ġrect um
terom edially
Ġresem ble
Ġstar ts
Ġdiverticul itis
Ġinten sity
Ġfist ul
Ġhum oral
Ġdiaph grams
Ġelimin ation
Ġbic ameral
Ġemphasi zing
Ġlea ve
Ġhemat ology
form ed
imp ortant
Ġprot ocol
minimal ly
Ġsyn cope
Ġbasi liar
Ġther m
Ġchond ral
Ġinver sion
Ġintram uscular
Ġru q
Ġmac ro
Ġopaciti tes
Ġextravas ated
Ġpartic le
Ġdepend ant
mark s
pneumon itis
Ġpulmon ar
Ġshor tened
Ġhypoden sity
Ġintest ine
Ġcardiop ulmon
Ġprotru des
Ġil ldef
Ġproce eding
Ġincon spic
Ġinsufficient ly
Ġinhalation al
mul tifocal
Ġdeci pher
Ġprevi oulsy
Ġoutp ouching
kyph osis
Ġdu bhoff
Ġexer tion
Ġspa tial
Ġii i
Ġeas tern
Ġprol iferative
Ġdisproportion ately
sug gesting
Ġcrac kles
Ġbelong s
Ġexhibit s
Ġgu ide
Ġperio dic
Ġsupplement al
ins piratory
Ġwatch ed
Ġfasc ial
Ġalle viated
Ġga u
Ġneu ropath
Ġosteopor otic
Ġlymphangi ographic
Ġumbil ical
Ġumbil icus
vol ving
Ġisch emia
Ġisch emic
Ġfx s
Ġret rieval
Ġposteri olateral
Ġbronchio alveolar
Ġdraw n
deform ity
Ġconnec ting
Ġencompass ed
Ġencompass ing
dec re
Ġamp latz
Ġhomogen ous
lymph adenopathy
Ġveter bral
Ġvalu es
Ġexperi enced
atte mpt
Ġabsor ption
Ġextrac orpore
Ġmeth otrex
Ġdishis cences
Ġfacil itate
Ġcere bral
Ġland marks
Ġevery where
Ġmat rix
Ġder angement
Ġuninter pretable
Ġinterrog ation
Ġure ter
Ġstud ent
Ġscaff old
infar ction
pseud oaneurysm
Ġshiel ded
Ġprospec tively
contu sion
corre late
Ġforeshor tening
nod ule
sar coid
Ġanky losing
Ġanesthe sia
Ġrig id
Ġconcord ant
Ġsihouet ting
chron d
Ġundiagn osed
Ġcompre hen
Ġens uring
Ġcontrain di
Ġinfrac lavicular
Ġsupras pina
Ġepiglot titis
Ġtransplan tation
Ġhook s
Ġarrhyth mia
Ġmutli ple
cli ps
clin ical
mediastin oscopy
sten ting
tiss ue
Ġobe sity
Ġlax ity
diffu se
Ġtand em
atelecta tic
Ġfro zen
Ġchylo thorax
Ġpneumocon i
Ġundra ined
Ġundis turbed
Ġuntre ated
Ġunsh arp
Ġcoexi st
Ġprotrac ted
Ġprepon der
Ġsubsc apular
Ġhemos ta
Ġendole ak
Ġendarte rectomy
Ġjiro veci
deline ated
Ġresto red
Ġreserv oir
Ġclock wise
Ġstatis tically
Ġperilesion al
Ġtranscri ption
Ġyestard ay
Ġincarcer ation
Ġrhyth m
Ġmanomet ry
Ġmaneu ver
Ġamylo id
Ġeggshe ll
Ġthromboembol ic
Ġbileaf let
Ġinconspic uous
Ġneuropath ic
Ġextracorpore al
Ġmethotrex ate
Ġcomprehen sive
Ġsupraspina tus
% )
a ed
a be
a is
a tible
a tation
a pse
a mative
b on
b re
b al
b ra
b lo
b rea
c n
c all
c ulature
c ervical
c entesis
c ystic
c arinal
c orn
c lavicle
d ation
d oc
d ge
e ase
e tic
e pi
e am
e volving
f ly
f ilt
f lets
g g
g o
g as
g ast
g ital
g ru
h n
h il
h ic
h ce
h omogeneous
i or
i table
i let
i dity
i mage
j ury
k ed
l cu
l oping
m ing
m em
m end
n on
n as
n ament
n hy
n ominate
o di
o res
o pp
o dy
o val
o ined
o desis
o lectomy
o dic
o monia
o bectomy
o jejunal
o sitis
o pacification
p neum
p ent
p ad
p athy
p are
p ulmonic
p osure
p itated
p neumonic
r ural
r ine
r sent
s ol
t ric
t ates
t umor
u red
u tes
v ats
v anced
w a
w ed
w as
y ling
z ius
z oar
Ġ ding
Ġ resent
Ġ tent
in um
in ced
in tra
in jury
in nominate
on ally
on itis
on cology
Ġa res
Ġa ver
Ġa ges
Ġa ged
Ġa jacent
Ġa im
Ġa wa
re f
re view
Ġth ic
Ġth igh
Ġp ron
Ġp ens
Ġp las
Ġc s
Ġc as
Ġc tu
Ġc lu
Ġc ard
Ġc ecal
ar r
ar an
ar agraph
si m
si ch
te remia
le st
or ial
or aneous
or row
Ġn c
Ġn d
Ġn id
Ġn ail
ti an
ti ges
ti ves
Ġs g
Ġs n
Ġs ph
Ġs at
Ġs aph
Ġo th
Ġo min
Ġo ment
Ġo ap
Ġo wer
en ic
en ous
Ġl ch
Ġl aryn
Ġl aryngeal
Ġl asix
er t
er ate
er ation
er ading
as thma
es ous
es cribed
Ġin ch
Ġin creas
Ġin eff
Ġin visible
Ġin ert
Ġe qu
Ġe mesis
Ġm n
Ġm om
Ġm ag
ri ed
di a
di ton
ac quired
ac inar
Ġb m
Ġb ron
Ġb out
Ġb ial
ou g
Ġw inding
Ġw ant
Ġw oman
Ġw rit
Ġan f
Ġan kle
res cence
tion ing
ul opathy
Ġt pa
Ġt spine
Ġt ouch
Ġt sicu
Ġh h
Ġh ump
Ġh old
Ġh off
Ġh int
ate arl
Ġf en
Ġf amiliar
Ġf inger
mal acia
ro tation
ro stomy
ro duce
Ġcon us
Ġcon currence
Ġcon gru
il iary
ic s
ic ameral
ic olectomy
Ġwi se
Ġwi ht
ne ar
Ġpneum ectomy
Ġv oic
ta ion
Ġle nd
Ġwith e
ra x
ra ms
id ng
Ġsi houette
Ġcardi phrenic
ft sich
ent ly
Ġre ass
Ġre duce
Ġre taining
Ġre aeration
Ġre brea
Ġd ates
Ġd oph
Ġd omin
Ġd ress
Ġd bs
ol ding
ol isthesis
ol angi
om ed
om ic
om ary
om edi
Ġch y
Ġch la
Ġch ance
Ġch ill
Ġch olangi
thor a
Ġto es
Ġto bac
Ġto ilet
Ġlo gged
Ġpneumo retro
Ġor ogr
Ġor nament
ter clock
ter fly
sis tence
pp y
it ally
Ġun icameral
tu ated
tu bes
tu rn
ear te
Ġse lf
ph ysema
ph ag
ph ysis
ph aryngeal
lec t
Ġbe an
Ġbe ha
Ġbe gan
Ġbe side
Ġbe zoar
Ġpro la
Ġpro of
Ġpro pen
Ġpro viding
st osis
st reak
cu t
cu ff
cu red
cu rac
cu py
ous ly
Ġsu tural
Ġsu ited
Ġsu itable
___ %)
se gment
Ġde te
Ġde bil
ema il
Ġlow e
Ġate ctasis
Ġatelecta si
et ing
Ġcardiom e
ew all
Ġen for
Ġcons olation
Ġed eam
Ġpo ss
Ġpo siton
Ġex cess
Ġex ogenous
Ġex lcu
Ġapp osed
Ġapp osition
Ġapp oin
Ġapp lic
oc cupy
Ġmo le
Ġmo ves
is ation
Ġdi lu
Ġdi ath
Ġdi eresis
Ġdi ease
Ġdi gital
Ġpa ren
Ġpa rec
Ġcont raction
our s
Ġli ek
ver sion
ver sible
ver sus
Ġra tio
Ġab use
ten uation
Ġradi ogra
Ġradi cal
iti y
Ġsmal lest
ec tive
Ġcardiac mediastinal
Ġinter siti
Ġinter titial
Ġu ro
Ġbil obectomy
Ġbil atearl
Ġbilateral y
Ġappear ant
Ġover cir
Ġover penetration
Ġover penetrated
Ġpre v
Ġpre ven
Ġpre procedural
Ġti tle
ark ably
ge tations
Ġca ught
ke ing
Ġper spec
Ġper cardial
Ġg ol
Ġg ib
Ġg own
ad ded
Ġap n
ot on
ot ope
ot omies
Ġsub sided
Ġsub stance
Ġsub costal
Ġsub type
Ġsub pectoral
Ġsub diaph
Ġenlar ges
Ġmid hem
Ġmid chest
Ġmid abdomen
ant ly
at tenuation
tic ystic
Ġ___. )
Ġ___. ,
rom ise
ir or
Ġimp ly
Ġimp osition
Ġimp art
Ġhem omediastinum
Ġhem icolectomy
Ġ1 30
den se
la be
la ting
Ġaor tal
per formed
Ġsin k
Ġj uc
Ġj oined
Ġrep ly
Ġrep rsent
Ġbib asi
vc al
ma ged
ach ment
jec ting
omy cin
omy cosis
all ation
Ġdef lec
Ġres ting
Ġres erve
Ġres pirator
Ġad renal
Ġad diton
Ġdis ce
Ġdis mis
Ġsp ect
Ġsp oke
Ġsp oradi
Ġcl osed
Ġsc ore
Ġsc ores
Ġcar me
Ġpost ural
Ġbo x
Ġbo und
Ġhy er
Ġclin ic
Ġven ogram
Ġpar an
Ġthan k
qu amative
Ġexp ress
Ġsh ared
Ġsuper sed
Ġsuper added
os ter
os tasis
Ġmul tifact
Ġmul ticystic
Ġac curac
Ġpac u
Ġtor t
Ġar t
Ġar te
Ġar mo
Ġar cing
ring othoracic
Ġpat ten
Ġintra bdom
Ġlin q
Ġlin x
Ġhyper aerated
Ġhyper dynamic
Ġhyper kyphosis
Ġappropriate ness
gen eous
Ġ3 9
Ġmedi um
Ġsta tic
Ġsta yed
Ġsta phy
ex piration
ex piratory
Ġcost opleural
omm od
Ġte e
Ġte sting
Ġte var
Ġperi meter
Ġperi pros
Ġdiffu sed
gor gement
Ġpersis te
Ġloc ula
Ġmulti loc
tec table
Ġdr s
Ġdr y
Ġtrache o
orm ost
ob asal
ple n
Ġdra ped
Ġemph ys
Ġapproxim atley
Ġbl ast
Ġbl oc
Ġro to
Ġro pe
Ġro toscoliosis
Ġdetec tably
Ġdistal most
Ġdes erve
Ġdes quamative
Ġqu arter
Ġassoc ia
Ġextent s
comp ared
Ġconst rain
Ġve hic
Ġve getations
Ġconstant ly
Ġfi les
Ġdesc ribing
Ġlimi te
Ġengorgement s
led ge
Ġaer odi
inc ter
Ġz oster
Ġ5 3
Ġ5 6
Ġ5 9
Ġevaluation s
lo op
Ġacc ord
Ġacc ommod
Ġesophag oscopy
Ġlymph ovascular
Ġnon s
Ġtrans vascular
Ġtrans cribed
ect ases
Ġval idity
pic c
pic ardial
pic ious
Ġconflu ate
Ġallow ed
Ġsus tained
Ġfis h
tero geneous
Ġaccompan iment
Ġsw it
Ġsw ir
Ġph leb
Ġph oton
sus picious
Ġ6 3
Ġ6 5
Ġ6 8
Ġ6 00
Ġpred escribed
Ġtw isted
Ġreplac e
Ġpredomin ates
Ġpul mo
Ġpul moanry
Ġfib rin
Ġx rt
Ġperiph eries
Ġhyperex tension
Ġmal acia
Ġmal formation
Ġexcep ting
Ġconv inced
Ġdo zen
Ġup turn
Ġapic oposterior
Ġapic omedial
Ġcaus ative
Ġtra pe
Ġgas es
Ġgas seous
Ġgastro pare
Ġne oplasia
Ġext racted
sc ale
Ġspecific ity
Ġwithdraw l
Ġdep ressing
Ġ7 34
Ġhemorrha ges
agn ed
no ary
no ted
Ġoste opathy
Ġoste osclerosis
Ġoste otomies
Ġop c
Ġop ening
Ġop tions
Ġop city
Ġbronchi ectases
Ġrecei pt
Ġtre ating
Ġfo ot
Ġazyg us
Ġphysi ologically
Ġobstruc t
Ġcomm and
Ġdic tates
Ġinc a
Ġhyd rated
Ġ9 0
Ġr f
Ġr anges
Ġdistribution s
Ġasc end
Ġdevi ate
Ġpla u
Ġ( ?
Ġ( ~
Ġconve y
Ġparat rach
Ġirre versible
Ġlong term
Ġsy st
Ġsy ringothoracic
Ġdextro con
position al
Ġcollaps es
Ġconspicuous ly
Ġnotification s
Ġgra vity
Ġgra fted
Ġfir m
Ġdefin ing
Ġball point
Ġam big
Ġaneurys ms
Ġsk ull
loc oc
Ġintroduc tory
Ġiniti ation
Ġiniti ated
Ġiniti ating
Ġlord odic
Ġparam edial
ab out
Ġcontin ual
Ġten odesis
Ġmak er
Ġsubp aragraph
lob ulated
Ġhypo expanded
Ġhypo ventilated
Ġhypo tensive
Ġread out
Ġstri pping
Ġdetermin ate
00 0
Ġcoarse ly
Ġneo esophageal
Ġble omycin
Ġepic ardium
Ġduoden ojejunal
Ġrecogn izing
Ġpy el
Ġwindow s
Ġextra vascular
Ġextra pericardial
Ġke ys
Ġcp r
Ġdesi rable
Ġcoars er
Ġelec tively
Ġmis aligned
Ġmis labe
ici ations
sp aring
bo th
mid dle
ud ad
Ġpedic ular
Ġplu mp
Ġtoo k
Ġevol ved
Ġplug ged
oci ation
Ġinfiltration s
Ġblo ody
Ġchannel s
cal led
met allic
urgent ly
obstruc tion
obstruc ted
Ġcoinc idental
Ġlip oid
Ġlip osarcoma
Ġaff ection
Ġcoales ce
oper itoneum
Ġorder s
Ġslow ed
Ġhal o
Ġdestruc tions
adi ology
Ġlev osc
Ġvar us
Ġvar iably
Ġdepic tion
Ġhospital s
Ġpunc tuated
Ġwid est
sec ond
Ġpe a
Ġpe ep
Ġventricul ostomy
Ġventricul opleural
Ġdors ally
Ġcann ulated
dynam ically
Ġaort ocaval
Ġtempor arily
Ġrecor ding
Ġapicolateral ly
Ġexacerb ating
Ġradio opacity
Ġorgan oax
Ġseem ed
iod ol
Ġepi pericardial
ug ue
Ġindentation s
Ġoffic es
Ġcran iad
Ġdiss ociation
Ġpara thoracic
consolidation s
Ġmi e
Ġbro ch
Ġdiagnos ing
men tioned
Ġ? ?
Ġhow ver
Ġform ing
Ġbig gest
Ġdys phag
Ġligament um
Ġreal ized
Ġquan tified
Ġcap illary
Ġexacerbation s
Ġpleuro centesis
Ġobjec tively
Ġmicronod ulation
Ġanterolateral ly
Ġcomple mented
Ġatelect sis
Ġhuge ly
Ġflo ating
Ġflo ppy
Ġ# ___.
Ġcervic omediastinal
Ġfin ings
Ġbroncho malacia
cation s
Ġcontralateral ly
Ġrisk s
Ġossification s
Ġdysfunction al
Ġperit onitis
Ġoperative ly
Ġpan acinar
Ġflexi ble
Ġwan e
Ġresor ptive
Ġsupra basal
axi mal
Ġer rant
Ġer cp
direc ted
Ġduc tus
Ġfeature less
Ġlen ding
Ġinfer oposterior
Ġquanti tation
Ġide a
Ġmus culature
Ġvisc ous
su pp
Ġmr cp
Ġdisrup tions
Ġda maged
ocy top
Ġpal pi
Ġcre ase
Ġoptim ization
Ġspondyl olisthesis
Ġfluctu ation
Ġsac rum
Ġcrypt ococ
Ġbur sal
Ġbur sitis
Ġvascul itic
Ġhemidi ap
Ġlymphatic s
--___ ,
Ġmechan ics
Ġcolumn s
Ġadm i
Ġprac tice
Ġdiver sion
Ġdegener ated
Ġimmunocomp romise
Ġmamm ography
Ġchem ical
Ġknow ing
Ġknow ledge
Ġvisi t
Ġassy mteric
post surgical
wi re
Ġexcre tion
Ġmicro atelectasis
Ġaris en
Ġinjec ted
Ġrecess es
Ġlaceration s
Ġfossa e
Ġantero listhesis
Ġinst allation
Ġjud gment
Ġthromb ocytop
Ġdesign ation
Ġdesign ated
Ġero sions
Ġero ded
Ġlocaliz er
colla psed
Ġinh ibit
Ġbronchosp astic
Ġdegra dation
Ġvaric oid
vole mic
Ġestablish ing
Ġinstrum ent
Ġoxygen ation
Ġpin ched
Ġprevent s
Ġdiaph gram
Ġbic eps
Ġemphasi ze
Ġemphasi zes
Ġlea flets
Ġappli ance
Ġweight s
Ġtendon s
Ġselec t
Ġmod earte
Ġinappropriate ly
Ġunco operative
Ġclinician s
Ġdescri bes
Ġinver ted
Ġvol un
Ġrow s
Ġlamin ar
Ġinflu enced
Ġsigmoid al
Ġperpendicular ly
Ġopacif iation
Ġmeta physis
Ġcranioca udad
Ġbent all
Ġtachy pnea
Ġconver ging
Ġpostero basal
Ġspot s
Ġtest s
Ġconceal ing
mark er
Ġpulmon ology
Ġpneumoth rax
Ġtechni qe
Ġmanip ulated
Ġdynamic s
Ġren dering
Ġunch agned
Ġadd ress
oste omyelitis
Ġ36 0
Ġmanifest s
Ġmanifest ing
Ġdecided ly
Ġcloth es
Ġmalfunction ing
Ġtracheobronch omalacia
mul ti
Ġbun dle
Ġdissec ted
exp anding
Ġtravel ing
Ġbac teremia
Ġtom orrow
Ġexer t
Ġagre ement
Ġthorough ly
Ġaccompl ish
Ġdiscrimin ating
Ġho ars
Ġeng age
Ġ___.___ ,
Ġarr ange
impro vement
Ġtag s
Ġreli eved
Ġreli ef
Ġdro pping
Ġgu ess
Ġcandid ates
promin ence
Ġcartila ges
Ġencas ement
Ġcardiopul m
Ġcr us
Ġalle gedly
Ġga uge
Ġgent ly
Ġinfor adiology
Ġhemorra ge
Ġconstric tion
Ġneu rom
Ġlymphangi omyomatosis
bronchi olitis
Ġargu ably
Ġmurmur s
Ġlu ftsich
Ġcoc ci
Ġbutton s
Ġhapp y
Ġhapp ened
obli qu
deform ities
Ġempiric ally
Ġconnec tive
Ġulcer ation
Ġunderex posure
Ġhomogen eity
Ġva ugue
Ġveter bra
Ġopacific tion
Ġexc ised
Ġexc rescence
Ġexperi encing
Ġpreci pitated
Ġsubcu tan
atte mpted
Ġabsor bed
Ġextrac ardiac
Ġmeth od
Ġdishis cence
my dia
sta tus
Ġaler ted
Ġredist ribu
Ġredist rub
Ġcardiomedi as
Ġupp per
Ġstop s
Ġovershadow ed
Ġtight ly
Ġsubm aximal
Ġasses ment
Ġsupposed ly
Ġswe ep
Ġswe ats
Ġirri tation
Ġmorbid ly
Ġcontemp lated
Ġcontemp oraneous
Ġconnect or
Ġmeaning ful
Ġneurolog y
Ġpneu omonia
follow up
Ġprevios ly
Ġprevios uly
car ina
frac tures
Ġavi um
Ġintention ally
Ġhar b
Ġhope fully
Ġconern ing
Ġrew iring
Ġcoun terclock
Ġpop corn
Ġdiag onally
Ġimper ceptible
Ġexager rated
Ġdisorgan ization
Ġpossibl ity
Ġpersisten ly
Ġinstitu tions
Ġfilament ous
Ġtransver ses
Ġtrabe cular
Ġmye lo
Ġtrunc ated
Ġaffor ded
Ġstrict ly
Ġcorrobor ating
Ġrecrudes cent
Ġpersisi tent
centu ated
evid ence
four th
pres umed
resi dual
six th
Ġoss esous
Ġeth iodol
Ġves tiges
Ġplex opathy
Ġsid ewall
Ġdri ve
Ġunrespon sive
Ġcoag ulopathy
Ġcoordin ator
Ġdetrac ts
Ġcompli ance
Ġabduc ted
Ġradigraph s
Ġinfil ter
Ġunremak able
Ġparad ox
Ġexplo re
Ġwashou t
Ġfulfil l
Ġphys cian
Ġtrajec tory
Ġavail ability
Ġmasqu erading
Ġarterios um
Ġcostochond ritis
Ġempy emas
Ġdispal ced
Ġtermian tes
Ġlongitudin ally
hemo dynamically
Ġtherm ometer
Ġilldef ined
Ġtandem heart
Ġpneumoconi osis
Ġpreponder ance
Ġhemosta ts
blo od
doc um
go iter
nas ogastric
wed ge
Ġares een
Ġaver age
Ġthic keing
Ġpron ou
Ġplas m
Ġnid us
Ġnail s
Ġsph incter
Ġsaph enous
Ġomin ous
Ġoment um
Ġoap city
Ġlaryn g
Ġineff ective
Ġbial teral
Ġwrit ten
Ġcongru ent
Ġvoic email
Ġreass uring
Ġrebrea ther
Ġdoph off
Ġchla mydia
Ġchill s
Ġcholangi ocarcinoma
Ġtobac co
Ġpneumoretro peritoneum
Ġorogr astric
Ġpropen sity
streak y
Ġappoin tment
Ġapplic able
occupy ing
Ġdiath esis
Ġparec nhy
Ġliek ly
Ġovercir c
Ġpreven ted
Ġperspec tive
Ġmidhem i
Ġdismis sed
Ġcarme l
Ġbound aries
Ġmultifact orial
Ġaccurac y
Ġarmo red
Ġintrabdom inal
Ġstaphy lococ
Ġperipros thetic
Ġmultiloc ular
Ġvehic le
Ġaerodi gestive
Ġaccord ance
Ġtrape zius
Ġgastropare sis
Ġdextrocon cave
Ġorganoax ial
Ġdysphag ia
Ġhoars eness
Ġluftsich el
Ġcounterclock wise
" .
' d
* *
, "
- ,
1 00
6 01
> ___%)
? .
? ).
a or
a ul
a ges
a ther
a gular
a ging
a ties
b ble
b and
b ale
c g
c en
c ase
c ula
c row
c ling
c ological
c rural
d a
d o
d t
d or
d ural
d ated
d able
d ue
d ob
e v
e al
e res
e ft
e ver
e ities
e ll
e ving
e ek
e oplastic
f ed
f an
f is
f ron
f ecta
f ist
f urcation
f used
f dg
g t
g ul
g mon
g tail
g leno
g atory
h al
h et
h ia
h aph
h bo
h art
i i
i th
i ence
i vc
i orr
i ms
i mpression
i silar
i omyomatosis
i tatively
k i
k ly
l r
l te
l lar
l dy
l ater
l osed
l come
l itting
l ordotic
l ming
m er
m ri
m un
m ate
m ain
m uc
m ma
m omediastinum
m ester
m orph
n in
n ar
n or
n ded
n us
n one
n ipple
n ace
o v
o ch
o rec
o unt
o unced
o sities
o ap
o rement
o vol
o ius
o erate
p es
p ation
p oc
p ine
p la
p late
p ag
p iss
p cp
p neumo
q ual
r un
r tion
r ut
r ue
r ll
r ason
r po
r fa
r gam
s v
s w
s cess
s ome
s tern
s rated
s tically
s titution
s tability
s ince
s crete
t n
t ac
t ot
t ined
t ty
t iny
t ology
t ling
t vr
t achy
t wo
t rasc
t ours
u er
u ch
u tic
u ture
u tation
u terized
v a
v p
v s
v ia
v ular
v ical
v asive
w n
w s
w he
w all
w ater
x e
y e
y n
y t
y mal
y ten
y ical
y tic
y el
y seal
Ġ =
Ġ [
Ġ ral
Ġ ung
Ġ ran
Ġ esoph
Ġ ronchial
th ar
th us
th ree
in ary
in ation
in st
in ical
in to
in tern
in serted
in antly
in vasive
on ic
on ia
on set
Ġa y
Ġa z
Ġa us
Ġa though
Ġa rotic
Ġa left
Ġa ip
re la
re gular
re ple
re ticular
re current
re trac
re verse
re pe
re valve
re placement
re ported
Ġth ry
al p
al r
al be
Ġp f
Ġp un
Ġp olar
Ġp tosis
Ġthe left
Ġthe lungs
Ġc j
Ġc ed
Ġc ra
Ġc lac
Ġc ance
Ġc rib
Ġc up
Ġc ect
Ġc eri
ar re
ar al
ar tion
ar ia
ar ters
ar ticulation
ar tifact
si o
si te
si der
si bility
si ci
si ella
te e
te le
te ly
te lectasis
te tte
le ast
le gmon
le iomyomatosis
le mma
or thorax
or ces
or tional
Ġi b
Ġi d
Ġi on
Ġi ron
Ġi od
Ġi increased
Ġn creased
Ġn ut
Ġn at
Ġn eeding
Ġn icu
ti ed
ti ing
ti ary
ti ch
ti tive
ti os
ti ps
ti zed
ti trypsin
Ġs m
Ġs s
Ġs un
Ġs pac
Ġs lu
Ġs tic
Ġs piration
Ġs lower
Ġs ling
Ġs ni
Ġs ensation
Ġo ve
Ġo derate
Ġo mental
en a
en tial
en rative
en hancement
en terostomy
en tie
en gorgement
Ġl d
Ġl ac
Ġl is
Ġl unc
Ġl sc
Ġl ag
Ġl left
Ġl unar
Ġis not
Ġis mid
er y
er on
er red
er ving
er ging
er cosis
Ġno p
as liar
es ema
es cent
Ġin tent
Ġin line
Ġin sure
Ġin tub
Ġin stance
Ġin apparent
Ġin herent
Ġe f
Ġe le
Ġe min
Ġe at
Ġe ating
Ġe ct
Ġe fusions
Ġe physema
Ġe ye
Ġm ent
Ġm ach
Ġm ail
Ġm olar
Ġm proved
ri er
ri ent
ing ently
di ac
di ation
di ted
di lation
di latation
di oid
di lator
di mentary
di cual
di mer
ac ral
ac ities
ac cess
ac ting
ac ement
ac comp
ac tivation
Ġb a
Ġb u
Ġb ear
Ġb ad
Ġb us
Ġb iz
Ġb ump
Ġb right
Ġb cg
un table
mp ath
mp osed
ou rable
ou ette
Ġw ears
Ġw ks
Ġan ge
Ġan teromedially
Ġan uer
ul lar
an i
an y
an ied
an cies
an titrypsin
Ġt v
Ġt ang
Ġt ine
Ġt ong
Ġt vr
Ġt rophic
gh ram
Ġh te
Ġh ung
Ġh owe
Ġh ind
Ġh ub
Ġh ost
Ġh inder
Ġh arder
ate ment
Ġare ation
Ġf t
Ġf ading
Ġf resh
Ġf na
mal positioned
ro lateral
ro yed
ro desis
ro iliac
Ġri gth
Ġri ht
Ġcon cur
Ġcon cer
Ġcon crete
il ib
il ovol
ic ty
ic ult
ne o
ne ce
ne ts
ne uro
Ġpneum thorax
Ġpneum omedi
Ġpneum orthorax
Ġv c
Ġv ent
Ġv ess
Ġv ital
ta k
ta mp
ta min
ta vr
ta bular
Ġle f
Ġle thar
Ġthere is
Ġwith ing
Ġwith ou
Ġeffu ison
Ġeffu ion
Ġeffu sio
ra bly
ra ion
ra tory
ra trial
ural ly
Ġlung fi
id cated
Ġsi c
Ġsi ad
Ġcardi ca
Ġcardi ologist
Ġre op
Ġre min
Ġre per
Ġre inf
Ġre tain
Ġre ab
Ġre dic
Ġre location
Ġre oriented
Ġre examined
Ġre ception
Ġd ance
Ġd ove
Ġd welling
Ġd umb
Ġd uly
Ġd ull
Ġd omed
ol a
ol ly
ol ution
ol lection
ol ordotic
om ities
om atic
om end
Ġch st
Ġch rac
Ġch unk
Ġch orn
Ġch urg
Ġch ori
Ġto x
Ġto le
Ġto we
em ergency
em bered
Ġlo cu
Ġlo aded
Ġpneumo per
Ġpneumo hydro
Ġpneumo pathy
Ġor ally
ter ing
ter val
sis ted
ch on
ch otomy
it c
Ġun n
Ġun spec
Ġun ited
Ġun chan
Ġun seen
Ġun healed
Ġun rel
ear li
Ġse ts
Ġse qual
Ġco in
Ġco de
Ġco herent
Ġco bble
be picardial
Ġnormal ity
ph oned
ph ritis
ph ram
ce lain
ce td
Ġbe ll
Ġpro x
Ġpro ges
Ġpro tec
Ġpro ving
Ġpro ves
Ġpro hibit
st one
st omies
st inum
Ġopac it
Ġopac ify
Ġsu pper
Ġsu bepicardial
se qu
se ct
se ptal
Ġde l
Ġde ge
Ġde ple
Ġcomp ly
Ġcomp ris
Ġcomp ound
Ġcomp uter
Ġcomp uterized
ema king
Ġlow ered
Ġate c
Ġate ral
Ġatelecta iss
Ġatelecta isis
Ġatelectasis s
Ġcardiom ge
Ġmil ldy
Ġen ema
Ġen able
Ġen velop
Ġen tail
Ġen tailed
Ġen su
Ġen sued
Ġcons ol
Ġcons erv
Ġcons od
Ġcons tip
Ġed ma
Ġed ena
Ġconsolid atin
ia m
ia ml
Ġat rophic
Ġex ci
Ġex ophy
Ġas pi
Ġas plen
oc clu
oc iated
oc curred
oc ost
oc ranial
Ġmo del
Ġmo gul
is otope
Ġdi al
Ġdi et
Ġdi ure
Ġdi abe
Ġdi mun
Ġdi lemma
Ġdi chotomy
Ġpa use
Ġpa rency
Ġcont ingently
Ġcont acting
lar gement
Ġli gh
Ġon y
Ġon cological
Ġheart s
Ġra m
Ġra tional
Ġra tios
Ġpneumon thorax
Ġab o
Ġab lated
Ġab duction
Ġab nor
op rol
Ġev ar
Ġev entu
ten tially
Ġradi ated
Ġradi ot
iti mate
ec es
ograph s
Ġinter loc
Ġinter ference
Ġinter sect
Ġlower ing
ain ed
Ġu changed
Ġst albe
if ocal
rac er
rac tions
Ġvolum inous
Ġmoderate cardiomegaly
vi ral
vi tating
li ation
li gn
Ġbil ater
Ġbil basilar
min ent
min utes
Ġvi olation
Ġappear nace
Ġover al
Ġover time
Ġover yling
Ġover crow
Ġover whe
dy sp
Ġlobe ectomy
Ġpre cur
Ġpre valent
Ġpre intubation
Ġpre mature
Ġpre tty
Ġprocess ing
normal ity
ark ing
ay r
ge ous
ges ted
Ġstu di
Ġfor ced
Ġfor ces
Ġvascular ization
ld ly
Ġca pped
Ġabnormal ies
lu p
lu ent
Ġper in
Ġper dom
Ġper mitted
Ġper ception
asi zing
Ġg ath
Ġg ag
Ġg rand
Ġg lad
Ġposition ning
Ġposition ned
Ġwe lcome
Ġrem arkably
Ġrem embered
Ġap ro
Ġap lastic
Ġcardiomegaly with
ot rophic
Ġsub side
Ġsub complete
Ġsub lobar
Ġsub apical
Ġsub dural
Ġsub lte
Ġwh olly
Ġmid sternal
at al
at ri
at ted
at oin
val vular
Ġint ras
Ġint roduce
Ġinf o
Ġinf la
Ġinf used
Ġinf rasc
ini g
ini tion
ini zation
rem arkable
rem oval
Ġlim a
Ġnot with
rom atosis
rom ocy
out patient
Ġbut terfly
uc ssed
Ġag ing
aph oid
ir t
ir y
ir regular
Ġimp erative
Ġimp lement
Ġimp lication
Ġimp eded
Ġimp aired
Ġimp lied
Ġend oscopic
ib ronchial
lac eration
Ġimpro per
la e
la re
Ġaor tich
Ġaor itc
per haps
per sistence
he ver
he terogeneous
Ġj an
Ġrep osis
Ġrep osi
Ġcath ether
gn ani
Ġsli gt
Ġslight y
Ġair bronchograms
Ġexa gg
chy mal
Ġpor celain
de monst
Ġ2 00
Ġob vi
Ġbib ibasilar
Ġbib isilar
Ġbib asliar
clu de
Ġsug g
Ġsug gs
Ġpos te
Ġpos ed
Ġpos tion
Ġpos tex
termin ate
Ġbibasilar ly
tal ic
Ġtermin at
Ġha v
Ġha ust
Ġref ect
Ġref lex
Ġintersti um
pri t
ach able
Ġcal ling
lev oscoliosis
all ary
Ġrec ency
Ġrec eding
Ġrec overed
Ġrec com
Ġrec tified
Ġrec omen
Ġrec lined
Ġrec eded
Ġrec omend
Ġdef omities
Ġcalc fication
Ġfrac ut
Ġfrac uture
Ġexclu dable
ula e
ula re
ula ized
Ġima g
pi tating
pi gtail
ur ate
ur ance
Ġdis turbed
Ġdis ucssed
Ġsp ina
Ġsp asm
Ġsp litting
Ġretro ca
Ġretro cardia
Ġretro pharyngeal
Ġretro crural
cardi othoracic
Ġsc rub
Ġsc rut
Ġsc alp
Ġsc aphoid
Ġpost ulated
Ġpost cholecystectomy
Ġsuggest in
Ġass urance
Ġpar s
Ġpar acent
Ġpar achy
Ġpar itally
iz es
qu iring
Ġsh ad
Ġsh ot
Ġsh run
Ġsh irt
Ġpicc s
Ġsim lar
Ġsimilar ity
Ġsuper o
Ġsuper omedial
Ġreg row
Ġreg ress
Ġreg ained
os nt
os acral
Ġmul ifocal
Ġju mp
one phritis
rec omm
Ġac s
Ġac t
Ġac on
Ġac tiv
Ġac ount
Ġac quiring
Ġnod u
Ġpac emaking
Ġk omm
Ġk leb
Ġk ilovol
Ġtor n
Ġtor us
Ġexten tion
Ġapical pneumothorax
Ġar ri
Ġar ge
Ġar ticular
Ġar ray
Ġar yten
Ġintra procedural
Ġintra thorac
Ġintra pericardial
Ġbronch olith
Ġdiff ern
Ġdiff ers
Ġhyper in
Ġhyper vascular
Ġhyper aeration
Ġhyper distention
Ġhyper volemic
Ġvis cer
Ġcor ner
Ġvisual izing
stan tially
Ġver ification
Ġear ring
Ġhe l
Ġhe at
Ġhe ating
Ġ3 2
Ġ3 7
Ġ3 00
Ġ3 40
Ġmedi o
Ġmedi ated
Ġmedi obasal
Ġsubstan tive
Ġunder way
Ġunder standing
Ġunder lined
ys m
ven tion
ven ess
Ġbet we
Ġimprov ment
ex clude
dom ly
Ġcost roph
Ġte re
Ġte aring
Ġte lphone
Ġassess es
Ġperi h
Ġperi thoracic
Ġperi operative
Ġperi esophageal
Ġperi articular
co revalve
Ġden ist
Ġscar city
Ġpres cribed
Ġsupp uration
Ġsupp ose
ran eous
Ġpersis ent
Ġloc ates
Ġloc ulus
Ġmulti chamber
Ġmulti vessel
ĠĠĠĠ ĠĠ
Ġfol lic
Ġrelev ance
tec ted
Ġscarring s
Ġcol lim
Ġcol apse
Ġcol orec
Ġstand s
Ġevalu ates
Ġstandard s
Ġgrossly clear
Ġtrache itis
Ġtrache otomy
Ġrecomm ed
Ġrecomm eded
Ġrecomm mend
Ġrecomm nded
Ġrecommen ding
Ġcontinu um
mo le
mo bility
Ġapprec iation
Ġabdomen al
ob iliary
Ġsugges tes
pec tus
Ġdra g
Ġdra wing
Ġemph esema
Ġloss es
Ġnodule w
Ġapproxim ated
Ġthick ens
Ġbl and
Ġconsi tent
Ġro unds
Ġsubc m
Ġsubc ap
Ġcompres s
Ġcompres ses
Ġgi st
Ġconf ound
Ġmultiple bilateral
Ġobscu raion
Ġtrac es
Ġ4 3
Ġ4 9
Ġ4 35
Ġ4 14
Ġ4 38
Ġrela tives
Ġdes his
Ġqu arters
Ġsti r
Ġsti dy
Ġesopha geous
Ġindi screte
Ġcro hn
to id
comp arison
comp atible
Ġij l
Ġcolla b
Ġfur there
Ġins pect
Ġins titial
Ġins ters
Ġins piss
Ġfi dicual
Ġcomb i
Ġadvan ces
Ġhi ps
Ġz on
Ġ5 4
up on
Ġremoval s
Ġhern iorr
Ġaddition aly
Ġpig tailed
Ġly mp
Ġhernia e
Ġdeform ation
bil at
Ġess ence
Ġlay ing
Ġprogres ses
ere ll
Ġoverlo ok
Ġoverlo oked
cy st
Ġback up
Ġsup sici
Ġesophag o
Ġesophag opleural
Ġlymph o
Ġlymph no
Ġlymph oprol
ho f
ho st
Ġfeeding s
Ġtran section
Ġnon surgical
Ġnon visualized
Ġnon bacterial
Ġnon obstructed
Ġtrans port
Ġtrans section
Ġtrans fusions
Ġtime line
cle s
cle rotic
Ġcours ed
Ġsa turation
Ġtele sc
Ġtele lphone
ha ir
ha zy
ces sion
Ġassessment s
Ġsus pen
Ġfis ure
Ġfis sur
Ġold est
Ġhyp e
Ġhyp oph
Ġhyp ovascular
Ġhyp otrophic
are a
oscle rotic
Ġmin mal
Ġmin eral
Ġph ases
Ġph legmon
Ġdisten d
Ġdisten stion
Ġshi ley
Ġreflects ing
Ġ6 1
Ġpasses into
omin ent
Ġgranul ation
Ġel icit
Ġpred ated
Ġpect um
Ġheterogen eities
Ġtw entie
Ġperic ystic
Ġpredomin an
Ġpredomin ated
Ġling s
Ġling ual
Ġpul onary
Ġpul noary
Ġfib roid
Ġfib ers
Ġfib roma
Ġmain tain
pre tation
Ġx rays
Ġhelp ed
erex panded
Ġmal aligned
Ġmal aria
Ġded idcated
Ġrepe titive
the y
Ġluc en
ator s
Ġgen esis
io leiomyomatosis
def inition
ose ptal
Ġmu tiple
Ġdo ing
asta ting
Ġjoin s
Ġup to
Ġup com
Ġup grade
Ġapic olordotic
Ġtra ined
Ġtra hce
tern a
Ġ8 0
Ġ8 45
Ġ8 32
Ġ8 31
Ġgast ritis
Ġspec ified
Ġspec ially
Ġspec ies
Ġgas tic
Ġgastro esophagectomy
Ġgastro enterostomy
Ġext ru
sc opy
Ġspecific s
Ġ7 1
Ġ7 47
Ġ7 58
Ġ7 51
Ġcollec ts
Ġbia silar
Ġmar fan
Ġoste al
Ġoste ogen
Ġmalign ancies
ag ly
Ġben ds
Ġobli gate
Ġobli gatory
Ġy our
Ġav n
Ġav ms
dis coid
Ġgener ated
Ġvena e
Ġtre atement
zyg os
ecta tic
Ġes rd
Ġvia ble
Ġdoes n
complete ly
Ġacco untable
Ġbibasal ir
ens urate
Ġdisco unt
Ġbeneath e
Ġinc res
Ġinc lin
Ġinc lined
Ġr h
Ġr t
Ġr ated
Ġasc en
Ġasc itic
Ġending s
Ġpattern s
Ġma turing
Ġpath ogn
Ġsee en
Ġsuggestion g
Ġbi te
Ġbi pical
Ġeven tation
Ġ( "
Ġ( >___%)
end ation
end otracheal
Ġman aged
Ġarteri ovenous
Ġoc ular
Ġoc ollection
Ġquestion ned
Ġyesterday s
Ġcho ose
Ġinser ting
Ġbul lets
Ġatten ded
Ġsen sible
Ġsen gs
Ġsen escent
Ġwire like
Ġoff line
Ġweek end
Ġconspic ous
Ġnotif y
Ġdex trasc
Ġskeletal ly
Ġsy metric
Ġsy metry
Ġsy mpath
Ġshe ll
Ġpleu ritis
Ġtrauma tized
Ġem erging
Ġdirect ory
Ġhemo diaphragm
Ġcaliber s
Ġsymptom matic
Ġdoub ling
Ġtuber cle
Ġtuber osities
Ġtransverse ly
cul ta
Ġsuprac ervical
Ġdilatation s
Ġsupraclavicular ly
Ġinflamm ed
Ġdisc s
Ġdisc itis
Ġdisc arded
Ġdisc losed
tim ized
Ġpleura e
Ġcephal id
Ġcephal isation
Ġcross ed
Ġbypass ing
Ġtri ed
Ġtri gger
Ġtri vial
Ġtri furcation
Ġtri mester
pe utic
Ġwar t
loc ytic
Ġhema to
Ġdiscre et
Ġaltern ating
ors es
ab d
ab scess
ab normality
Ġsuspicion s
Ġten able
Ġten tatively
Ġatt ack
Ġatt achment
lan ted
Ġek os
Ġgaseous ly
Ġfiduc ious
Ġfiduc iary
Ġhypo venti
Ġhypo chrond
Ġcardio diaphragmatic
Ġcardio version
Ġread vanced
Ġstri dor
Ġdetermin es
Ġmor gnani
Ġresp resent
Ġdimin eralized
Ġfav oured
Ġheav iness
Ġtub ulation
Ġpotential y
pa h
Ġble nd
Ġble nding
Ġrule s
Ġrest oration
Ġarth rosis
Ġarth ritic
Ġarth rodesis
Ġpull monary
Ġpri o
con sider
cav itated
Ġretrosternal ly
Ġstim ulated
Ġstim ulate
Ġke y
Ġsecu res
Ġec om
Ġcalcific ed
Ġcosto chrond
Ġsepar ates
Ġflex es
Ġflex ures
Ġdirec ting
Ġthera peutic
Ġcxr s
Ġelec troph
ici ted
sp inal
bo und
bo chdalek
mid line
-___ -
-___ ),
Ġcare gi
ud ar
Ġlate ra
Ġlate rom
Ġdouble d
Ġevol ve
right ward
.. .
Ġsty le
Ġfilter s
Ġthin ned
Ġmuc osa
Ġstabil izes
Ġtr v
Ġinform s
Ġrepres nt
Ġlumen al
Ġlater l
Ġpel ural
Ġinterpre tion
Ġinterpre tability
Ġscre ened
Ġtemp late
Ġneoplas ms
tor tuous
Ġlack s
Ġmd oerate
Ġcy lin
Ġcy cling
Ġcy tology
Ġlymphang ioleiomyomatosis
Ġcoales ces
Ġlob us
Ġnaso esophageal
Ġmistaken ly
Ġsuc cession
assess ing
appear s
Ġdest royed
adi al
radi c
Ġpresentation s
Ġdepic ting
Ġexi ted
Ġult rason
Ġbrid ged
veal ing
Ġune ven
Ġsuff ered
Ġsuff ice
Ġpe pper
Ġpe umonia
Ġpercutaneous ly
Ġcyst gast
Ġventricul omegaly
Ġdors olateral
Ġser um
Ġser ous
Ġser ver
Ġser ving
Ġser ositis
Ġser pent
Ġreticulon udar
Ġcystic ercosis
Ġ20 1
Ġatte sting
Ġus b
Ġmed ically
Ġmed astinal
Ġsituation s
Ġemp loyed
Ġradio isotope
Ġmen tion
Ġassis ted
Ġepi phrenic
Ġscapular is
ug al
pylor ically
Ġfavor able
ser ous
Ġlie u
Ġnumber ing
rup ted
Ġexpan sive
Ġbro chi
Ġdiagnos tically
Ġdiscern ing
Ġassist ance
Ġunilateral ly
Ġfac ial
Ġcontig uity
Ġdys morph
effu sions
Ġligament ous
Ġqual ities
Ġqual ified
Ġqual itatively
verteb ra
Ġconclu de
Ġmagn ifying
Ġintrac ell
Ġile oce
Ġcap ture
Ġpleuro scopy
Ġvariant s
Ġobjec tive
Ġmicronod ule
Ġinju red
Ġipsilateral ly
Ġsheet s
Ġplan s
Ġplan ning
Ġatelect as
cir cular
inter vention
inter pretation
Ġcla vical
Ġproduc tion
Ġocclu de
Ġocclu sive
Ġelect rical
Ġinterf ac
Ġur inary
Ġclamp s
Ġpossibil y
Ġaccep ted
Ġexce ed
function ing
Ġconne cts
Ġdec lined
Ġdec lare
hy p
Ġsequen tially
Ġfin ds
Ġfin idng
Ġbroncho dilator
Ġbulk ier
Ġpur ported
Ġfibro aden
Ġconsis ent
ortun istic
gra ft
Ġste ak
Ġste adily
Ġtrack ed
Ġleak s
Ġleak ing
Ġstate ment
Ġmandi bular
Ġdepartment s
Ġprefer able
aneurys mal
Ġappend ectomy
Ġset tled
Ġperibronchi ectatic
Ġpan nus
Ġeasi est
Ġfle eting
Ġcongen stion
Ġrup tures
Ġbegin s
Ġperson ally
Ġ(___ .
hyd ropneumothorax
Ġverb al
Ġcommin ute
Ġeg a
Ġeg d
Ġacquisition s
Ġsupra renal
cost ophrenic
Ġrefe lect
Ġpericardi ophrenic
Ġmalposition ned
Ġloose ly
Ġquanti tate
sh rapnel
Ġdetermination s
ologist s
Ġnephro lithiasis
Ġnephro stomies
su ch
Ġfla ir
Ġstrad dle
gl ove
Ġda hbo
Ġcre atin
set te
Ġdecompres s
Ġdecompres sive
Ġul na
Ġul nar
Ġsac roiliac
Ġund o
Ġmeasu rable
ocon centric
Ġinte ratrial
Ġproble matic
Ġneuro fib
Ġneuro surgery
Ġlevocon cave
Ġtimes tamp
Ġmetal ic
Ġmenis cal
Ġeosinophil ia
emph asizing
Ġunit s
Ġvascul ture
Ġhemidi ag
Ġhemidi phragm
omp ensation
Ġpt ld
Ġbra f
Ġtap es
Ġtap ing
Ġprac tical
Ġadju st
Ġoverlay s
Ġordin arily
bronch ovascular
sub carinal
ress ant
Ġventral ly
Ġleuk ostasis
ati o
post obstructive
Ġaris on
Ġaris es
Ġconstellation s
Ġhemidiaph gragm
Ġhemidiaph rgam
volum es
Ġisol ation
Ġrul ing
Ġcircumferen tially
ru is
Ġantero basal
Ġantero inferior
Ġrecon stitution
col on
Ġinst alled
Ġinfra hepatic
Ġsurpri se
Ġpeak s
comb ination
Ġprof use
Ġbenefit s
Ġter tiary
Ġpr jecting
Ġguid ed
Ġsill hou
Ġdegra ding
Ġdiverticul i
Ġdiverticul osis
characteri zed
Ġassymetric ally
Ġinstrum ented
Ġoverex pansion
Ġnotch ing
Ġreconstruc tions
Ġbar ometer
Ġrein tubation
Ġrein sertion
Ġreoc curring
techn ical
Ġdiaph yseal
Ġadhe sive
Ġelimin ates
Ġelimin ating
po or
po tentially
por cine
Ġsuperf icially
form ing
imp acted
Ġoverly ies
Ġsyn pneumonic
Ġflank s
Ġpne momediastinum
Ġim mature
Ġim rpo
Ġim minent
Ġim mobility
Ġim completely
Ġbasi c
Ġbasi al
Ġbasi lary
Ġbasi lr
Ġimmunosupp ressant
Ġconglomer ates
Ġasy mteric
Ġasy mem
Ġrecumb ency
Ġconstruc tion
Ġconstruc ts
Ġadi pos
Ġnotic ing
Ġcount our
Ġdeterior ates
Ġenh ances
Ġconstitu ted
Ġconstitu ting
Ġconstitu tes
Ġmot tling
Ġshil ouette
Ġru dimentary
Ġlamin ated
Ġdev oid
Ġdev astating
Ġclot s
Ġclot ting
Ġflus hing
Ġleg itimate
Ġopaciti e
Ġopacif cation
Ġfunctional ity
Ġassuming ly
Ġconver sion
Ġconcav ities
Ġcontribut or
Ġsligh lt
Ġpartic urally
Ġrheum atic
Ġoperation al
Ġpulmon ale
Ġpulmon ayr
Ġmember s
Ġpair s
Ġendo esophageal
Ġcomplain ing
Ġsclero sing
Ġsclero therapy
Ġsyndes mosis
Ġunch anging
Ġsilhou tette
oste oly
Ġbow s
Ġpoly cystic
Ġadvis ing
Ġspecial ized
Ġpassive ly
ht ough
Ġaxi ally
Ġaxi allary
Ġfit s
Ġfit ting
Ġhepat obiliary
Ġincon sequ
Ġcommunic ating
trans lucent
Ġtracheobronch itis
-- ?
nodular ity
tch er
bet ween
Ġopaci ites
Ġdeci sions
Ġprevi oius
Ġdisprop ortional
Ġmanipulation s
Ġelucid ation
cor onary
cor respon
iv ary
ket s
wors ened
Ġsal t
Ġsal ivary
acy toma
Ġbac ground
Ġbac teria
Ġvast ly
Ġexer ts
Ġexer tional
Ġcarry ing
Ġsubsegment s
Ġphenomen a
Ġdiscrimin ation
Ġom olateral
Ġeng larged
Ġeng orement
Ġsilou ette
Ġmodi fication
Ġfortuitous ly
Ġdisk itis
Ġarr anged
curv ilinear
Ġunfav ourable
Ġchilaidi tis
Ġreli eving
Ġresist ant
Ġdro pped
Ġdem om
Ġdem ented
Ġbelong ing
Ġsilic osis
Ġgu aran
Ġmedias tian
Ġsupplement ing
Ġsupplement ary
Ġredevelop ed
possi bility
Ġindependent ly
Ġillu strate
Ġtransfix es
Ġ__ ___.
Ġcr ural
Ġimpres sing
Ġga ve
Ġspoon s
Ġregular ly
Ġhypertrans parency
Ġhypertrans lucency
examin ation
Ġneu ropathy
prob able
Ġlymphangi ogram
Ġjustif ies
hr ct
vol ved
Ġtribut ary
Ġvas ogenic
Ġvas cual
Ġret ration
Ġdiast ole
Ġposteri oly
Ġbronchio lectasis
Ġdens est
Ġindicator s
Ġpulm nary
Ġsyno stosis
Ġsepta e
Ġbifid a
Ġentra pment
Ġslighly t
Ġillust rates
Ġbuck y
dec ompensation
Ġamp utation
Ġaut omatic
acrom ioclavicular
under penetration
lymph angitic
Ġva uge
Ġvalu able
Ġopacific aties
Ġeval ution
Ġpreci sion
Ġpreci pitating
Ġcomparative ly
Ġmeet s
Ġtriang le
pericardi tis
eff ect
Ġace tabular
Ġaler t
Ġincre ment
Ġder mal
Ġuninter rupted
phy seal
Ġcardiomedi stinal
Ġask ed
Ġpaget oid
Ġtight ness
Ġsubm uscular
Ġaorto iliac
Ġapprox iam
Ġcalcif ed
Ġcalcif cations
Ġscaff olding
Ġarc s
Ġunderstand ably
pseud otumor
Ġshiel ding
Ġprospec tive
projec ts
contu sions
Ġneurolog ic
Ġencoura ge
Ġencoura gement
Ġencoura ging
Ġrender s
corre lation
Ġforeshor tened
bul lectomy
frac ture
gragm atic
sor ption
Ġ* **
Ġaro ta
Ġavi dity
Ġpure ly
oradi ation
Ġbrac e
Ġbrac kets
Ġtl c
Ġtric kle
Ġtric ameral
Ġrew arding
Ġunre achable
Ġunre vealing
Ġcoun ters
Ġpop ulation
Ġradiogr ph
Ġradiogr pah
lim ited
Ġtib ial
Ġcadi opulmonary
Ġcadi omegaly
Ġweb site
Ġsubs titu
Ġimper fecta
Ġimpair ment
Ġexager ated
del rine
Ġcalf iciations
Ġdisorgan ized
Ġveiw s
Ġinstitu ted
Ġtransver sing
Ġlymphadenop thy
Ġlymphadenop ah
Ġtrabe cula
apparent ly
Ġmye locytic
Ġtrunc ation
Ġrequirement s
Ġaffor ds
hyper tension
hyper inflation
Ġbraid s
Ġlabel led
Ġcorrobor ate
Ġrecrudes cence
Ġpersisi ent
fac tual
shou ld
shou lder
Ġpil lar
Ġphe umonia
Ġphe och
Ġcul prit
Ġbor dered
Ġbor delrine
Ġreen ters
Ġreen tering
Ġreloc ate
Ġreloc ated
Ġunin volved
Ġcowden s
sep sis
Ġpare chymal
Ġuter ine
Ġuter us
Ġstre tcher
Ġforce ps
Ġalth ought
Ġalth oug
Ġperis ternal
Ġger d
Ġger m
Ġgarment s
Ġwhic hever
Ġinferi ormost
Ġbutt ress
Ġreproduc ed
Ġreform atted
Ġclou ding
Ġclou ded
Ġcostoph enic
Ġtes ted
Ġcollateral s
olith s
Ġneces si
Ġneces sity
Ġlumb operitoneal
Ġlumb osacral
progres sion
confir med
Ġdemarc ate
Ġreconsi dered
Ġencroach ing
Ġfistul ogram
Ġcardiopulmon ar
Ġgau ged
Ġgau zes
decre ased
sarcoid osis
Ġcontraindi cated
Ġsubscapular is
bon y
bre ast
cn aged
filt ration
hil um
opp ortunistic
pneum omediastinum
intra thoracic
Ġaim ing
Ġcs f
Ġcas sette
sim ilar
Ġsn ap
Ġoth wer
Ġequ ilib
Ġmom ent
Ġmag nets
Ġbout s
Ġfen estration
Ġwiht out
Ġchy lous
Ġornament s
Ġbeha ving
Ġprola pse
Ġdete cetd
Ġdebil itated
Ġcardiome agly
Ġenfor ced
Ġposs sible
Ġexlcu de
Ġdilu te
Ġparen ts
Ġradiogra h
Ġintersiti tal
Ġuro sepsis
Ġgol den
Ġgib bus
Ġsubdiaph gragmatic
Ġadditon al
Ġdisce ctomy
Ġspect rum
Ġsporadi cally
Ġbox es
Ġparan eoplastic
Ġtort ousity
Ġarte factual
Ġlocula red
Ġemphys em
Ġbloc ker
Ġroto levoscoliosis
Ġrope y
Ġassocia td
Ġconstrain ts
Ġaccommod ates
Ġswit ched
Ġswir ling
Ġphleb oliths
Ġpulmo ary
Ġupturn ed
Ġopc ities
Ġcommand s
Ġinca psulated
Ġplau sible
Ġparatrach al
Ġsyst olic
Ġambig uous
Ġpyel onephritis
Ġmislabe led
Ġlevosc oliotic
supp ort
Ġpalpi tations
Ġcryptococ cal
Ġhemidiap ghram
Ġadmi xed
Ġthrombocytop enia
Ġinhibit s
Ġvolun es
multi loculated
Ġcocci dioid
obliqu ed
Ġsubcutan e
Ġredistribu te
Ġcardiomedias tial
Ġharb ors
Ġinfilter ates
Ġparadox ically
docum ents
Ġpronou ced
Ġplasm acytoma
Ġparecnhy mal
Ġovercirc ulation
Ġmidhemi thorax
Ġstaphylococ cus
aor ta
fis sure
fron tal
fist ula
gleno id
hia tal
haph y
muc ous
pla ques
sw an
tot al
Ġral es
Ġran domly
reple te
retrac tion
repe at
Ġthry oid
Ġpun ched
Ġclac ified
Ġcrib riform
Ġnut rient
Ġnat ural
Ġslu dge
Ġstic ker
Ġsni ff
Ġove res
Ġlac ed
Ġlis ten
Ġlsc a
Ġintub ate
Ġemin ence
Ġect opy
Ġmach ine
accomp anied
Ġbiz arre
Ġange ls
Ġanuer ysm
Ġtong ue
Ġvess les
Ġlethar gy
Ġlungfi eld
Ġreop ening
Ġreinf orces
Ġreab sorption
Ġchunk y
Ġchorn ic
Ġchori ocarcinoma
Ġlocu ated
Ġpneumohydro thorax
Ġunspec ified
Ġunchan ed
Ġunrel iable
earli er
Ġsequal ae
Ġcobble stone
Ġdege enrative
Ġdeple ted
Ġcompris ing
Ġcardiomge aly
Ġensu ing
Ġconserv ative
Ġconsod liation
Ġconstip ation
Ġexophy tic
Ġaspi artion
ocost al
Ġdiure tic
Ġdiabe tic
Ġdimun ition
Ġparency mal
Ġrational e
Ġeventu ration
Ġradiot racer
Ġinterloc king
Ġovercrow ding
Ġoverwhe lming
Ġprecur sor
Ġperdom inantly
Ġgath ered
Ġglad ly
Ġintras pinal
Ġinfla med
Ġinfrasc apular
Ġnotwith standing
romocy toma
Ġimplication s
Ġreposis tioned
Ġexagg ar
demonst rating
Ġsuggs ted
Ġpostex tubation
Ġreccom ended
Ġrecomen ded
Ġretroca diac
Ġparacent ral
Ġparachy mal
Ġshrun ken
Ġregrow th
recomm endation
Ġkomm erell
Ġkleb siella
Ġkilovol tage
Ġaryten oid
Ġintrathorac ically
Ġviscer a
Ġbetwe een
Ġcostroph renic
Ġdenist y
Ġcollim ated
Ġcolorec tal
Ġsubcap ital
Ġinspiss ated
Ġherniorr haphy
Ġsupsici ous
Ġlymphoprol iferative
Ġtelesc oping
Ġsuspen ded
Ġtwentie th
Ġupcom ing
Ġtrahce ostomy
Ġextru ded
Ġosteogen esis
Ġinclin ation
Ġpathogn omic
Ġsengs taken
Ġdextrasc oliosis
Ġhypoventi latory
Ġhypochrond riac
Ġcostochrond ral
Ġcaregi ver
Ġultrason ography
Ġcystgast rostomy
Ġserpent ine
Ġdysmorph ic
Ġintracell ulare
Ġileoce cal
Ġfinidng s
Ġbronchodilator s
Ġdahbo ff
Ġneurofib romatosis
Ġhemidiaphrgam s
Ġasymem tric
osteoly sis
Ġinconsequ ential
correspon ding
Ġguaran tee
Ġmediastian al
Ġlymphadenopah ty
Ġpheoch romocytoma
Ġequilib rating
Ġcoccidioid omycosis
