{"[PAD]":0,"[SOS]":1,"[EOS]":2,"[SEP]":3,"[MASK]":4,"!":5,"\"":6,"#":7,"$":8,"%":9,"&":10,"'":11,"(":12,")":13,"*":14,"+":15,",":16,"-":17,".":18,"/":19,"0":20,"1":21,"2":22,"3":23,"4":24,"5":25,"6":26,"7":27,"8":28,"9":29,":":30,";":31,"<":32,"=":33,">":34,"?":35,"@":36,"A":37,"B":38,"C":39,"D":40,"E":41,"F":42,"G":43,"H":44,"I":45,"J":46,"K":47,"L":48,"M":49,"N":50,"O":51,"P":52,"Q":53,"R":54,"S":55,"T":56,"U":57,"V":58,"W":59,"X":60,"Y":61,"Z":62,"[":63,"\\":64,"]":65,"^":66,"_":67,"`":68,"a":69,"b":70,"c":71,"d":72,"e":73,"f":74,"g":75,"h":76,"i":77,"j":78,"k":79,"l":80,"m":81,"n":82,"o":83,"p":84,"q":85,"r":86,"s":87,"t":88,"u":89,"v":90,"w":91,"x":92,"y":93,"z":94,"{":95,"|":96,"}":97,"~":98,"¡":99,"¢":100,"£":101,"¤":102,"¥":103,"¦":104,"§":105,"¨":106,"©":107,"ª":108,"«":109,"¬":110,"®":111,"¯":112,"°":113,"±":114,"²":115,"³":116,"´":117,"µ":118,"¶":119,"·":120,"¸":121,"¹":122,"º":123,"»":124,"¼":125,"½":126,"¾":127,"¿":128,"À":129,"Á":130,"Â":131,"Ã":132,"Ä":133,"Å":134,"Æ":135,"Ç":136,"È":137,"É":138,"Ê":139,"Ë":140,"Ì":141,"Í":142,"Î":143,"Ï":144,"Ð":145,"Ñ":146,"Ò":147,"Ó":148,"Ô":149,"Õ":150,"Ö":151,"×":152,"Ø":153,"Ù":154,"Ú":155,"Û":156,"Ü":157,"Ý":158,"Þ":159,"ß":160,"à":161,"á":162,"â":163,"ã":164,"ä":165,"å":166,"æ":167,"ç":168,"è":169,"é":170,"ê":171,"ë":172,"ì":173,"í":174,"î":175,"ï":176,"ð":177,"ñ":178,"ò":179,"ó":180,"ô":181,"õ":182,"ö":183,"÷":184,"ø":185,"ù":186,"ú":187,"û":188,"ü":189,"ý":190,"þ":191,"ÿ":192,"Ā":193,"ā":194,"Ă":195,"ă":196,"Ą":197,"ą":198,"Ć":199,"ć":200,"Ĉ":201,"ĉ":202,"Ċ":203,"ċ":204,"Č":205,"č":206,"Ď":207,"ď":208,"Đ":209,"đ":210,"Ē":211,"ē":212,"Ĕ":213,"ĕ":214,"Ė":215,"ė":216,"Ę":217,"ę":218,"Ě":219,"ě":220,"Ĝ":221,"ĝ":222,"Ğ":223,"ğ":224,"Ġ":225,"ġ":226,"Ģ":227,"ģ":228,"Ĥ":229,"ĥ":230,"Ħ":231,"ħ":232,"Ĩ":233,"ĩ":234,"Ī":235,"ī":236,"Ĭ":237,"ĭ":238,"Į":239,"į":240,"İ":241,"ı":242,"Ĳ":243,"ĳ":244,"Ĵ":245,"ĵ":246,"Ķ":247,"ķ":248,"ĸ":249,"Ĺ":250,"ĺ":251,"Ļ":252,"ļ":253,"Ľ":254,"ľ":255,"Ŀ":256,"ŀ":257,"Ł":258,"ł":259,"Ń":260,"th":261,"in":262,"on":263,"Ġa":264,"re":265,"Ġth":266,"al":267,"Ġp":268,"Ġthe":269,"Ġc":270,"ar":271,"si":272,"te":273,"le":274,"or":275,"Ġi":276,"Ġn":277,"ti":278,"ed":279,"Ġs":280,"Ġo":281,"en":282,"Ġl":283,"Ġis":284,"er":285,"Ġno":286,"as":287,"es":288,"Ġin":289,"sion":290,"Ġe":291,"Ġm":292,"ri":293,"ing":294,"di":295,"ac":296,"Ġb":297,"un":298,"Ġof":299,"mp":300,"ou":301,"Ġw":302,"Ġan":303,"ral":304,"res":305,"tion":306,"um":307,"ul":308,"an":309,"Ġt":310,"gh":311,"Ġand":312,"Ġh":313,"ate":314,"Ġare":315,"ght":316,"Ġf":317,"mal":318,"ro":319,"Ġri":320,"sions":321,"Ġcon":322,"il":323,"ff":324,"ic":325,"Ġwi":326,"Ġright":327,"ne":328,"neum":329,"Ġpneum":330,"ffu":331,"ly":332,"Ġv":333,"ta":334,"Ġle":335,"Ġthere":336,"Ġwith":337,"Ġeffu":338,"ardi":339,"Ġple":340,"ra":341,"ural":342,"ung":343,"Ġpleural":344,"mpres":345,"Ġlung":346,"__":347,"ding":348,"mpressions":349,"id":350,"Ġsi":351,"mon":352,"Ġcardi":353,"ft":354,"ent":355,"Ġleft":356,"inding":357,"indings":358,"Ġre":359,"Ġd":360,"ol":361,"ary":362,"om":363,"Ġch":364,"thor":365,"Ġto":366,"ulmon":367,"em":368,"ulmonary":369,"ation":370,"Ġeffusion":371,"findings":372,"ax":373,"Ġlo":374,"ormal":375,"thorax":376,"Ġpneumo":377,"ast":378,"Ġpneumothorax":379,"Ġor":380,"ter":381,"edi":382,"ang":383,"sis":384,"ch":385,"pp":386,"it":387,"Ġimpressions":388,"Ġun":389,"astin":390,"ediastin":391,"tu":392,"ear":393,"Ġpulmonary":394,"ble":395,"Ġse":396,"Ġco":397,"be":398,"Ġnormal":399,"ediastinal":400,"ph":401,"est":402,"pac":403,"lec":404,"ce":405,"ve":406,"Ġbe":407,"Ġpro":408,"st":409,"Ġopac":410,"cu":411,"ous":412,"Ġsu":413,"___":414,"Ġ___":415,"se":416,"Ġde":417,"ateral":418,"Ġchest":419,"Ġcomp":420,"ema":421,"Ġlow":422,"lecta":423,"Ġate":424,"Ġatelecta":425,"et":426,"anged":427,"hou":428,"Ġatelectasis":429,"Ġcardiom":430,"changed":431,"Ġunchanged":432,"ity":433,"Ġseen":434,"Ġacu":435,"ew":436,"Ġacute":437,"Ġmil":438,"Ġmild":439,"Ġen":440,"Ġcons":441,"Ġed":442,"Ġpo":443,"Ġsil":444,"houet":445,"Ġsilhouet":446,"olid":447,"Ġconsolid":448,"Ġedema":449,"ia":450,"Ġat":451,"Ġex":452,"Ġsilhouette":453,"Ġas":454,"Ġconsolidation":455,"Ġapp":456,"Ġtu":457,"oc":458,"Ġmo":459,"der":460,"og":461,"is":462,"Ġlungs":463,"Ġdi":464,"ular":465,"Ġpa":466,"Ġcont":467,"lar":468,"our":469,"Ġtube":470,"Ġcle":471,"ze":472,"Ġclear":473,"Ġsize":474,"ilar":475,"Ġli":476,"ocal":477,"ver":478,"Ġon":479,"eart":480,"red":481,"Ġheart":482,"Ġra":483,"Ġpneumon":484,"Ġab":485,"Ġpneumonia":486,"Ġmediastinal":487,"op":488,"impressions":489,"Ġev":490,"Ġfocal":491,"Ġcontour":492,"ence":493,"ten":494,"Ġradi":495,"ess":496,"table":497,"asc":498,"iti":499,"ated":500,"ogra":501,"ted":502,"Ġsmal":503,"ec":504,"rior":505,"ograph":506,"Ġcardiac":507,"Ġradiograph":508,"ities":509,"ded":510,"Ġinter":511,"Ġlower":512,"ase":513,"Ġsmall":514,"ain":515,"Ġcompa":516,"cre":517,"Ġhas":518,"Ġvasc":519,"Ġu":520,"Ġst":521,"Ġcontours":522,"ow":523,"if":524,"Ġevid":525,"rac":526,"Ġcardiomediastinal":527,"derate":528,"olum":529,"Ġevidence":530,"Ġvolum":531,"Ġstable":532,"Ġcompared":533,"Ġchang":534,"Ġlateral":535,"Ġmoderate":536,"vi":537,"li":538,"Ġbil":539,"min":540,"Ġbilateral":541,"Ġvi":542,"Ġeffusions":543,"Ġappear":544,"Ġover":545,"ine":546,"Ġprior":547,"Ġhilar":548,"Ġopacity":549,"pper":550,"Ġupper":551,"dy":552,"Ġlobe":553,"Ġpre":554,"Ġview":555,"tial":556,"Ġti":557,"ron":558,"cess":559,"ific":560,"ting":561,"Ġprocess":562,"normal":563,"ark":564,"creas":565,"ay":566,"ge":567,"ges":568,"Ġstu":569,"opulmonary":570,"Ġcardiopulmonary":571,"Ġfor":572,"Ġvascular":573,"resent":574,"Ġvolumes":575,"ld":576,"ical":577,"sition":578,"Ġstudy":579,"Ġca":580,"Ġal":581,"Ġopacities":582,"Ġabnormal":583,"lu":584,"ke":585,"vious":586,"Ġper":587,"ren":588,"able":589,"creased":590,"Ġprevious":591,"aly":592,"asi":593,"Ġg":594,"Ġposition":595,"ged":596,"asilar":597,"ement":598,"ad":599,"ther":600,"Ġwe":601,"Ġrem":602,"ut":603,"Ġtip":604,"Ġwithin":605,"Ġap":606,"tent":607,"eg":608,"ric":609,"egaly":610,"Ġcardiomegaly":611,"ot":612,"Ġsub":613,"Ġwh":614,"Ġlike":615,"Ġenlar":616,"Ġlikely":617,"Ġmid":618,"ant":619,"at":620,"gm":621,"ved":622,"Ġnoted":623,"val":624,"Ġnew":625,"tic":626,"Ġint":627,"Ġinf":628,"ue":629,"Ġconges":630,"ini":631,"tures":632,"rem":633,"tive":634,"Ġlim":635,"Ġ___.":636,"ĠĠ":637,"arkable":638,"ss":639,"ied":640,"Ġnot":641,"Ġbase":642,"ll":643,"rom":644,"Ġcompar":645,"out":646,"Ġbut":647,"Ġunrem":648,"Ġunremarkable":649,"ison":650,"Ġcomparison":651,"ragm":652,"uc":653,"Ġag":654,"aph":655,"Ġcongestion":656,"ir":657,"aphragm":658,"Ġimp":659,"Ġhem":660,"Ġfrom":661,"Ġchange":662,"Ġend":663,"Ġagain":664,"eter":665,"ib":666,"acic":667,"lac":668,"Ġos":669,"Ġbeen":670,"Ġimpro":671,"Ġ1":672,"Ġinterval":673,"den":674,"tient":675,"Ġpatient":676,"Ġ___,":677,"Ġincreased":678,"ification":679,"la":680,"Ġaor":681,"per":682,"he":683,"ould":684,"ich":685,"Ġwhich":686,"sistent":687,"Ġthis":688,"Ġosse":689,"Ġwithout":690,"Ġosseous":691,"Ġmay":692,"Ġhemi":693,"Ġlimit":694,"Ġlar":695,"tif":696,"low":697,"Ġsin":698,"Ġj":699,"ture":700,"Ġrep":701,"Ġcath":702,"Ġcatheter":703,"rache":704,"Ġlimits":705,"gn":706,"Ġsli":707,"Ġthor":708,"Ġslight":709,"ruc":710,"Ġair":711,"ts":712,"Ġexa":713,"Ġviews":714,"chy":715,"Ġpor":716,"de":717,"Ġsince":718,"Ġenlarged":719,"Ġother":720,"Ġ2":721,"Ġpresent":722,"Ġob":723,"Ġbib":724,"Ġstruc":725,"Ġline":726,"clu":727,"Ġsug":728,"Ġstructures":729,"Ġremain":730,"Ġpos":731,"ates":732,"ough":733,"monst":734,"termin":735,"Ġbibasilar":736,"Ġbas":737,"tal":738,"Ġabnormality":739,"sided":740,"Ġtermin":741,"Ġlarge":742,"diaphragm":743,"Ġwell":744,"monstr":745,"Ġcould":746,"vc":747,"Ġcm":748,"Ġplac":749,"Ġha":750,"Ġmini":751,"Ġminimal":752,"ual":753,"Ġinters":754,"Ġsvc":755,"Ġref":756,"Ġintersti":757,"Ġhemidiaphragm":758,"Ġdemonstr":759,"Ġchanges":760,"Ġinterstitial":761,"Ġiden":762,"Ġidentif":763,"ma":764,"pri":765,"ach":766,"Ġthoracic":767,"Ġidentified":768,"jec":769,"Ġsign":770,"ance":771,"Ġprojec":772,"Ġdue":773,"Ġcal":774,"not":775,"Ġimproved":776,"Ġreflec":777,"ration":778,"lev":779,"Ġopacification":780,"omy":781,"Ġby":782,"oph":783,"Ġappro":784,"ern":785,"vel":786,"all":787,"Ġrec":788,"Ġslightly":789,"Ġct":790,"tro":791,"Ġdef":792,"Ġstom":793,"Ġstomach":794,"Ġrepresent":795,"Ġappearance":796,"racheal":797,"Ġcalc":798,"Ġaorta":799,"vic":800,"Ġfrac":801,"us":802,"Ġrib":803,"ina":804,"Ġinfec":805,"Ġexclu":806,"Ġres":807,"Ġad":808,"Ġabnormalities":809,"ula":810,"Ġima":811,"ise":812,"pi":813,"Ġfron":814,"bly":815,"Ġfrontal":816,"ur":817,"Ġdis":818,"Ġsp":819,"Ġhave":820,"Ġpic":821,"act":822,"Ġretro":823,"Ġcl":824,"wise":825,"Ġradiographs":826,"Ġotherwise":827,"cardi":828,"Ġwor":829,"otracheal":830,"Ġendotracheal":831,"so":832,"tially":833,"Ġsc":834,"ard":835,"cardiac":836,"Ġconsistent":837,"ined":838,"Ġretrocardiac":839,"xi":840,"gement":841,"gest":842,"Ġcar":843,"Ġpost":844,"Ġsuggest":845,"astric":846,"Ġalso":847,"ree":848,"Ġbo":849,"Ġass":850,"Ġpossi":851,"Ġhy":852,"Ġcent":853,"Ġclin":854,"Ġbasilar":855,"Ġclinical":856,"Ġcentral":857,"Ġmore":858,"lated":859,"Ġfindings":860,"ulature":861,"Ġvasculature":862,"Ġven":863,"Ġpar":864,"iz":865,"ove":866,"Ġbases":867,"Ġmildly":868,"Ġabove":869,"Ġappears":870,"unc":871,"Ġthan":872,"Ġintact":873,"cern":874,"Ġwere":875,"ening":876,"Ġconcern":877,"Ġpromin":878,"qu":879,"ative":880,"Ġexp":881,"renchy":882,"lying":883,"Ġparenchy":884,"Ġsh":885,"Ġpicc":886,"Ġterminates":887,"Ġsim":888,"Ġster":889,"Ġsom":890,"Ġsimilar":891,"Ġsuper":892,"ediastinum":893,"Ġsignific":894,"owe":895,"ogastric":896,"Ġreg":897,"piration":898,"ronch":899,"os":900,"ion":901,"Ġcarina":902,"Ġcan":903,"Ġsignificant":904,"Ġmost":905,"nal":906,"Ġdevic":907,"Ġsur":908,"Ġlead":909,"Ġmul":910,"Ġremo":911,"crease":912,"Ġju":913,"one":914,"Ġremains":915,"Ġinfection":916,"rec":917,"vere":918,"Ġac":919,"Ġsuperi":920,"tained":921,"Ġnod":922,"Ġregion":923,"Ġpac":924,"Ġchron":925,"Ġk":926,"Ġends":927,"Ġexam":928,"Ġbelow":929,"ized":930,"Ġtor":931,"Ġexcluded":932,"Ġexten":933,"Ġobtained":934,"unction":935,"Ġchronic":936,"Ġdise":937,"Ġdisease":938,"tle":939,"Ġmark":940,"Ġprob":941,"terior":942,"ort":943,"Ġatri":944,"Ġreflect":945,"Ġapical":946,"Ġsevere":947,"Ġfree":948,"erative":949,"Ġsilhouettes":950,"Ġnas":951,"owever":952,"Ġhowever":953,"Ġtortu":954,"Ġspine":955,"Ġar":956,"gular":957,"Ġpersistent":958,"ath":959,"Ġvenous":960,"ring":961,"Ġpat":962,"Ġnasogastric":963,"Ġintra":964,"Ġdefini":965,"Ġmediastinum":966,"Ġparenchymal":967,"Ġwors":968,"Ġlin":969,"Ġjunction":970,"Ġbronch":971,"sive":972,"mph":973,"Ġdiff":974,"luid":975,"Ġconcerning":976,"anded":977,"Ġkn":978,"Ġaspiration":979,"Ġhyper":980,"Ġvis":981,"Ġdefinite":982,"Ġcor":983,"Ġelev":984,"Ġbon":985,"Ġvisual":986,"Ġenlargement":987,"ass":988,"stan":989,"priate":990,"Ġresol":991,"Ġappropriate":992,"Ġver":993,"ger":994,"Ġthat":995,"Ġplacement":996,"ps":997,"gen":998,"Ġjugular":999,"vid":1000,"ure":1001,"Ġprovid":1002,"Ġpatchy":1003,"Ġear":1004,"Ġwas":1005,"Ġportable":1006,"Ġhe":1007,"Ġprovided":1008,"Ġvisualized":1009,"Ġvolume":1010,"notomy":1011,"Ġsternotomy":1012,"Ġfluid":1013,"Ġtop":1014,"Ġaortic":1015,"Ġ3":1016,"Ġet":1017,"inf":1018,"Ġmedi":1019,"Ġatrium":1020,"Ġsubstan":1021,"Ġunder":1022,"ys":1023,"Ġexamin":1024,"rent":1025,"Ġexamination":1026,"line":1027,"Ġsta":1028,"Ġdecreased":1029,"ven":1030,"tting":1031,"Ġif":1032,"Ġbet":1033,"Ġgro":1034,"entric":1035,"ty":1036,"Ġrecent":1037,"Ġsome":1038,"thoracic":1039,"Ġimprov":1040,"ex":1041,"renic":1042,"dom":1043,"ating":1044,"and":1045,"Ġsetting":1046,"ably":1047,"ophrenic":1048,"Ġbony":1049,"Ġcost":1050,"Ġcalcification":1051,"Ġdist":1052,"sity":1053,"hilar":1054,"pright":1055,"omm":1056,"Ġprojecting":1057,"Ġte":1058,"Ġassess":1059,"Ġabdom":1060,"Ġventric":1061,"Ġperi":1062,"Ġdiffu":1063,"Ġdiffuse":1064,"co":1065,"Ġport":1066,"gor":1067,"Ġlevel":1068,"Ġengor":1069,"Ġintrathoracic":1070,"Ġden":1071,"pace":1072,"Ġscar":1073,"Ġfracture":1074,"Ġcannot":1075,"tus":1076,"Ġpres":1077,"though":1078,"Ġsupp":1079,"Ġalthough":1080,"iated":1081,"Ġnow":1082,"own":1083,"Ġoverall":1084,"ran":1085,"Ġareas":1086,"Ġcli":1087,"Ġdevices":1088,"Ġboth":1089,"inu":1090,"Ġgross":1091,"Ġpersis":1092,"ment":1093,"Ġloc":1094,"Ġlinear":1095,"Ġcostophrenic":1096,"ong":1097,"Ġmulti":1098,"order":1099,"Ġsupport":1100,"Ġborder":1101,"Ġplace":1102,"ified":1103,"Ġdiaphragm":1104,"Ġfractures":1105,"Ġincrease":1106,"ĠĠĠĠ":1107,"ution":1108,"Ġclips":1109,"aces":1110,"Ġfol":1111,"Ġdemonstrated":1112,"Ġwires":1113,"Ġinternal":1114,"Ġbetter":1115,"Ġexpanded":1116,"Ġang":1117,"Ġit":1118,"Ġshou":1119,"Ġrelev":1120,"Ġrelevant":1121,"tec":1122,"Ġhyperinf":1123,"Ġstatus":1124,"Ġscarring":1125,"Ġcalcified":1126,"esoph":1127,"esopha":1128,"Ġhil":1129,"Ġcol":1130,"Ġmon":1131,"Ġprobably":1132,"Ġangle":1133,"Ġdr":1134,"bes":1135,"Ġstand":1136,"alu":1137,"Ġevalu":1138,"Ġstandard":1139,"Ġgrossly":1140,"Ġwall":1141,"Ġtrache":1142,"Ġfollow":1143,"orm":1144,"Ġpossible":1145,"Ġtortuous":1146,"ately":1147,"Ġpreviously":1148,"Ġrecomm":1149,"Ġrecommen":1150,"velop":1151,"Ġcontinu":1152,"Ġovert":1153,"mo":1154,"Ġapprec":1155,"Ġknown":1156,"Ġabdomen":1157,"ob":1158,"Ġdevelop":1159,"Ġremoved":1160,"Ġmonit":1161,"ule":1162,"oring":1163,"Ġcav":1164,"Ġdegen":1165,"Ġdegenerative":1166,"Ġimaged":1167,"ig":1168,"Ġsugges":1169,"Ġimprovement":1170,"ced":1171,"pec":1172,"Ġupright":1173,"Ġleads":1174,"Ġmonitoring":1175,"ple":1176,"Ġelevation":1177,"Ġobs":1178,"ult":1179,"que":1180,"Ġunderlying":1181,"Ġlit":1182,"Ġlittle":1183,"Ġdra":1184,"rib":1185,"Ġprominent":1186,"rial":1187,"ally":1188,"ysema":1189,"Ġemph":1190,"Ġloss":1191,"space":1192,"Ġnodule":1193,"Ġairspace":1194,"ak":1195,"Ġterminating":1196,"Ġemphysema":1197,"Ġearli":1198,"xim":1199,"Ġbasal":1200,"ond":1201,"Ġposterior":1202,"ater":1203,"Ġapproxim":1204,"Ġearlier":1205,"ick":1206,"Ġapproximately":1207,"Ġthick":1208,"Ġdemonstrate":1209,"Ġmarking":1210,"Ġbl":1211,"Ġthough":1212,"Ġconsi":1213,"osed":1214,"mm":1215,"Ġmarkings":1216,"Ġcour":1217,"Ġsuperimp":1218,"Ġprominence":1219,"Ġro":1220,"Ġsubc":1221,"ilt":1222,"Ġwould":1223,"unting":1224,"Ġdetec":1225,"Ġsing":1226,"Ġsingle":1227,"Ġcompres":1228,"Ġgre":1229,"ker":1230,"emaker":1231,"rough":1232,"Ġsuperimposed":1233,"Ġdistal":1234,"Ġmedian":1235,"Ġgi":1236,"Ġworsening":1237,"tible":1238,"eous":1239,"Ġconf":1240,"Ġpacemaker":1241,"Ġcompatible":1242,"Ġthickening":1243,"lavi":1244,"Ġperihilar":1245,"lavian":1246,"Ġinfilt":1247,"Ġsubclavian":1248,"Ġmultiple":1249,"Ġprojects":1250,"Ġgreater":1251,"lation":1252,"Ġoverlying":1253,"gical":1254,"Ġsubstantial":1255,"tation":1256,"osis":1257,"Ġhyperinflated":1258,"Ġalong":1259,"Ġgiven":1260,"Ġdiffic":1261,"acent":1262,"Ġadj":1263,"Ġthrough":1264,"Ġdifficult":1265,"Ġadv":1266,"Ġblunting":1267,"Ġobscu":1268,"Ġadjacent":1269,"ory":1270,"Ġarea":1271,"me":1272,"Ġso":1273,"Ġtrac":1274,"Ġng":1275,"Ġshould":1276,"Ġ4":1277,"Ġresi":1278,"sure":1279,"Ġrela":1280,"teric":1281,"Ġbilaterally":1282,"Ġmass":1283,"Ġdes":1284,"Ġventricle":1285,"Ġqu":1286,"Ġside":1287,"Ġrelative":1288,"Ġassoc":1289,"Ġpersists":1290,"Ġinto":1291,"Ġsti":1292,"Ġassociated":1293,"Ġ___:":1294,"Ġsuperior":1295,"dle":1296,"plac":1297,"Ġesopha":1298,"Ġresid":1299,"lete":1300,"Ġenteric":1301,"Ġmiddle":1302,"Ġinfiltr":1303,"Ġextent":1304,"Ġindi":1305,"Ġcro":1306,"to":1307,"Ġdetected":1308,"comp":1309,"Ġsubse":1310,"Ġcalcifications":1311,"atrial":1312,"Ġij":1313,"Ġinclu":1314,"oatrial":1315,"vasc":1316,"Ġcolla":1317,"vascular":1318,"Ġstill":1319,"Ġcavoatrial":1320,"Ġwiden":1321,"eral":1322,"Ġdisplac":1323,"inal":1324,"Ġcom":1325,"Ġsigns":1326,"Ġconst":1327,"Ġextensive":1328,"Ġve":1329,"Ġfur":1330,"Ġconstant":1331,"Ġfurther":1332,"Ġresidual":1333,"Ġins":1334,"Ġmoderately":1335,"Ġchanged":1336,"eed":1337,"stomy":1338,"Ġvein":1339,"Ġday":1340,"Ġcur":1341,"tail":1342,"Ġany":1343,"Ġsurgical":1344,"'s":1345,"Ġsurf":1346,"ds":1347,"ened":1348,"Ġborderline":1349,"Ġsuggesting":1350,"Ġfi":1351,"cath":1352,"ovascular":1353,"Ġout":1354,"Ġsuggestive":1355,"Ġcrow":1356,"Ġtiss":1357,"Ġdesc":1358,"Ġless":1359,"reak":1360,"ostomy":1361,"ymm":1362,"ymmet":1363,"Ġresolved":1364,"Ġlimi":1365,"Ġhila":1366,"Ġstreak":1367,"Ġapex":1368,"Ġimage":1369,"Ġsever":1370,"Ġdemonstrates":1371,"Ġexclude":1372,"Ġengorgement":1373,"Ġsurfaces":1374,"Ġtubes":1375,"Ġcontinued":1376,"Ġcomb":1377,"Ġits":1378,"led":1379,"chn":1380,"Ġtrace":1381,"Ġapprecia":1382,"Ġcrowding":1383,"Ġaer":1384,"ade":1385,"Ġanterior":1386,"Ġshow":1387,"Ġtechn":1388,"Ġdiffe":1389,"Ġpositioning":1390,"Ġbody":1391,"Ġhemithorax":1392,"Ġbronchovascular":1393,"Ġadvan":1394,"Ġrecommended":1395,"Ġpartially":1396,"Ġpacer":1397,"Ġconsolidations":1398,"dition":1399,"inc":1400,"Ġmade":1401,"Ġdensity":1402,"pse":1403,"Ġdisplaced":1404,"Ġworsened":1405,"Ġsubtle":1406,"Ġcollapse":1407,"Ġsoft":1408,"Ġthese":1409,"tious":1410,"Ġinfectious":1411,"Ġresolution":1412,"Ġhi":1413,"Ġfil":1414,"Ġz":1415,"creasing":1416,"Ġ5":1417,"up":1418,"sting":1419,"Ġlarger":1420,"Ġrelatively":1421,"lavic":1422,"Ġnodular":1423,"Ġtracheostomy":1424,"rect":1425,"Ġevaluation":1426,"lo":1427,"Ġdecrease":1428,"Ġremoval":1429,"Ġcombin":1430,"ore":1431,"Ġcomplete":1432,"late":1433,"Ġhern":1434,"Ġaddition":1435,"ending":1436,"Ġdifferen":1437,"gres":1438,"exi":1439,"Ġstreaky":1440,"existing":1441,"ticular":1442,"Ġcombination":1443,"Ġpig":1444,"ack":1445,"tifocal":1446,"Ġmultifocal":1447,"Ġpigtail":1448,"Ġly":1449,"ial":1450,"ymmetric":1451,"Ġdevice":1452,"Ġhernia":1453,"Ġdeform":1454,"bil":1455,"Ġess":1456,"ward":1457,"Ġessen":1458,"rant":1459,"Ġportion":1460,"Ġlay":1461,"Ġacc":1462,"Ġminimally":1463,"Ġlayer":1464,"Ġessentially":1465,"zy":1466,"Ġprogres":1467,"day":1468,"Ġmarked":1469,"ique":1470,"operative":1471,"Ġcorre":1472,"ulated":1473,"teb":1474,"ere":1475,"Ġlayering":1476,"Ġoverlo":1477,"Ġtechnique":1478,"Ġoverload":1479,"ximal":1480,"Ġincreasing":1481,"athy":1482,"adrant":1483,"Ġquadrant":1484,"Ġvascularity":1485,"eld":1486,"unt":1487,"Ġfield":1488,"Ġengorged":1489,"Ġproximal":1490,"inage":1491,"Ġdrainage":1492,"cy":1493,"Ġlimited":1494,"Ġsec":1495,"Ġprobable":1496,"Ġverteb":1497,"dered":1498,"Ġatelectatic":1499,"Ġback":1500,"Ġsup":1501,"Ġarch":1502,"Ġsecond":1503,"tub":1504,"Ġconsidered":1505,"opathy":1506,"und":1507,"Ġpoten":1508,"ĠĠĠĠĠĠĠĠ":1509,"Ġfilm":1510,"aneous":1511,"Ġesophag":1512,"Ġsomew":1513,"rotic":1514,"Ġappreciable":1515,"hat":1516,"Ġhia":1517,"Ġsomewhat":1518,"Ġlymph":1519,"Ġcurrent":1520,"Ġchf":1521,"taneous":1522,"geal":1523,"ho":1524,"Ġpossibly":1525,"cutaneous":1526,"eeding":1527,"Ġextends":1528,"Ġfeeding":1529,"Ġtran":1530,"bility":1531,"osity":1532,"Ġradiographic":1533,"arent":1534,"Ġleast":1535,"Ġtortuosity":1536,"Ġadvanced":1537,"Ġful":1538,"Ġnon":1539,"Ġapparent":1540,"sel":1541,"am":1542,"Ġwidening":1543,"Ġdual":1544,"Ġmidline":1545,"entu":1546,"Ġsuggests":1547,"Ġaccentu":1548,"Ġtrans":1549,"Ġaf":1550,"ect":1551,"Ġafter":1552,"Ġinfiltrate":1553,"Ġaeration":1554,"ected":1555,"ribution":1556,"Ġcompressive":1557,"eri":1558,"Ġsubcutaneous":1559,"Ġtime":1560,"cle":1561,"Ġnodules":1562,"Ġwhen":1563,"Ġmet":1564,"Ġvery":1565,"Ġasymmetric":1566,"Ġval":1567,"Ġexpected":1568,"tery":1569,"Ġdiscu":1570,"Ġhiatal":1571,"Ġzone":1572,"Ġcours":1573,"Ġdiscuss":1574,"ving":1575,"Ġsa":1576,"gment":1577,"Ġartery":1578,"Ġtissue":1579,"Ġdob":1580,"Ġpotentially":1581,"Ġrelated":1582,"hoff":1583,"Ġtele":1584,"Ġteleph":1585,"thoraces":1586,"Ġvertebral":1587,"sible":1588,"Ġloculated":1589,"essel":1590,"Ġdiscussed":1591,"Ġvessel":1592,"ail":1593,"Ġsubstantially":1594,"ĠĠĠ":1595,"teri":1596,"Ġindic":1597,"icated":1598,"ication":1599,"ha":1600,"Ġpossibility":1601,"Ġpneumothoraces":1602,"tension":1603,"des":1604,"Ġrepresents":1605,"moderate":1606,"atic":1607,"oli":1608,"quent":1609,"pic":1610,"ces":1611,"Ġassessment":1612,"Ġelevated":1613,"Ġconflu":1614,"iny":1615,"Ġallow":1616,"Ġsubsequent":1617,"Ġtiny":1618,"Ġtelephone":1619,"Ġsus":1620,"Ġnote":1621,"Ġdeveloping":1622,"Ġpostoperative":1623,"Ġcourse":1624,"Ġnec":1625,"Ġperf":1626,"Ġearly":1627,"Ġfollowup":1628,"Ġsignificantly":1629,"onent":1630,"Ġcomponent":1631,"pical":1632,"ging":1633,"Ġtrachea":1634,"Ġparticular":1635,"Ġassessed":1636,"Ġpressure":1637,"Ġincluding":1638,"Ġallowing":1639,"Ġvalve":1640,"Ġvessels":1641,"fore":1642,"Ġperform":1643,"Ġfis":1644,"Ġknob":1645,"Ġaccomp":1646,"Ġreflecting":1647,"tero":1648,"Ġaccompan":1649,"bar":1650,"Ġperformed":1651,"Ġrecommend":1652,"Ġdescending":1653,"Ġlobes":1654,"Ġsternal":1655,"erv":1656,"bg":1657,"olog":1658,"Ġthorac":1659,"Ġesophagus":1660,"Ġpass":1661,"Ġtoday":1662,"Ġcabg":1663,"Ġdate":1664,"Ġei":1665,"Ġcompression":1666,"oliosis":1667,"Ġamo":1668,"Ġold":1669,"Ġhyp":1670,"Ġstent":1671,"Ġventricular":1672,"ign":1673,"Ġclavic":1674,"Ġdrain":1675,"Ġdifferences":1676,"Ġamount":1677,"osition":1678,"are":1679,"Ġappreciated":1680,"cur":1681,"dies":1682,"Ġsem":1683,"Ġconsider":1684,"Ġsw":1685,"Ġhazy":1686,"ardial":1687,"Ġsemi":1688,"Ġnear":1689,"oscle":1690,"Ġmin":1691,"Ġseverity":1692,"Ġsecondary":1693,"Ġhard":1694,"Ġph":1695,"Ġconfluent":1696,"panded":1697,"Ġather":1698,"Ġatheroscle":1699,"Ġdisten":1700,"Ġshows":1701,"gan":1702,"Ġshi":1703,"sus":1704,"Ġshift":1705,"Ġswan":1706,"Ġreflects":1707,"Ġversus":1708,"oma":1709,"Ġthorax":1710,"tubated":1711,"Ġdeformity":1712,"ight":1713,"Ġpresence":1714,"Ġdeg":1715,"Ġinv":1716,"Ġdense":1717,"Ġworse":1718,"Ġ6":1719,"Ġvisible":1720,"oral":1721,"Ġpasses":1722,"Ġaccompanied":1723,"omin":1724,"pect":1725,"Ġlocation":1726,"ware":1727,"Ġ.":1728,"Ġlines":1729,"Ġsupine":1730,"Ġfully":1731,"ared":1732,"Ġhist":1733,"Ġgran":1734,"Ġdegree":1735,"side":1736,"Ġhistory":1737,"Ġobscured":1738,"pd":1739,"Ġgranul":1740,"Ġneck":1741,"Ġbefore":1742,"Ġel":1743,"Ġpred":1744,"ness":1745,"Ġhardware":1746,"dist":1747,"ganz":1748,"Ġonly":1749,"Ġhetero":1750,"Ġatherosclerotic":1751,"Ġpect":1752,"Ġcompletely":1753,"Ġheterogen":1754,"inct":1755,"gmental":1756,"Ġpectoral":1757,"bhoff":1758,"Ġdobbhoff":1759,"Ġcopd":1760,"Ġpresum":1761,"Ġtw":1762,"cus":1763,"itone":1764,"ful":1765,"Ġcorrect":1766,"Ġreplac":1767,"Ġperic":1768,"Ġall":1769,"Ġevaluated":1770,"Ġparticularly":1771,"Ġtwo":1772,"Ġinvol":1773,"Ġmedial":1774,"Ġpredomin":1775,"Ġextending":1776,"Ġheterogeneous":1777,"Ġcontinues":1778,"Ġling":1779,"Ġpul":1780,"Ġcorrelation":1781,"Ġparenchyma":1782,"Ġfib":1783,"Ġmain":1784,"Ġsame":1785,"Ġminor":1786,"Ġsubsegmental":1787,"Ġeither":1788,"Ġimages":1789,"erior":1790,"pre":1791,"phal":1792,"umeral":1793,"stinct":1794,"distribution":1795,"Ġinferior":1796,"like":1797,"Ġindistinct":1798,"Ġcompl":1799,"ler":1800,"Ġpericardial":1801,"we":1802,"Ġfollowing":1803,"rahilar":1804,"alysis":1805,"Ġsinus":1806,"cep":1807,"Ġx":1808,"lp":1809,"Ġfissure":1810,"Ġhelp":1811,"Ġdeveloped":1812,"Ġcourses":1813,"lder":1814,"Ġcomplication":1815,"tomy":1816,"Ġmm":1817,"Ġsmaller":1818,"Ġperiph":1819,"Ġevident":1820,"Ġdevelopment":1821,"Ġinspiration":1822,"peritone":1823,"rosis":1824,"erex":1825,"Ġhyperex":1826,"Ġresul":1827,"Ġmal":1828,"unded":1829,"zed":1830,"Ġaspect":1831,"Ġded":1832,"Ġseveral":1833,"Ġdedicated":1834,"Ġclinically":1835,"Ġfail":1836,"Ġredistribution":1837,"Ġexcep":1838,"Ġrepe":1839,"Ġadditional":1840,"Ġpreced":1841,"usion":1842,"Ġpersist":1843,"Ġone":1844,"ribed":1845,"Ġrounded":1846,"Ġfailure":1847,"Ġheal":1848,"Ġrepresenting":1849,"Ġthroughout":1850,"Ġpreceding":1851,"Ġshoulder":1852,"ency":1853,"gery":1854,"Ġunf":1855,"Ġinfiltrates":1856,"ervical":1857,"Ġcervical":1858,"Ġangles":1859,"Ġsurgery":1860,"ansion":1861,"aden":1862,"the":1863,"Ġlymphaden":1864,"view":1865,"Ġluc":1866,"ator":1867,"Ġpositioned":1868,"Ġlymphadenopathy":1869,"rono":1870,"resp":1871,"gger":1872,"ology":1873,"Ġind":1874,"Ġcorresp":1875,"pread":1876,"Ġax":1877,"Ġwides":1878,"Ġwidespread":1879,"Ġgen":1880,"Ġaxil":1881,"omediastinum":1882,"Ġexagger":1883,"Ġpneumomediastinum":1884,"Ġscoliosis":1885,"Ġunfol":1886,"io":1887,"Ġrepeat":1888,"tory":1889,"Ġrais":1890,"def":1891,"pira":1892,"sed":1893,"Ġhelpful":1894,"piratory":1895,"Ġimproving":1896,"Ġpart":1897,"Ġlesion":1898,"Ġenti":1899,"esophageal":1900,"ome":1901,"uration":1902,"Ġill":1903,"Ġreview":1904,"Ġconv":1905,"Ġinvolving":1906,"oin":1907,"Ġhigh":1908,"iguration":1909,"incing":1910,"Ġpulled":1911,"Ġconfiguration":1912,"Ġconvincing":1913,"defined":1914,"unced":1915,"Ġprono":1916,"Ġpronounced":1917,"ose":1918,"Ġnewly":1919,"Ġjust":1920,"Ġscan":1921,"tated":1922,"Ġmu":1923,"Ġdo":1924,"Ġesophageal":1925,"pansion":1926,"Ġclavicle":1927,"Ġfinding":1928,"lat":1929,"Ġinflated":1930,"asta":1931,"ris":1932,"Ġrecently":1933,"ronchial":1934,"ext":1935,"Ġmetasta":1936,"Ġnext":1937,"Ġjoin":1938,"Ġup":1939,"Ġimaging":1940,"Ġentire":1941,"Ġgastric":1942,"Ġrotation":1943,"tered":1944,"Ġopacifications":1945,"Ġdescribed":1946,"Ġapic":1947,"olar":1948,"arac":1949,"Ġhyperinflation":1950,"Ġloop":1951,"Ġworris":1952,"Ġworrisome":1953,"Ġge":1954,"Ġpredominant":1955,"Ġhilum":1956,"timal":1957,"Ġcharac":1958,"Ġclearly":1959,"Ġhealed":1960,"Ġstudies":1961,"Ġplaced":1962,"Ġproject":1963,"Ġcaus":1964,"qui":1965,"ization":1966,"Ġreplacement":1967,"owel":1968,"Ġatrial":1969,"Ġflat":1970,"Ġtra":1971,"ci":1972,"ĠĠĠĠĠĠĠĠĠĠĠĠĠĠĠĠ":1973,"Ġbowel":1974,"Ġcharacteri":1975,"tern":1976,"Ġinfrahilar":1977,"Ġflatten":1978,"Ġcoron":1979,"ameter":1980,"Ġ8":1981,"Ġdiameter":1982,"Ġprojection":1983,"Ġrotated":1984,"Ġgast":1985,"Ġplacements":1986,"Ġspec":1987,"Ġventi":1988,"expanded":1989,"Ġcomplications":1990,"Ġgas":1991,"Ġwidened":1992,"Ġmight":1993,"Ġabs":1994,"od":1995,"Ġgastro":1996,"veolar":1997,"Ġlon":1998,"Ġribs":1999,"Ġlonger":2000,"Ġinspiratory":2001,"current":2002,"Ġne":2003,"Ġext":2004,"level":2005,"Ġexcept":2006,"sc":2007,"Ġspecific":2008,"dra":2009,"Ġdiaphragms":2010,"Ġcoronary":2011,"Ġpoor":2012,"Ġsuspic":2013,"Ġalveolar":2014,"Ġwithdra":2015,"tably":2016,"Ġwithdraw":2017,"Ġapices":2018,"Ġplate":2019,"ray":2020,"Ġdep":2021,"Ġdilated":2022,"Ġprogression":2023,"rop":2024,"av":2025,"Ġ7":2026,"struc":2027,"rach":2028,"orr":2029,"Ġmultilevel":2030,"orrha":2031,"Ġperib":2032,"phalic":2033,"iled":2034,"aque":2035,"upright":2036,"Ġpaged":2037,"Ġlucency":2038,"itral":2039,"cephalic":2040,"Ġmitral":2041,"Ġhemorrha":2042,"Ġhead":2043,"lavicular":2044,"Ġbrach":2045,"cei":2046,"Ġmarkedly":2047,"agn":2048,"ues":2049,"duc":2050,"Ġdistended":2051,"Ġali":2052,"Ġcollec":2053,"ber":2054,"gin":2055,"Ġhemorrhage":2056,"Ġbia":2057,"siti":2058,"tain":2059,"mit":2060,"tes":2061,"let":2062,"Ġalign":2063,"ypical":2064,"Ġprogressed":2065,"Ġspace":2066,"Ġtissues":2067,"Ġdeformities":2068,"no":2069,"Ġbiapical":2070,"Ġmar":2071,"Ġoste":2072,"Ġmalign":2073,"Ġremaining":2074,"Ġ0":2075,"Ġcarinal":2076,"Ġgo":2077,"iocephalic":2078,"Ġreposition":2079,"Ġop":2080,"Ġbronchi":2081,"Ġbronchial":2082,"Ġmetastatic":2083,"ancy":2084,"ween":2085,"Ġbetween":2086,"Ġdiffusely":2087,"Ġbrachiocephalic":2088,"lain":2089,"Ġremainder":2090,"ag":2091,"Ġ10":2092,"Ġbones":2093,"Ġben":2094,"Ġobli":2095,"Ġfibrosis":2096,"Ġaden":2097,"ulation":2098,"adow":2099,"Ġentirely":2100,"round":2101,"Ġnotably":2102,"Ġregions":2103,"Ġshadow":2104,"Ġplease":2105,"Ġmargin":2106,"Ġfat":2107,"ised":2108,"Ġcleared":2109,"Ġperibronchial":2110,"Ġrecei":2111,"Ġgranuloma":2112,"Ġfran":2113,"Ġfrank":2114,"Ġmuch":2115,"Ġpresumed":2116,"Ġy":2117,"Ġhumeral":2118,"Ġindistinctness":2119,"ribu":2120,"Ġvag":2121,"Ġsuggested":2122,"Ġav":2123,"Ġlingula":2124,"Ġthy":2125,"Ġneed":2126,"ternal":2127,"venous":2128,"Ġme":2129,"Ġadenopathy":2130,"Ġmalignancy":2131,"Ġtension":2132,"dis":2133,"Ġlaterally":2134,"pected":2135,"ms":2136,"Ġreceived":2137,"opaque":2138,"Ġgener":2139,"Ġtak":2140,"Ġgastroesophageal":2141,"Ġfields":2142,"Ġvena":2143,"roid":2144,"Ġtre":2145,"Ġdiagn":2146,"Ġcava":2147,"Ġrefer":2148,"ically":2149,"Ġaside":2150,"Ġfo":2151,"Ġhour":2152,"Ġpositions":2153,"zyg":2154,"Ġcollection":2155,"Ġadvised":2156,"Ġazyg":2157,"ysi":2158,"Ġcorrespond":2159,"Ġthyroid":2160,"umer":2161,"Ġextubated":2162,"Ġabsence":2163,"Ġspecifically":2164,"Ġphysi":2165,"Ġhemidiaphragms":2166,"ecta":2167,"Ġresults":2168,"Ġwithdrawn":2169,"Ġradiopaque":2170,"Ġunfolded":2171,"Ġes":2172,"Ġvia":2173,"Ġperipheral":2174,"Ġspinal":2175,"Ġpartial":2176,"Ġdoes":2177,"Ġhypertension":2178,"complete":2179,"Ġappropriately":2180,"Ġsuspected":2181,"Ġobstruc":2182,"Ġcongestive":2183,"Ġposteriorly":2184,"etermin":2185,"Ġrightward":2186,"Ġrelate":2187,"Ġtransvenous":2188,"Ġbene":2189,"uring":2190,"asal":2191,"Ġintubated":2192,"Ġvague":2193,"Ġbronchus":2194,"Ġbronchiecta":2195,"Ġmas":2196,"mitted":2197,"Ġorogastric":2198,"Ġacco":2199,"Ġlum":2200,"Ġabdominal":2201,"Ġwed":2202,"Ġsuch":2203,"tional":2204,"Ġelong":2205,"Ġdated":2206,"atment":2207,"ques":2208,"Ġpredominantly":2209,"Ġbibasal":2210,"Ġflattening":2211,"Ġhad":2212,"eterminate":2213,"Ġsubmitted":2214,"tectomy":2215,"yond":2216,"Ġbeyond":2217,"Ġobscuration":2218,"Ġtaken":2219,"way":2220,"diaphragmatic":2221,"Ġcoursing":2222,"Ġcomm":2223,"Ġhilus":2224,"Ġdic":2225,"ident":2226,"Ġextrem":2227,"ipp":2228,"icd":2229,"tubation":2230,"ipple":2231,"olumbar":2232,"Ġbronchiectasis":2233,"Ġnipple":2234,"Ġleftward":2235,"ens":2236,"Ġthoracolumbar":2237,"Ġaccentuated":2238,"Ġdisco":2239,"Ġbeneath":2240,"Ġcoiled":2241,"Ġinc":2242,"Ġfocus":2243,"Ġcorrelate":2244,"ially":2245,"Ġlocal":2246,"Ġhyd":2247,"Ġoverli":2248,"Ġseri":2249,"peritoneum":2250,"Ġ9":2251,"Ġhours":2252,"Ġr":2253,"Ġincluded":2254,"Ġpneumoperitoneum":2255,"Ġshort":2256,"sur":2257,"very":2258,"Ġindeterminate":2259,"Ġpros":2260,"ious":2261,"Ġoptimal":2262,"Ġfusion":2263,"sities":2264,"Ġtreatment":2265,"Ġincident":2266,"emin":2267,"surgical":2268,"Ġairway":2269,"Ġexaggerated":2270,"Ġdiscovery":2271,"Ġdistribution":2272,"Ġeff":2273,"Ġ11":2274,"Ġdiagnosis":2275,"ailable":2276,"ap":2277,"Ġasc":2278,"ground":2279,"Ġaerated":2280,"Ġjoint":2281,"oden":2282,"Ġloops":2283,"Ġmeas":2284,"Ġbackground":2285,"Ġphone":2286,"pecially":2287,"Ġventilation":2288,"Ġespecially":2289,"Ġbre":2290,"Ġdensities":2291,"Ġaccentuate":2292,"Ġavailable":2293,"Ġtraum":2294,"Ġsubdiaphragmatic":2295,"lead":2296,"here":2297,"Ġdevi":2298,"eralized":2299,"Ġraises":2300,"tis":2301,"Ġdecomp":2302,"Ġending":2303,"Ġinlet":2304,"Ġdecompens":2305,"Ġdoc":2306,"Ġpattern":2307,"Ġbronchogra":2308,"Ġpla":2309,"Ġfore":2310,"ek":2311,"Ġma":2312,"ection":2313,"tem":2314,"Ġreticular":2315,"Ġfull":2316,"Ġgranulom":2317,"Ġatypical":2318,"Ġconcurrent":2319,"Ġhyperexpansion":2320,"Ġforeign":2321,"Ġincomplete":2322,"Ġabout":2323,"Ġdistention":2324,"Ġdocum":2325,"Ġpath":2326,"where":2327,"othorax":2328,"Ġcommun":2329,"most":2330,"Ġdays":2331,"Ġelse":2332,"uff":2333,"Ġazygos":2334,"trac":2335,"Ġsee":2336,"Ġconfir":2337,"Ġsitu":2338,"Ġveins":2339,".,":2340,"Ġsuggestion":2341,"cian":2342,"Ġelsewhere":2343,"Ġlesions":2344,"cedure":2345,"Ġphysician":2346,"Ġsite":2347,"Ġprosthe":2348,"Ġlies":2349,"Ġparts":2350,"Ġretrac":2351,"eared":2352,"Ġdou":2353,"Ġsuspicious":2354,"Ġbronchograms":2355,".:":2356,"Ġascending":2357,"Ġbi":2358,"Ġeven":2359,"haps":2360,"Ġdictation":2361,"ones":2362,"Ġperhaps":2363,"Ġbreast":2364,"Ġcuff":2365,"ventional":2366,"cer":2367,"Ġfe":2368,"Ġexplain":2369,"Ġ(":2370,"Ġrede":2371,"Ġcurrently":2372,"lary":2373,"end":2374,"spec":2375,"Ġbodies":2376,"Ġman":2377,"Ġarteri":2378,"Ġdecompensation":2379,"Ġdemin":2380,"Ġett":2381,"ente":2382,"specific":2383,"Ġarteries":2384,"entesis":2385,"Ġresection":2386,"Ġscat":2387,"Ġconfirm":2388,"Ġoc":2389,"Ġincompletely":2390,"Ġpacing":2391,"estion":2392,"Ġreviewed":2393,"Ġquestion":2394,"Ġhyperexpanded":2395,"ature":2396,"ester":2397,"Ġobscuring":2398,"Ġdialysis":2399,"Ġyester":2400,"Ġyesterday":2401,"ases":2402,"Ġaxilla":2403,"lung":2404,"Ġlocated":2405,"Ġconve":2406,"Ġzones":2407,"Ġcho":2408,"Ġpresumably":2409,"Ġdifferential":2410,"Ġrather":2411,"Ġclavicular":2412,"Ġappeared":2413,"Ġaxillary":2414,"Ġgood":2415,"Ġparat":2416,"Ġinser":2417,"Ġsul":2418,"Ġbul":2419,"Ġatten":2420,"Ġparatracheal":2421,"uous":2422,"ning":2423,"Ġir":2424,"Ġwhere":2425,"Ġconventional":2426,"Ġdrains":2427,"Ġcharacterized":2428,"Ġelongation":2429,"Ġsen":2430,"Ġlumbar":2431,"Ġsided":2432,"peritoneal":2433,"Ġwire":2434,"Ġirre":2435,"Ġclose":2436,"Ġreferring":2437,"Ġscattered":2438,"Ġirregular":2439,"Ġoff":2440,"Ġrespec":2441,"Ġdemonst":2442,"Ġweek":2443,"Ġcholec":2444,"use":2445,"Ġadvanc":2446,"Ġconspic":2447,"Ġintraperitoneal":2448,"ystectomy":2449,"Ġaicd":2450,"Ġske":2451,"Ġlimitation":2452,"Ġappreciably":2453,"Ġrespective":2454,"Ġexternal":2455,"Ġcurv":2456,"ether":2457,"Ġbest":2458,"Ġorig":2459,"Ġlingular":2460,"letal":2461,"Ġresolving":2462,"leno":2463,"Ġnotif":2464,"Ġcholecystectomy":2465,"Ġgleno":2466,"Ġobscures":2467,"Ġlong":2468,"Ġdex":2469,"Ġskeletal":2470,"Ġsy":2471,"Ġoutside":2472,"otic":2473,"Ġevaluate":2474,"Ġdextro":2475,"Ġsix":2476,"Ġcommunicated":2477,"Ġseverely":2478,"Ġshe":2479,"Ġpleu":2480,"Ġwhether":2481,"Ġartif":2482,"Ġseries":2483,"Ġmarker":2484,"Ġevent":2485,"pite":2486,"Ġce":2487,"Ġdobhoff":2488,"position":2489,"Ġ12":2490,"Ġshar":2491,"Ġdespite":2492,"Ġmassive":2493,"fluid":2494,"itis":2495,"monstrated":2496,"Ġobvious":2497,"Ġwedge":2498,"Ġtrauma":2499,"Ġterminate":2500,"Ġsharp":2501,"Ġinj":2502,"Ġfund":2503,"Ġsegment":2504,"Ġprocedure":2505,"Ġdeviation":2506,"Ġem":2507,"Ġsep":2508,"Ġnoting":2509,"ctomy":2510,"ry":2511,"Ġeti":2512,"Ġreflective":2513,"Ġmasses":2514,"Ġalmost":2515,"Ġsinuses":2516,"yph":2517,"Ġoblique":2518,"Ġorigin":2519,"Ġfundus":2520,"Ġscle":2521,"ervation":2522,"nel":2523,"Ġplatelike":2524,"Ġdiaphragmatic":2525,"Ġcta":2526,"Ġkyph":2527,"humeral":2528,"mpt":2529,"lower":2530,"Ġage":2531,"Ġalignment":2532,"astases":2533,"aint":2534,"Ġmetastases":2535,"Ġapproach":2536,"Ġcorresponds":2537,"endent":2538,"Ġfaint":2539,"ird":2540,"fact":2541,"ophy":2542,"Ġexams":2543,"Ġheight":2544,"Ġmidlung":2545,"Ġfullness":2546,"rast":2547,"Ġsatis":2548,"Ġdetail":2549,"Ġsatisfact":2550,"ented":2551,"Ġtoward":2552,"Ġnonspecific":2553,"Ġlobectomy":2554,"hed":2555,"Ġchin":2556,"Ġobservation":2557,"Ġperipher":2558,"tended":2559,"xation":2560,"Ġlargely":2561,"Ġcollaps":2562,"Ġaccess":2563,"Ġmedially":2564,"terial":2565,"Ġtracheal":2566,"Ġosteophy":2567,"annel":2568,"Ġsatisfactory":2569,"jor":2570,"Ġconspicuous":2571,"Ġmajor":2572,"Ġcontrast":2573,"Ġrepositioned":2574,"Ġdependent":2575,"Ġthird":2576,"Ġnearly":2577,"Ġadditionally":2578,"Ġextreme":2579,"Ġsulcus":2580,"Ġcollapsed":2581,"ca":2582,"Ġdirect":2583,"Ġglenohumeral":2584,"pid":2585,"verse":2586,"Ġsuperiorly":2587,"Ġweeks":2588,"Ġhemo":2589,"Ġplaques":2590,"eur":2591,"iber":2592,"lamm":2593,"quired":2594,"Ġinfusion":2595,"Ġacrom":2596,"Ġprogressive":2597,"Ġnode":2598,"Ġcoar":2599,"eurys":2600,"orted":2601,"rill":2602,"Ġresult":2603,"Ġoverlies":2604,"Ġproper":2605,"Ġcaliber":2606,"Ġpoin":2607,"Ġfiss":2608,"cum":2609,"Ġnotification":2610,"ibrill":2611,"Ġfour":2612,"Ġgra":2613,"ibrillator":2614,"lling":2615,"ord":2616,"Ġemb":2617,"vening":2618,"Ġcatheters":2619,"Ġcoil":2620,"mptom":2621,"Ġreduc":2622,"rating":2623,"ury":2624,"Ġinjury":2625,"sitive":2626,"term":2627,"allic":2628,"Ġcolon":2629,"Ġincidental":2630,"Ġfir":2631,"oclavicular":2632,"Ġfixation":2633,"Ġmetallic":2634,"Ġclearing":2635,"Ġsymptom":2636,"neumothorax":2637,"Ġradiation":2638,"distended":2639,"Ġgenerator":2640,"Ġfirst":2641,"Ġcaused":2642,"Ġmeasuring":2643,"Ġband":2644,"Ġresulting":2645,"Ġade":2646,"oon":2647,"Ġlobar":2648,"Ġdefin":2649,"Ġeventration":2650,"Ġadequ":2651,"Ġoverinf":2652,"Ġball":2653,"Ġsilhouetting":2654,"Ġraising":2655,"Ġnodes":2656,"Ġactive":2657,"Ġminu":2658,"Ġeffort":2659,"Ġballoon":2660,"Ġdoub":2661,"Ġtuber":2662,"Ġcongested":2663,"Ġsheath":2664,"Ġtransverse":2665,"Ġstructure":2666,"itive":2667,"Ġdefinitive":2668,"welling":2669,"Ġam":2670,"Ġdefibrillator":2671,"cul":2672,"Ġindwelling":2673,"ures":2674,"Ġwhi":2675,"ction":2676,"Ġsutures":2677,"Ġtheir":2678,"bit":2679,"Ġpast":2680,"severe":2681,"ributed":2682,"Ġhydrop":2683,"lass":2684,"bitus":2685,"Ġsixth":2686,"Ġdextrosc":2687,"Ġappearing":2688,"Ġsupervening":2689,"Ġground":2690,"Ġetiology":2691,"Ġseven":2692,"latation":2693,"Ġsuprac":2694,"Ġdoubt":2695,"Ġdilatation":2696,"Ġadvancement":2697,"expansion":2698,"Ġdextroscoliosis":2699,"Ġapparently":2700,"Ġredemonstrated":2701,"Ġtubercul":2702,"ump":2703,"Ġaneurys":2704,"Ġcen":2705,"30":2706,"clear":2707,"Ġfibrotic":2708,"Ġsupraclavicular":2709,"Ġunclear":2710,"ectomy":2711,"Ġcardiophrenic":2712,"Ġinflamm":2713,"Ġdisc":2714,"sized":2715,"tim":2716,"Ġsymptoms":2717,"Ġremote":2718,"ioclavicular":2719,"erect":2720,"Ġacromioclavicular":2721,"last":2722,"Ġfif":2723,"Ġpleura":2724,"Ġcephal":2725,"king":2726,"Ġindicative":2727,"Ġhydropneumothorax":2728,"Ġfifth":2729,"lasty":2730,"scar":2731,"Ġradiographically":2732,"tous":2733,"Ġtowards":2734,"Ġrespectively":2735,"ymmetry":2736,"Ġsymmetric":2737,"Ġmate":2738,"Ġarterial":2739,"Ġfilms":2740,"Ġdemonstrating":2741,"scarring":2742,"Ġsk":2743,"Ġmaterial":2744,"ily":2745,"Ġobstructive":2746,"Ġpathology":2747,"Ġseventh":2748,"Ġpostsurgical":2749,"py":2750,"ulmonic":2751,"Ġmere":2752,"Ġreported":2753,"osc":2754,"Ġmerely":2755,"Ġsubsequently":2756,"Ġdemineralized":2757,"Ġtips":2758,"gent":2759,"Ġconvex":2760,"Ġgraft":2761,"Ġwhile":2762,"Ġpoorly":2763,"pass":2764,"Ġcross":2765,"Ġasymmetrical":2766,"Ġbypass":2767,"Ġtri":2768,"Ġann":2769,"Ġjoints":2770,"Ġradioden":2771,"Ġreplaced":2772,"pleural":2773,"umerus":2774,"pe":2775,"Ġhumerus":2776,"Ġpump":2777,"Ġperiphery":2778,"Ġreac":2779,"Ġindicate":2780,"Ġcorrespon":2781,"glass":2782,"dialysis":2783,"Ġbone":2784,"Ġwar":2785,"Ġasymmetry":2786,"Ġhemodialysis":2787,"allow":2788,"Ġprosthetic":2789,"iness":2790,"Ġhaz":2791,"Ġemphysematous":2792,"Ġexaminations":2793,"Ġcorresponding":2794,"Ġunfolding":2795,"ĠĠĠĠĠĠĠĠĠĠĠĠĠĠĠĠĠĠĠĠĠĠĠĠĠĠĠĠĠĠĠĠ":2796,"Ġhaziness":2797,"Ġadequate":2798,"Ġclavicles":2799,"ortic":2800,"Ġstably":2801,"Ġaligned":2802,"sha":2803,"Ġ-":2804,"standing":2805,"Ġshunt":2806,"Ġartifact":2807,"Ġindicated":2808,"Ġdocument":2809,"Ġwhose":2810,"Ġcausing":2811,"less":2812,"Ġlimiting":2813,"ind":2814,"positioned":2815,"Ġthoracentesis":2816,"curred":2817,"toma":2818,"ist":2819,"enet":2820,"Ġremarkable":2821,"Ġsensitive":2822,"Ġplethor":2823,"ped":2824,"Ġensure":2825,"ventric":2826,"mation":2827,"Ġattention":2828,"Ġminutes":2829,"ventricular":2830,"roduc":2831,"loc":2832,"Ġextremely":2833,"Ġskin":2834,"Ġhema":2835,"Ġextubation":2836,"troph":2837,"stem":2838,"Ġplethora":2839,"Ġintroduc":2840,"Ġhypertroph":2841,"Ġconsideration":2842,"Ġmainstem":2843,"shaped":2844,"Ġ15":2845,"Ġshallow":2846,"Ġgenerally":2847,"Ġrel":2848,"ep":2849,"Ġiniti":2850,"Ġintubation":2851,"Ġdisplacement":2852,"ite":2853,"Ġthen":2854,"Ġconsolidative":2855,"Ġscanning":2856,"Ġquite":2857,"Ġnotable":2858,"Ġreport":2859,"Ġdiscre":2860,"Ġoverinflation":2861,"Ġosteophytes":2862,"port":2863,"Ġcuffing":2864,"air":2865,"ct":2866,"Ġlord":2867,"ole":2868,"Ġaltern":2869,"channel":2870,"lateral":2871,"Ġic":2872,"Ġdeline":2873,"ogen":2874,"Ġincludes":2875,"ors":2876,"Ġparam":2877,"Ġgranulomas":2878,"ab":2879,"Ġsuspicion":2880,"Ġicd":2881,"Ġcurvature":2882,"Ġrepositioning":2883,"Ġcontu":2884,"Ġretraction":2885,"Ġdiscrete":2886,"Ġlordotic":2887,"Ġcontin":2888,"Ġten":2889,"Ġhematoma":2890,"Ġbased":2891,"Ġinsertion":2892,"lor":2893,"Ġthey":2894,"Ġlimitations":2895,"Ġmak":2896,"optimal":2897,"Ġairways":2898,"Ġalternative":2899,"Ġchain":2900,"amber":2901,"aortic":2902,"Ġhypertrophic":2903,"row":2904,"Ġtorso":2905,"Ġesophagogastric":2906,"Ġanalysis":2907,"Ġoverla":2908,"Ġdefined":2909,"Ġfourth":2910,"Ġcage":2911,"Ġcontinue":2912,"asis":2913,"Ġuncer":2914,"Ġuncertain":2915,"Ġpad":2916,"Ġdefinition":2917,"atous":2918,"tical":2919,"Ġshadows":2920,"Ġsuboptimal":2921,"Ġsubp":2922,"Ġrecurrent":2923,"sing":2924,"Ġpneumonic":2925,"Ġatt":2926,"Ġaccentuates":2927,"arrow":2928,"Ġfew":2929,"Ġwhat":2930,"Ġinferiorly":2931,"Ġnarrow":2932,"Ġsubpulmonic":2933,"lan":2934,"Ġek":2935,"Ġsclerotic":2936,"oid":2937,"Ġekg":2938,"entation":2939,"Ġsharply":2940,"Ġtuberculosis":2941,"lob":2942,"sy":2943,"Ġborders":2944,"vocal":2945,"Ġunderg":2946,"quivocal":2947,"Ġbasis":2948,"Ġdistension":2949,"Ġsuprahilar":2950,"iduc":2951,"aseous":2952,"Ġgaseous":2953,"Ġfiduc":2954,"ished":2955,"Ġwarran":2956,"Ġindicating":2957,"el":2958,"Ġhypo":2959,"Ġfiducial":2960,"Ġgranulomatous":2961,"Ġhole":2962,"roplasty":2963,"Ġcardio":2964,"Ġimm":2965,"oscop":2966,"Ġread":2967,"Ġstri":2968,"Ġnor":2969,"Ġtherefore":2970,"Ġaccount":2971,"Ġduring":2972,"Ġdetermin":2973,"Ġmor":2974,"00":2975,"Ġembol":2976,"Ġcephalization":2977,"Ġresp":2978,"Ġstents":2979,"Ġinteri":2980,"Ġcontusion":2981,"Ġinterim":2982,"fil":2983,"Ġcer":2984,"Ġobstruction":2985,"inflated":2986,"Ġpredominance":2987,"Ġundergone":2988,"umerous":2989,"Ġnumerous":2990,"Ġfissural":2991,"Ġhr":2992,"Ġportions":2993,"filled":2994,"itary":2995,"luc":2996,"Ġkyphosis":2997,"Ġneeds":2998,"45":2999,"Ġdimin":3000,"Ġwarranted":3001,"Ġhabitus":3002,"Ġards":3003,"Ġrespon":3004,"Ġbiop":3005,"Ġinitial":3006,"Ġfav":3007,"Ġradiodensity":3008,"Ġpain":3009,"Ġnecess":3010,"Ġparamediastinal":3011,"atory":3012,"Ġinclude":3013,"10":3014,"Ġhemidiaphragmatic":3015,"Ġalternatively":3016,"Ġpneumonitis":3017,"large":3018,"Ġrapid":3019,"Ġmostly":3020,"Ġnondistended":3021,"Ġtechnical":3022,"Ġcancer":3023,"Ġheav":3024,"Ġaneurysm":3025,"las":3026,"Ġfar":3027,"Ġtub":3028,"Ġdelineated":3029,"pro":3030,"15":3031,"Ġcoarse":3032,"ari":3033,"edic":3034,"xt":3035,"Ġcause":3036,"ghth":3037,"uoden":3038,"Ġeighth":3039,"Ġcoils":3040,"ses":3041,"Ġpotential":3042,"Ġthree":3043,"Ġsar":3044,"ace":3045,"Ġconfluence":3046,"Ġstron":3047,"Ġneo":3048,"Ġformation":3049,"Ġtraver":3050,"Ġdiminished":3051,"coid":3052,"Ġaccentuating":3053,"penet":3054,"Ġscap":3055,"Ġdifferent":3056,"ying":3057,"Ġconfirmed":3058,"Ġbeca":3059,"Ġaccounting":3060,"pa":3061,"Ġconte":3062,"Ġdown":3063,"Ġenter":3064,"uresis":3065,"Ġexception":3066,"Ġreduced":3067,"Ġpositional":3068,"Ġtract":3069,"aer":3070,"Ġbecause":3071,"Ġbiopsy":3072,"Ġsarcoid":3073,"Ġdecreasing":3074,"Ġradiography":3075,"Ġchronicity":3076,"Ġunderpenet":3077,"Ġcontext":3078,"zation":3079,"Ġlast":3080,"Ġretros":3081,"Ġstrong":3082,"Ġthoracostomy":3083,"Ġcentered":3084,"Ġgeneralized":3085,"Ġnormally":3086,"Ġindication":3087,"Ġanteriorly":3088,"Ġtransesophageal":3089,"Ġnur":3090,"Ġinfar":3091,"Ġdefinitely":3092,"Ġmalpositioned":3093,"Ġflattened":3094,"rated":3095,"Ġcir":3096,"chamber":3097,"Ġvalv":3098,"Ġretracted":3099,"Ġbiventricular":3100,"Ġcontain":3101,"Ġhydro":3102,"Ġmarkers":3103,"aerated":3104,"Ġpet":3105,"Ġfollowed":3106,"Ġcharacterization":3107,"Ġimmedi":3108,"Ġble":3109,"Ġpartly":3110,"Ġdiuresis":3111,"section":3112,"Ġcombined":3113,"Ġrule":3114,"other":3115,"lex":3116,"erved":3117,"Ġdating":3118,"Ġrest":3119,"Ġupon":3120,"Ġepic":3121,"lum":3122,"Ġacquired":3123,"Ġduoden":3124,"Ġsuture":3125,"Ġago":3126,"terolateral":3127,"xta":3128,"lement":3129,"Ġjuxta":3130,"Ġarth":3131,"Ġprosthesis":3132,"rea":3133,"Ġepicardial":3134,"Ġtypical":3135,"Ġinserted":3136,"20":3137,"Ġcoexisting":3138,"Ġshoulders":3139,"Ġdocumented":3140,"Ġround":3141,"Ġinflammation":3142,"timeter":3143,"lumen":3144,"Ġpleur":3145,"Ġdisloc":3146,"Ġexplained":3147,"eding":3148,"Ġpull":3149,"Ġosteop":3150,"best":3151,"rative":3152,"Ġlevels":3153,"Ġresponsible":3154,"Ġelement":3155,"osure":3156,"Ġreach":3157,"Ġports":3158,"placed":3159,"Ġpleurx":3160,"iter":3161,"Ġpri":3162,"Ġasbest":3163,"ogn":3164,"Ġoverlie":3165,"Ġduodenum":3166,"Ġori":3167,"pping":3168,"Ġchronically":3169,"abdom":3170,"Ġalrea":3171,"Ġgoiter":3172,"Ġosteopen":3173,"Ġalready":3174,"Ġinfiltrative":3175,"Ġprim":3176,"lt":3177,"Ġsignificance":3178,"yopathy":3179,"Ġcardiomyopathy":3180,"Ġaccompanying":3181,"arily":3182,"Ġextremity":3183,"con":3184,"Ġrecogn":3185,"Ġsurro":3186,"Ġpy":3187,"mpression":3188,"Ġcavitary":3189,"Ġrequired":3190,"Ġshap":3191,"Ġfelt":3192,"Ġdissection":3193,"abdominal":3194,"displaced":3195,"Ġincidentally":3196,"ner":3197,"Ġwind":3198,"Ġanother":3199,"Ġdistributed":3200,"Ġmanif":3201,"Ġwindow":3202,"cav":3203,"Ġcommon":3204,"chond":3205,"Ġlocalized":3206,").":3207,"ill":3208,"Ġconfigurational":3209,"Ġcontinuous":3210,"Ġoccurred":3211,"ortion":3212,"Ġwide":3213,"ogenic":3214,"Ġrepair":3215,"Ġpylor":3216,"Ġaccum":3217,"Ġpec":3218,"oscopy":3219,"junction":3220,"ulus":3221,"Ġseque":3222,"Ġdislocation":3223,"cin":3224,"Ġconjunction":3225,"Ġpatholog":3226,"Ġretrosternal":3227,"Ġsequela":3228,"Ġcondition":3229,"Ġstim":3230,"Ġasbestos":3231,"Ġpm":3232,"Ġmove":3233,"Ġeach":3234,"Ġabut":3235,"Ġhypoinflated":3236,"Ġmanifes":3237,"vity":3238,"Ġhyperluc":3239,"Ġstreaks":3240,"flow":3241,"Ġpectus":3242,"Ġextra":3243,"Ġlongstanding":3244,"Ġnarrowing":3245,"Ġke":3246,"rn":3247,"ulator":3248,"Ġplain":3249,"50":3250,"Ġsys":3251,"Ġsized":3252,"Ġsecu":3253,"theless":3254,"Ġcp":3255,"ocentesis":3256,"eralization":3257,"Ġsurroun":3258,"ub":3259,"Ġec":3260,"Ġraise":3261,"Ġcalcific":3262,"Ġstern":3263,"Ġwedging":3264,"neumon":3265,"tured":3266,"Ġedge":3267,"Ġpriors":3268,"cm":3269,"Ġnin":3270,"Ġoutflow":3271,"Ġbeing":3272,"Ġnever":3273,"Ġarm":3274,"Ġrelates":3275,"Ġstimulator":3276,"Ġninth":3277,"Ġcosto":3278,"Ġmanner":3279,"app":3280,"Ġequivocal":3281,"Ġexposure":3282,"Ġshowed":3283,"sitivity":3284,"Ġimpression":3285,"Ġkin":3286,"Ġventilated":3287,"Ġsarcoidosis":3288,"Ġdemineralization":3289,"Ġog":3290,"Ġpersisting":3291,"Ġsepar":3292,"12":3293,"Ġfunction":3294,"Ġretic":3295,"Ġoccu":3296,"Ġreques":3297,"aryn":3298,"Ġcontribu":3299,"Ġindicates":3300,"Ġheads":3301,"Ġsurrounding":3302,"Ġrequested":3303,"40":3304,"Ġinvolv":3305,"oplas":3306,"Ġstability":3307,"Ġconsidering":3308,"Ġpointing":3309,"Ġmakes":3310,"Ġkeep":3311,"atosis":3312,"Ġtraverses":3313,"inear":3314,"Ġenlarging":3315,"Ġexaggerating":3316,"Ġpus":3317,"Ġflex":3318,"Ġrecommendation":3319,"Ġmetastasis":3320,"Ġkeeping":3321,"Ġconsolidated":3322,"ought":3323,"Ġdesi":3324,"Ġmy":3325,"usual":3326,"vis":3327,"ergent":3328,"umor":3329,"Ġsubpleural":3330,"Ġhiatus":3331,"Ġsclerosis":3332,"Ġstripe":3333,"Ġnecessary":3334,"Ġunusual":3335,"Ġdirec":3336,"Ġcauses":3337,"Ġcoars":3338,"Ġcertain":3339,"ling":3340,"Ġthera":3341,"Ġmust":3342,"land":3343,"yed":3344,"ilinear":3345,"Ġdifference":3346,"xr":3347,"Ġcxr":3348,"Ġdetection":3349,"Ġtherapy":3350,"uation":3351,"unted":3352,"Ġclip":3353,"Ġcurvilinear":3354,"monstration":3355,"Ġirregularity":3356,"Ġloculation":3357,"Ġobserved":3358,"Ġdetect":3359,"Ġcrosses":3360,"arynx":3361,"ize":3362,"pm":3363,"Ġelec":3364,"Ġmis":3365,"unts":3366,"esophag":3367,"obronchial":3368,"hole":3369,"Ġquestionable":3370,"Ġpushed":3371,"Ġpersistently":3372,"Ġthought":3373,"ici":3374,"ossible":3375,"Ġthoracocentesis":3376,"Ġhealing":3377,"Ġtumor":3378,"lus":3379,"Ġsple":3380,"Ġcavity":3381,"Ġannular":3382,"sp":3383,"Ġsitting":3384,"Ġconveyed":3385,"Ġbleeding":3386,"bo":3387,"mid":3388,"Ġtb":3389,"Ġsystem":3390,"esophagus":3391,"Ġdetails":3392,"Ġpylorus":3393,"-___":3394,"ash":3395,"Ġcare":3396,"Ġglob":3397,"Ġprojected":3398,"cumulation":3399,"Ġnevertheless":3400,"Ġupward":3401,"Ġannulus":3402,"ken":3403,"art":3404,"____":3405,"Ġvisualization":3406,"Ġsensitivity":3407,"ifted":3408,"Ġshown":3409,"tions":3410,"Ġshifted":3411,"Ġtracking":3412,"spine":3413,"ies":3414,"oned":3415,"Ġmotion":3416,"Ġfragm":3417,"Ġreduction":3418,"ud":3419,"Ġpedic":3420,"Ġlate":3421,"emergent":3422,"Ġintroducer":3423,"Ġmanifestation":3424,"Ġexist":3425,"Ġcavi":3426,"Ġdouble":3427,"Ġinflammatory":3428,"Ġplu":3429,"Ġivc":3430,"omatosis":3431,"Ġlesser":3432,"Ġoverlapping":3433,"Ġpedicle":3434,"Ġvp":3435,"Ġtoo":3436,"Ġposterolateral":3437,"Ġcomponents":3438,"Ġfissures":3439,"Ġcardiothoracic":3440,"Ġimpossible":3441,"Ġscapula":3442,"Ġcarcin":3443,"chondral":3444,"ading":3445,"ardium":3446,"Ġextend":3447,"Ġmeasures":3448,"Ġsternum":3449,"Ġfact":3450,"ism":3451,"Ġpneumonectomy":3452,"Ġasymmetrically":3453,"Ġnurse":3454,"ok":3455,"Ġaround":3456,"Ġerect":3457,"Ġevol":3458,"Ġforward":3459,"Ġelongated":3460,"right":3461,"..":3462,"Ġsty":3463,"rency":3464,"Ġfilter":3465,"Ġhighly":3466,"Ġattribu":3467,"Ġthin":3468,"Ġmuc":3469,"Ġdone":3470,"Ġobscure":3471,"Ġcircum":3472,"Ġdesired":3473,"Ġplug":3474,"tium":3475,"Ġregard":3476,"Ġdetermine":3477,"parency":3478,"Ġwill":3479,"Ġstabil":3480,"Ġsurface":3481,"Ġstylet":3482,"Ġtr":3483,"oci":3484,"Ġtransparency":3485,"neumonia":3486,"Ġinform":3487,"Ġtubing":3488,"board":3489,"lant":3490,"Ġliver":3491,"rence":3492,"Ġ13":3493,"Ġbronchoscopy":3494,"Ġembolism":3495,"Ġfoci":3496,"Ġfractured":3497,"Ġitsel":3498,"Ġitself":3499,"Ġdash":3500,"Ġrepres":3501,"quence":3502,"Ġaccumulation":3503,"Ġdashboard":3504,"Ġthus":3505,"Ġnature":3506,"Ġinterstitium":3507,"Ġspic":3508,"Ġlooped":3509,"Ġconse":3510,"Ġalone":3511,"Ġinfiltration":3512,"Ġlumen":3513,"Ġemboli":3514,"Ġunderpenetration":3515,"Ġhemothorax":3516,"Ġserious":3517,"Ġlater":3518,"Ġ16":3519,"Ġpel":3520,"Ġtotal":3521,"Ġspiculated":3522,"olateral":3523,"Ġbore":3524,"Ġblo":3525,"Ġtraced":3526,"Ġvertebra":3527,"Ġnondisplaced":3528,"Ġconsiderable":3529,"Ġredemonstration":3530,"nant":3531,"Ġvari":3532,"Ġinterpre":3533,"Ġremnant":3534,"Ġattributable":3535,"Ġreflected":3536,"Ġartifac":3537,"Ġpoint":3538,"Ġrecognized":3539,"angular":3540,"ital":3541,"Ġkyphotic":3542,"Ġcentimeter":3543,"Ġscre":3544,"Ġtemp":3545,"Ġsidehole":3546,"Ġvalvular":3547,"Ġdirected":3548,"Ġfragment":3549,"Ġchannel":3550,"Ġaccentuation":3551,"Ġneoplas":3552,"Ġimmediately":3553,"lous":3554,"Ġblu":3555,"Ġpreoperative":3556,"Ġblur":3557,"iary":3558,"Ġobliqu":3559,"Ġheavily":3560,"Ġsecure":3561,"Ġcavitation":3562,"Ġseating":3563,"Ġbaseline":3564,"Ġdish":3565,"cies":3566,"Ġplaque":3567,"Ġmorph":3568,"Ġcostochondral":3569,"Ġstabilization":3570,"Ġblood":3571,"cal":3572,"nt":3573,"paces":3574,"Ġcorrelated":3575,"likely":3576,"Ġabutting":3577,"encies":3578,"Ġrenal":3579,"Ġcompare":3580,"met":3581,"arding":3582,"Ġretu":3583,"Ġlook":3584,"tual":3585,"otomy":3586,"Ġteam":3587,"Ġfeasi":3588,"Ġnone":3589,"Ġvertebroplasty":3590,"Ġfeasible":3591,"tor":3592,"ason":3593,"Ġhaze":3594,"Ġseptal":3595,"Ġenters":3596,"Ġevolving":3597,"55":3598,"there":3599,"Ġrequi":3600,"Ġesophagectomy":3601,"Ġabscess":3602,"Ġbulla":3603,"Ġsplen":3604,"Ġretained":3605,"cedural":3606,"Ġ05":3607,"Ġcontaining":3608,"Ġscrew":3609,"Ġreason":3610,"urgent":3611,"Ġregarding":3612,"Ġlack":3613,"obstruc":3614,"Ġthickened":3615,"Ġmastectomy":3616,"Ġextrapleural":3617,"05":3618,"Ġcoal":3619,"Ġradiolog":3620,"Ġimplant":3621,"Ġdistortion":3622,"itoneal":3623,"Ġobliquity":3624,"Ġdemonstration":3625,"Ġmd":3626,"tence":3627,"Ġradiology":3628,"Ġexaggerate":3629,"Ġnei":3630,"ange":3631,"Ġbullous":3632,"Ġresultant":3633,"tig":3634,"ries":3635,"kn":3636,"Ġazygous":3637,"11":3638,"cubitus":3639,"Ġdecubitus":3640,"metric":3641,"obstructive":3642,"Ġcy":3643,"Ġsited":3644,"Ġcoinc":3645,"Ġlip":3646,"Ġexplan":3647,"rum":3648,"Ġlymphang":3649,"Ġseptic":3650,"Ġinvolvement":3651,"Ġconsequence":3652,"Ġblurring":3653,"Ġexplanation":3654,"Ġaff":3655,"Ġdefinitively":3656,"Ġneoesophagus":3657,"Ġinfarction":3658,"Ġcough":3659,"Ġecta":3660,"Ġneither":3661,"ound":3662,"Ġable":3663,"Ġresiding":3664,"Ġtriangular":3665,"Ġosteopenia":3666,"Ġpelvis":3667,"Ġcentimeters":3668,"enteric":3669,"tically":3670,"Ġq":3671,"Ġunlikely":3672,"Ġmonth":3673,"Ġrota":3674,"Ġnodularity":3675,"Ġwithdrawal":3676,"Ġcoales":3677,"Ġinn":3678,"Ġflow":3679,"Ġaneurysmal":3680,"lay":3681,"limin":3682,"peric":3683,"Ġgrow":3684,"Ġblunted":3685,"Ġshape":3686,"Ġkink":3687,"Ġreturn":3688,"Ġanch":3689,"Ġty":3690,"Ġsecre":3691,"Ġopacified":3692,"Ġruled":3693,"dal":3694,"tailed":3695,"Ġlob":3696,"Ġdeep":3697,"Ġattenuation":3698,"Ġattributed":3699,"Ġpathologic":3700,"Ġhyperlucency":3701,"Ġartifactual":3702,"Ġvs":3703,"oper":3704,"itic":3705,"Ġsuspect":3706,"rate":3707,"Ġ14":3708,"taken":3709,"Ġrotator":3710,"Ġtype":3711,"acu":3712,"Ġnaso":3713,"Ġpersistence":3714,"Ġoverlap":3715,"Ġexists":3716,"Ġinformation":3717,"Ġmorphology":3718,"25":3719,"Ġ,":3720,"situ":3721,"Ġlucencies":3722,"Ġjuxtahilar":3723,"Ġ___-":3724,"Ġdetailed":3725,"Ġonce":3726,"Ġlying":3727,"Ġtrue":3728,"osp":3729,"Ġcoiling":3730,"Ġprimarily":3731,"Ġcertainly":3732,"35":3733,"Ġrecurred":3734,"Ġbiliary":3735,"atum":3736,"Ġtraumatic":3737,"Ġmig":3738,"Ġorder":3739,"Ġdeno":3740,"Ġstrongly":3741,"Ġaspec":3742,"odular":3743,"Ġnasoenteric":3744,"Ġaspects":3745,"upper":3746,"Ġmilli":3747,"Ġneeded":3748,"Ġarthroplasty":3749,"Ġmistaken":3750,"Ġsecretions":3751,"opharynx":3752,"Ġdeposition":3753,"Ġreaccumulation":3754,"Ġlymphangitic":3755,"Ġcoalesc":3756,"test":3757,"Ġresides":3758,"Ġintroduction":3759,"Ġsuc":3760,"infilt":3761,"Ġadvancing":3762,"Ġsymmetrically":3763,"Ġorientation":3764,"Ġlucent":3765,"Ġslow":3766,"lectasis":3767,"assess":3768,"Ġaccounts":3769,"Ġmaking":3770,"Ġfold":3771,"Ġyear":3772,"Ġtun":3773,"Ġhal":3774,"Ġlocations":3775,"Ġcharacterize":3776,"Ġ;":3777,"Ġov":3778,"Ġant":3779,"Ġexcav":3780,"Ġcomparable":3781,"Ġcentrally":3782,"Ġbronchitis":3783,"ased":3784,"Ġech":3785,"Ġmake":3786,"appear":3787,"infiltrate":3788,"Ġexcavatum":3789,"Ġheavy":3790,"Ġhalf":3791,"erve":3792,"Ġdest":3793,"Ġpneumoperic":3794,"Ġpneumopericardium":3795,"'t":3796,".___":3797,"man":3798,"Ġsten":3799,"rid":3800,"Ġprelimin":3801,"Ġpreliminary":3802,"Ġbub":3803,"Ġribca":3804,"Ġrespiratory":3805,"known":3806,"Ġdestruc":3807,"Ġribcage":3808,"Ġtree":3809,"Ġaccur":3810,"Ġcostal":3811,"Ġfollows":3812,"Ġcontribute":3813,"Ġflexed":3814,"Ġbubble":3815,"adi":3816,"aring":3817,"Ġisland":3818,"Ġscout":3819,"currence":3820,"Ġ08":3821,"Ġmillimetric":3822,"ju":3823,"neled":3824,"radi":3825,"ish":3826,"Ġrange":3827,"Ġtunneled":3828,"Ġovoid":3829,"Ġlev":3830,"Ġimprove":3831,"Ġfilled":3832,"Ġsplenic":3833,"Ġantrum":3834,"related":3835,"acer":3836,"atter":3837,"lates":3838,"tate":3839,"Ġatherosclerosis":3840,"Ġelectro":3841,"Ġanti":3842,"cuspid":3843,"Ġ09":3844,"Ġtuberculous":3845,"Ġtricuspid":3846,"Ġplugging":3847,"tra":3848,"Ġsparing":3849,"Ġwater":3850,"Ġunknown":3851,"ats":3852,"Ġsimilarly":3853,"Ġpresentation":3854,"iding":3855,"Ġapart":3856,"Ġopaque":3857,"based":3858,"izing":3859,"Ġdensely":3860,"Ġcell":3861,"Ġperipherally":3862,"Ġmucous":3863,"Ġvar":3864,"Ġdepic":3865,"Ġ04":3866,"Ġcoinciding":3867,"nam":3868,"xic":3869,"Ġwet":3870,"Ġprobe":3871,"Ġmargins":3872,"Ġmorning":3873,"radiation":3874,"Ġanat":3875,"vex":3876,"Ġexpansion":3877,"Ġconsiderations":3878,"Ġring":3879,"Ġhosp":3880,"Ġboard":3881,"ĠĠĠĠĠĠĠ":3882,"ĠĠĠĠĠĠĠĠĠĠĠĠĠĠĠĠĠĠĠĠĠĠĠĠĠĠĠĠĠĠĠĠĠĠĠĠĠĠĠĠĠĠĠĠĠĠĠĠĠĠĠĠĠĠĠĠĠĠĠĠĠĠĠĠ":3883,"Ġhospital":3884,"fe":3885,"Ġlatter":3886,"Ġconfirmation":3887,"Ġpunc":3888,"ley":3889,"tually":3890,"Ġ17":3891,"Ġosteo":3892,"Ġdeviated":3893,"Ġsymmetrical":3894,"ras":3895,"read":3896,"atelectasis":3897,"Ġreassess":3898,"Ġsideport":3899,"Ġglobular":3900,"testinal":3901,"adily":3902,"Ġbare":3903,"Ġexi":3904,"Ġthoracotomy":3905,"Ġectatic":3906,"Ġbarely":3907,"Ġcri":3908,"Ġreadily":3909,"Ġtoxic":3910,"Ġ24":3911,"Ġspur":3912,"procedural":3913,"appearing":3914,"Ġentered":3915,"ocardi":3916,"oplasty":3917,"Ġpermit":3918,"ĠĠĠĠĠĠĠĠĠĠĠĠĠĠĠ":3919,"ĠĠĠĠĠĠĠĠĠĠĠĠĠĠĠĠĠĠĠĠĠĠĠĠĠĠĠĠĠĠĠĠĠĠĠĠĠĠĠĠĠĠĠĠĠĠĠĠĠĠĠĠĠĠĠĠĠĠĠĠĠĠĠĠĠĠĠĠĠĠĠĠĠĠĠĠĠĠĠ":3920,"Ġexisting":3921,"Ġwid":3922,"sec":3923,"Ġsmo":3924,"Ġspaces":3925,"Ġdistinct":3926,"Ġlytic":3927,"Ġtelephoned":3928,"Ġdepending":3929,"traum":3930,"Ġult":3931,"Ġtubular":3932,"Ġpunctate":3933,"Ġmic":3934,"Ġbrid":3935,"ression":3936,"veal":3937,"Ġspread":3938,"Ġshowing":3939,"Ġ--":3940,"Ġreticul":3941,"jugular":3942,"Ġwidth":3943,"Ġtransjugular":3944,"Ġoriented":3945,"icient":3946,"Ġinterpretation":3947,"Ġlipomatosis":3948,"osi":3949,"Ġreveal":3950,"Ġune":3951,"Ġsuff":3952,"demonstrated":3953,"overed":3954,"Ġvisualize":3955,"ystic":3956,"Ġradiologist":3957,"Ġultras":3958,"Ġpe":3959,"Ġpercutaneous":3960,"Ġinterspace":3961,"Ġnonurgent":3962,"Ġcephalad":3963,"Ġcyst":3964,"traumatic":3965,"Ġultrasound":3966,"Ġclar":3967,"isted":3968,"Ġdilation":3969,"Ġunequivocal":3970,"left":3971,"Ġperman":3972,"Ġventricul":3973,"umerable":3974,"Ġoverinflated":3975,"Ġdiscovered":3976,"Ġtriple":3977,"procedure":3978,"Ġinnumerable":3979,"Ġpermanent":3980,"Ġvats":3981,"Ġdors":3982,"Ġuse":3983,"Ġprec":3984,"Ġwho":3985,"Ġfive":3986,"Ġeffect":3987,"Ġosteophyte":3988,"Ġser":3989,"Ġbed":3990,"Ġfair":3991,"Ġcann":3992,"Ġbronchop":3993,"Ġgreat":3994,"Ġbridging":3995,"Ġreticulon":3996,"age":3997,"Ġnerve":3998,"old":3999,"Ġcarcinoma":4000,"Ġtoxicity":4001,"Ġprecise":4002,"ances":4003,"Ġfinal":4004,"Ġfocally":4005,"Ġsuppor":4006,"Ġnonemergent":4007,"scribed":4008,"Ġechocardi":4009,"Ġreticulonodular":4010,"com":4011,"Ġcystic":4012,"Ġhor":4013,"Ġsides":4014,"Ġgastrostomy":4015,"Ġprimary":4016,"Ġseriously":4017,"lin":4018,"Ġreexpansion":4019,"dynam":4020,"Ġimpac":4021,"Ġcolonic":4022,"Ġfavoring":4023,"Ġrapidly":4024,"Ġdorsal":4025,"Ġcardiogenic":4026,"Ġaort":4027,"Ġ20":4028,"Ġcollections":4029,"Ġstem":4030,"Ġatte":4031,"cessful":4032,"Ġ18":4033,"Ġcallus":4034,"inating":4035,"Ġspon":4036,"operitoneal":4037,"Ġus":4038,"Ġcall":4039,"Ġfever":4040,"Ġunderpenetrated":4041,"Ġoccupy":4042,"Ġcareful":4043,"Ġcritical":4044,"sectional":4045,"Ġfairly":4046,"oing":4047,"ontal":4048,"tative":4049,"izontal":4050,"iotic":4051,"Ġtempor":4052,"Ġscrews":4053,"Ġleading":4054,"omogen":4055,"Ġacro":4056,"Ġpassing":4057,"Ġoblite":4058,"Ġinfarct":4059,"Ġventriculoperitoneal":4060,"Ġhorizontal":4061,"Ġmed":4062,"ually":4063,"Ġtracheobronchial":4064,"Ġconsiderably":4065,"Ġdiscon":4066,"oscoliosis":4067,"Ġimmediate":4068,"Ġarthrop":4069,"Ġacross":4070,"Ġrecurrence":4071,"Ġexacer":4072,"Ġrecor":4073,"Ġdrama":4074,"Ġbenign":4075,"Ġsituation":4076,"Ġtenting":4077,"Ġrepresen":4078,"Ġcoalescent":4079,"Ġantib":4080,"Ġunequivocally":4081,"Ġtemporary":4082,"iss":4083,"Ġviral":4084,"Ġportably":4085,"Ġidentify":4086,"Ġextension":4087,"Ġapicolateral":4088,"Ġaccurately":4089,"Ġsufficient":4090,"Ġexacerb":4091,"Ġantibiotic":4092,"Ġinden":4093,"Ġemp":4094,"Ġradio":4095,"Ġpack":4096,"Ġrecommendations":4097,"Ġlatent":4098,"Ġrequire":4099,"Ġrepresentative":4100,"ored":4101,"Ġrough":4102,"Ġour":4103,"Ġmen":4104,"Ġher":4105,"Ġorgan":4106,"Ġseem":4107,"Ġdid":4108,"Ġendp":4109,"Ġperibronch":4110,"Ġquestioned":4111,"Ġosteopenic":4112,"acute":4113,"Ġrecords":4114,"Ġbari":4115,"Ġassis":4116,"Ġsoon":4117,"iod":4118,"Ġcoarsened":4119,"Ġroughly":4120,"Ġbarium":4121,"itec":4122,"svc":4123,"alle":4124,"Ġresident":4125,"Ġarchitec":4126,"ologies":4127,"Ġreactive":4128,"solid":4129,"Ġepi":4130,"Ġendobronchial":4131,"Ġintravascular":4132,"Ġscapular":4133,"Ġaffec":4134,"Ġmigrated":4135,"omogeneous":4136,"going":4137,"ug":4138,"arone":4139,"Ġongoing":4140,"Ġhyperden":4141,"Ġamiod":4142,"Ġradiodense":4143,"Ġindentation":4144,"Ġamiodarone":4145,"through":4146,"Ġpeg":4147,"Ġreticulation":4148,"Ġpermits":4149,"Ġorth":4150,"Ġcorrelates":4151,"Ġetiologies":4152,"Ġminute":4153,"pylor":4154,"Ġvalves":4155,"Ġslowly":4156,"uish":4157,"Ġsuperimposition":4158,"Ġsulci":4159,"Ġneoplasm":4160,"pies":4161,"Ġdictated":4162,"Ġshaped":4163,"Ġsuccessful":4164,"Ġdepicted":4165,"Ġpenet":4166,"Ġsum":4167,"lage":4168,"Ġker":4169,"Ġoffic":4170,"Ġstriking":4171,"Ġnecessarily":4172,"Ġoccupies":4173,"pyloric":4174,"Ġcran":4175,"Ġnum":4176,"Ġintestinal":4177,"Ġprocesses":4178,"gressive":4179,"Ġhigher":4180,"Ġfavor":4181,"Ġspurring":4182,"Ġbronchopneumonia":4183,"23":4184,"ser":4185,"Ġhand":4186,"Ġdiss":4187,"Ġlie":4188,"Ġpara":4189,"Ġdisting":4190,"Ġdetecting":4191,"Ġreaction":4192,"solidation":4193,"Ġorthop":4194,"Ġnumber":4195,"Ġatrio":4196,"Ġcommonly":4197,"________":4198,"Ġmonths":4199,"Ġoccupying":4200,"issural":4201,"ck":4202,"yema":4203,"til":4204,"Ġema":4205,"Ġsegmental":4206,"Ġsubacute":4207,"Ġdrained":4208,"Ġcrowded":4209,"Ġphysical":4210,"consolidation":4211,"Ġorthopedic":4212,"rup":4213,"tinu":4214,"Ġmi":4215,"Ġhomogeneous":4216,"Ġexpan":4217,"Ġkerley":4218,"ressed":4219,"Ġta":4220,"Ġcommunication":4221,"Ġlooks":4222,"Ġdiscontinu":4223,"Ġendplate":4224,"08":4225,"bore":4226,"Ġvir":4227,"ulating":4228,"Ġhypopharynx":4229,"loculated":4230,"convex":4231,"Ġdistinguish":4232,"eval":4233,"gre":4234,"than":4235,"Ġneg":4236,"tiated":4237,"Ġbro":4238,"moderately":4239,"cavoatrial":4240,"Ġyears":4241,"32":4242,"ament":4243,"Ġiab":4244,"ends":4245,"entimeter":4246,"ronic":4247,"Ġaggressive":4248,"Ġperivascular":4249,"Ġangulation":4250,"Ġgeneral":4251,"Ġlevoscoliosis":4252,"Ġdissemin":4253,"greater":4254,"Ġiabp":4255,"26":4256,"pulmonary":4257,"sif":4258,"tead":4259,"Ġsay":4260,"Ġlv":4261,"Ġlig":4262,"Ġneut":4263,"Ġdiagnos":4264,"Ġimplants":4265,"Ġdenote":4266,"Ġanatom":4267,"56":4268,"men":4269,"nd":4270,"Ġ?":4271,"Ġolder":4272,"tioned":4273,"Ġoral":4274,"Ġsubt":4275,"Ġdistally":4276,"Ġdetectable":4277,"Ġinstead":4278,"Ġcurled":4279,"pidural":4280,"Ġmyel":4281,"Ġepig":4282,"Ġsummation":4283,"48":4284,"cular":4285,"ip":4286,"Ġepidural":4287,"acterial":4288,"chdal":4289,"Ġacutely":4290,"dedicated":4291,"Ġdiscern":4292,"Ġdestruction":4293,"Ġempyema":4294,"Ġassist":4295,"Ġip":4296,"Ġhow":4297,"ominating":4298,"Ġairless":4299,"Ġ07":4300,"Ġtreated":4301,"Ġdiscord":4302,"Ġsequelae":4303,"chdalek":4304,"gi":4305,"pneumonia":4306,"thma":4307,"ilateral":4308,"Ġsiz":4309,"Ġcardiovascular":4310,"Ġform":4311,"Ġparas":4312,"Ġdextroconvex":4313,"Ġreturned":4314,"Ġaffecting":4315,"18":4316,"oti":4317,"Ġbig":4318,"Ġunex":4319,"Ġunilateral":4320,"Ġatelec":4321,"Ġstra":4322,"Ġbochdalek":4323,"Ġparalle":4324,"Ġsubcentimeter":4325,"Ġnegative":4326,"02":4327,"41":4328,"Ġfac":4329,"Ġcontig":4330,"Ġdys":4331,"Ġcore":4332,"Ġcaroti":4333,"Ġdrug":4334,"Ġanchors":4335,"04":4336,"17":4337,"36":4338,"ej":4339,"effu":4340,"han":4341,"Ġasthma":4342,"ography":4343,"lip":4344,"Ġsafe":4345,"ronod":4346,"Ġhemodynam":4347,"Ġtenth":4348,"Ġvariation":4349,"Ġspondy":4350,"Ġligament":4351,"mension":4352,"ejun":4353,"),":4354,"19":4355,"28":4356,"53":4357,"54":4358,"igh":4359,"Ġthose":4360,"ale":4361,"mple":4362,"Ġdimension":4363,"Ġdisp":4364,"Ġscars":4365,"Ġpredominating":4366,"Ġbulging":4367,"Ġnotified":4368,"Ġdownward":4369,"Ġatrioventricular":4370,"Ġhous":4371,"Ġusing":4372,"Ġcarries":4373,"Ġpostobstructive":4374,"Ġcorrectly":4375,"Ġfavors":4376,"Ġrestric":4377,"Ġqual":4378,"Ġcontiguous":4379,"effusion":4380,"Ġoval":4381,"verteb":4382,"Ġmonitor":4383,"Ġcomment":4384,"29":4385,"47":4386,"pinal":4387,"Ġsubstantiated":4388,"Ġpoints":4389,"Ġreaches":4390,"Ġseparately":4391,"01":4392,"altered":4393,"ties":4394,"Ġconclu":4395,"Ġreal":4396,"Ġunaltered":4397,"Ġseed":4398,"Ġobtain":4399,"renchymal":4400,"Ġmultiloculated":4401,"Ġexaggeration":4402,"Ġdeposi":4403,"Ġcarotid":4404,"03":4405,"39":4406,"Ġmagn":4407,"Ġpositive":4408,"Ġintrac":4409,"Ġquan":4410,"Ġprojectional":4411,"Ġimpaction":4412,"16":4413,"46":4414,"ost":4415,"sides":4416,"cule":4417,"Ġsure":4418,"Ġdenser":4419,"Ġfolded":4420,"Ġgiving":4421,"Ġellip":4422,"Ġwarrant":4423,"Ġparaspinal":4424,"34":4425,"of":4426,"patic":4427,"Ġchamber":4428,"Ġscale":4429,"ominant":4430,"Ġreplacements":4431,"Ġmalignant":4432,"Ġflexure":4433,"Ġlobulated":4434,"Ġquality":4435,"Ġcv":4436,"Ġbesides":4437,"Ġpreexisting":4438,"Ġossif":4439,"Ġrespect":4440,"Ġtell":4441,"Ġarthropathy":4442,"Ġile":4443,"Ġconcei":4444,"Ġbeh":4445,"Ġcap":4446,"Ġgland":4447,"Ġlargest":4448,"Ġpostoperatively":4449,"Ġentering":4450,"Ġcontains":4451,"Ġmedical":4452,"Ġdisseminated":4453,"Ġbigger":4454,"Ġconceiv":4455,"13":4456,"22":4457,"din":4458,"oth":4459,"Ġoptimally":4460,"Ġexacerbation":4461,"Ġseems":4462,"Ġhouse":4463,"Ġbehind":4464,"44":4465,"Ġcase":4466,"Ġhis":4467,"Ġsha":4468,"Ġcortical":4469,"Ġavr":4470,"Ġpleuro":4471,"timated":4472,"Ġvertebrae":4473,"Ġvariant":4474,"24":4475,"Ġpauc":4476,"Ġcrossing":4477,"oscopic":4478,"Ġhyperlucent":4479,"Ġcoarsening":4480,"Ġbullae":4481,"Ġelliptical":4482,"Ġshaft":4483,"Ġpaucity":4484,"37":4485,"43":4486,"57":4487,"oluc":4488,"Ġradioluc":4489,"Ġimplan":4490,"14":4491,"Ġbb":4492,"roph":4493,"Ġrequ":4494,"Ġasci":4495,"Ġturn":4496,"ogram":4497,"Ġobjec":4498,"latory":4499,"Ġeffec":4500,"Ġembolus":4501,"Ġmicronod":4502,"Ġbedside":4503,"Ġmyeloma":4504,"Ġileus":4505,"Ġascites":4506,"38":4507,"portion":4508,"Ġanterolateral":4509,"neath":4510,"Ġappearances":4511,"Ġunderneath":4512,"Ġinju":4513,"Ġipsi":4514,"Ġsizable":4515,"58":4516,"aspiration":4517,"Ġdominant":4518,"Ġcover":4519,"Ġcomple":4520,"Ġexact":4521,"ify":4522,"Ġprogressing":4523,"Ġventilatory":4524,"Ġcarcinomatosis":4525,"Ġcannula":4526,"Ġipsilateral":4527,"bl":4528,"uge":4529,"Ġpse":4530,"Ġexisted":4531,"Ġcalled":4532,"cardiogenic":4533,"andoned":4534,"Ġmasslike":4535,"Ġinvolve":4536,"Ġsheet":4537,"Ġsupporting":4538,"vertebral":4539,"Ġinjuries":4540,"Ġpseud":4541,"Ġplan":4542,"Ġoper":4543,"resol":4544,"Ġcontent":4545,"ility":4546,"vered":4547,"Ġpage":4548,"Ġabandoned":4549,"urgi":4550,"Ġregurgi":4551,"Ġregional":4552,"Ġrods":4553,"Ġthoraco":4554,"distributed":4555,"Ġfragments":4556,"Ġkinked":4557,"Ġatelect":4558,"Ġregurgitation":4559,"52":4560,"cir":4561,"fissural":4562,"Ġclus":4563,"Ġuppermost":4564,"Ġexcludes":4565,"Ġavoid":4566,"Ġproperly":4567,"Ġbands":4568,"Ġreaching":4569,"Ġglobal":4570,"Ġrepresented":4571,"inter":4572,"Ġglenoid":4573,"Ġadequately":4574,"Ġnarrowed":4575,"Ġdetermined":4576,"31":4577,"ium":4578,"Ġterm":4579,"Ġflu":4580,"Ġkinking":4581,"Ġgrown":4582,"fer":4583,"Ġcla":4584,"Ġisin":4585,"acted":4586,"Ġhuge":4587,"stroph":4588,"Ġpole":4589,"Ġcontribution":4590,"Ġimport":4591,"Ġosseus":4592,"Ġintrafissural":4593,"Ġdescends":4594,"Ġconvexity":4595,"Ġneoplastic":4596,"hanced":4597,"42":4598,"stic":4599,"uity":4600,"Ġopp":4601,"estig":4602,"Ġbran":4603,"Ġproduc":4604,"tified":4605,"Ġinvestig":4606,"lobular":4607,"Ġlatest":4608,"Ġmentioned":4609,"Ġlvad":4610,"Ġbranch":4611,"09":4612,"27":4613,"tural":4614,"Ġ___%":4615,"Ġacuity":4616,"rome":4617,"outine":4618,"monstrates":4619,"Ġcalcium":4620,"Ġtechnically":4621,"Ġvagal":4622,"Ġroutine":4623,"Ġocclu":4624,"Ġsynd":4625,"cumscribed":4626,"Ġformations":4627,"Ġelect":4628,"iciency":4629,"Ġdeposits":4630,"Ġatelectases":4631,"circumscribed":4632,"Ġsyndrome":4633,"sile":4634,"Ġredistributed":4635,"Ġuntil":4636,"Ġcontacted":4637,"Ġcordis":4638,"Ġfilling":4639,"Ġtransi":4640,"Ġsmooth":4641,"Ġexpansile":4642,"06":4643,"07":4644,"33":4645,":___":4646,"jacent":4647,"over":4648,"uter":4649,"Ġinterf":4650,"desis":4651,"Ġproximally":4652,"Ġrelay":4653,"Ġfactors":4654,"Ġvirtually":4655,"Ġdiagnostic":4656,"ardiac":4657,"Ġsits":4658,"derness":4659,"Ġur":4660,"Ġgall":4661,"Ġhemop":4662,"Ġngt":4663,"Ġdifferenti":4664,"Ġconspicuity":4665,"Ġclamp":4666,"59":4667,"Ġouter":4668,"Ġlap":4669,"Ġremained":4670,"Ġextended":4671,"Ġmucus":4672,"Ġcollected":4673,"Ġyet":4674,"Ġtenderness":4675,"Ġstenting":4676,"Ġneutral":4677,"Ġconceivably":4678,"Ġcompletion":4679,"51":4680,"Ġsequ":4681,"Ġsubjacent":4682,"Ġmind":4683,"Ġseparation":4684,"Ġrelayed":4685,"21":4686,"iation":4687,"Ġpossibil":4688,"Ġaccep":4689,"Ġtaking":4690,"Ġobstructing":4691,"Ġlocalize":4692,"Ġqa":4693,"Ġelectrode":4694,"Ġvarious":4695,"Ġthoracoabdominal":4696,"Ġbat":4697,"Ġfine":4698,"rays":4699,"Ġinterposition":4700,"Ġmainly":4701,"Ġexaggerates":4702,"avr":4703,"Ġheights":4704,"Ġflowing":4705,"Ġelectronic":4706,"ild":4707,"Ġseal":4708,"Ġmilder":4709,"Ġexce":4710,"Ġmidportion":4711,"Ġbandlike":4712,"lobar":4713,"Ġpathological":4714,"Ġinvolves":4715,"Ġrequest":4716,"Ġtransient":4717,"function":4718,"ording":4719,"Ġflo":4720,"Ġtermination":4721,"Ġfolds":4722,"Ġaccording":4723,"Ġneph":4724,"Ġlocalizing":4725,"Ġnurses":4726,"Ġanchor":4727,"Ġelectrodes":4728,"evalu":4729,"Ġfacility":4730,"du":4731,"arth":4732,"Ġsites":4733,"pacity":4734,"Ġcaring":4735,"Ġarms":4736,"Ġhepatic":4737,"inflamm":4738,"Ġattending":4739,"Ġmassively":4740,"Ġattemp":4741,"Ġusually":4742,"Ġobliteration":4743,"Ġpossibilities":4744,"49":4745,"Ġ'":4746,"sip":4747,"Ġmri":4748,"edian":4749,"Ġjejun":4750,"demonstrates":4751,"Ġposttraumatic":4752,"Ġpreserved":4753,"distal":4754,"Ġprogressively":4755,"Ġtraversing":4756,"Ġechocardiography":4757,"Ġacceptable":4758,"come":4759,"Ġ#":4760,"Ġiv":4761,"Ġtavr":4762,"seal":4763,"Ġ19":4764,"Ġwork":4765,"Ġperiod":4766,"Ġinitially":4767,"Ġuseful":4768,"Ġdramatically":4769,"Ġmagnified":4770,"ition":4771,"othoracic":4772,"enced":4773,"Ġconne":4774,"Ġdec":4775,"Ġsublu":4776,"Ġagainst":4777,"Ġlymphoma":4778,"Ġeight":4779,"Ġcollecting":4780,"Ġdirectly":4781,"Ġabuts":4782,"Ġdisplay":4783,"Ġpseudo":4784,"hy":4785,"wer":4786,"orts":4787,"accumulation":4788,"Ġbacterial":4789,"Ġunless":4790,"Ġvertical":4791,"Ġvertically":4792,"Ġbulge":4793,"Ġgrafting":4794,"Ġcervic":4795,"Ġsecured":4796,"Ġconclusive":4797,"Ġpleurodesis":4798,"Ġcontents":4799,"Ġsequen":4800,"atures":4801,"cp":4802,"tre":4803,"Ġpulmonic":4804,"Ġnsip":4805,"Ġfin":4806,"Ġmodal":4807,"Ġregressed":4808,"Ġbroncho":4809,"stances":4810,"Ġmediport":4811,"Ġbulk":4812,"Ġkyphoplasty":4813,"Ġcontributing":4814,"Ġfactor":4815,"Ġsubtly":4816,"ighted":4817,"Ġinterface":4818,"cation":4819,"Ġpur":4820,"Ġbecome":4821,"Ġdeco":4822,"Ġweighted":4823,"Ġcombines":4824,"Ġtransp":4825,"Ġfibro":4826,"Ġaccounted":4827,"Ġfeatures":4828,"Ġcircumstances":4829,"Ġserial":4830,"Ġarchitectural":4831,"Ġepigastric":4832,"Ġdiscordance":4833,"Ġimplanted":4834,"mediastinal":4835,"titu":4836,"Ġconsis":4837,"Ġunable":4838,"opath":4839,"Ġradiographdemonstrates":4840,"Ġendogastric":4841,"Ġscans":4842,"Ġdiameters":4843,"Ġ06":4844,"Ġimportant":4845,"Ġsequential":4846,"ritis":4847,"Ġinterven":4848,"ortun":4849,"Ġinclusion":4850,"Ġeffective":4851,"Ġbattery":4852,"inflammatory":4853,"Ġcervicothoracic":4854,"Ġway":4855,"stance":4856,"tysis":4857,"Ġalongside":4858,"Ġbreath":4859,"positioning":4860,"Ġanatomic":4861,"Ġurgent":4862,"Ġhemoptysis":4863,"treatment":4864,"gra":4865,"sures":4866,"Ġamon":4867,"Ġep":4868,"rium":4869,"riding":4870,"Ġevidenced":4871,"Ġpressures":4872,"Ġpredominately":4873,"Ġinspirational":4874,"Ġeffac":4875,"Ġexplains":4876,"Ġmucoid":4877,"Ġcluster":4878,"Ġamong":4879,"xed":4880,"thes":4881,"Ġcts":4882,"Ġste":4883,"Ġfem":4884,"mall":4885,"itud":4886,"iso":4887,"Ġclearance":4888,"Ġhaving":4889,"Ġtrack":4890,"Ġmarginated":4891,"Ġthyroidectomy":4892,"Ġconcurrently":4893,"Ġmany":4894,"Ġwhereas":4895,"Ġlongitud":4896,"Ġwarrants":4897,"mild":4898,"enable":4899,"ralateral":4900,"Ġleak":4901,"Ġsick":4902,"iable":4903,"dystroph":4904,"Ġglass":4905,"Ġposted":4906,"usted":4907,"Ġcarti":4908,"Ġrepeated":4909,"Ġbullet":4910,"Ġmajority":4911,"Ġamenable":4912,"Ġtemper":4913,"Ġstenosis":4914,"Ġosteodystroph":4915,"Ġepiso":4916,"Ġosteodystrophy":4917,"oce":4918,"sk":4919,"uted":4920,"arinal":4921,"Ġidi":4922,"Ġunif":4923,"Ġcontralateral":4924,"ource":4925,"Ġstate":4926,"Ġ03":4927,"Ġprosthes":4928,"Ġclarify":4929,"Ġfloor":4930,"Ġsickle":4931,"Ġuniform":4932,"Ġprostheses":4933,"small":4934,"Ġpcp":4935,"Ġsource":4936,"Ġrisk":4937,"tube":4938,"Ġintravenous":4939,"Ġtraction":4940,"Ġcorrela":4941,"cessive":4942,"Ġdepart":4943,"Ġdepression":4944,"Ġestimated":4945,"Ġdecompensated":4946,"Ġmandi":4947,"Ġthink":4948,"Ġcircumstance":4949,"lines":4950,"Ġaortopulmonary":4951,"Ġperibronchovascular":4952,"Ġparalleling":4953,"Ġossification":4954,"Ġmicronodular":4955,"opathic":4956,"Ġtemperature":4957,"Ġidiopathic":4958,"Ġdepartment":4959,"cys":4960,"cribed":4961,"pir":4962,"oration":4963,"omegaly":4964,"Ġpneumocys":4965,"Ġprefer":4966,"Ġperitoneal":4967,"atoce":4968,"Ġactually":4969,"Ġstation":4970,"Ġmask":4971,"Ġseparate":4972,"Ġpenetration":4973,"Ġjejunum":4974,"Ġlongitudinal":4975,"Ġpneumocystis":4976,"Ġ/":4977,"Ġhol":4978,"icial":4979,"oca":4980,"Ġparamedian":4981,"Ġimmun":4982,"Ġembolization":4983,"Ġwaterseal":4984,"Ġdysfunction":4985,"Ġradiolucency":4986,"duce":4987,"Ġmandible":4988,"fusion":4989,"licated":4990,"Ġbif":4991,"aneurys":4992,"rable":4993,"Ġreading":4994,"Ġaspir":4995,"Ġdeficiency":4996,"Ġcurve":4997,"Ġnoncardiogenic":4998,"Ġsegments":4999,"Ġaccessed":5000,"Ġintervention":5001,"ption":5002,"pos":5003,"tosis":5004,"Ġappend":5005,"Ġcaval":5006,"Ġperit":5007,"Ġdefect":5008,"Ġpostradiation":5009,"Ġmonitored":5010,"Ġnondedicated":5011,"Ġcharacteristic":5012,"Ġmean":5013,"Ġskinf":5014,"lasties":5015,"Ġrecognition":5016,"Ġorganizing":5017,"Ġofficer":5018,"Ġbroken":5019,"medi":5020,"ua":5021,"zing":5022,"itated":5023,"Ġlight":5024,"Ġmoreover":5025,"infection":5026,"Ġcontinuing":5027,"more":5028,"Ġsubcarinal":5029,"Ġresidua":5030,"Ġ--___":5031,"Ġtendin":5032,"Ġgreatly":5033,"Ġfinally":5034,"Ġfemoral":5035,"aneurysm":5036,"Ġpate":5037,"Ġprovide":5038,"Ġunderinflated":5039,"Ġpulling":5040,"Ġspondylo":5041,"Ġrestricted":5042,"Ġoperative":5043,"Ġfluor":5044,"Ġappendage":5045,"Ġcomplex":5046,"Ġregression":5047,"Ġpharynx":5048,"Ġlocalization":5049,"Ġwhite":5050,"Ġreaccum":5051,"Ġgrowing":5052,"Ġhyperdense":5053,"Ġobject":5054,"Ġperitracheal":5055,"cted":5056,"clage":5057,"eper":5058,"son":5059,"thing":5060,"sign":5061,"Ġoften":5062,"iden":5063,"Ġset":5064,"Ġproduce":5065,"Ġcontact":5066,"Ġresolve":5067,"ologic":5068,"Ġcerclage":5069,"parenchymal":5070,"Ġperibronchi":5071,"Ġemail":5072,"Ġcovering":5073,"resolution":5074,"Ġgallst":5075,"Ġcartilage":5076,"Ġaspirated":5077,"Ġskinfold":5078,"Ġspondylotic":5079,",,":5080,"tin":5081,"Ġpan":5082,"Ġeasi":5083,"Ġfle":5084,"Ġcongen":5085,"Ġpneumatoce":5086,"tabl":5087,"Ġdeeper":5088,"Ġexample":5089,"Ġporta":5090,"Ġ21":5091,"Ġrelating":5092,"catheter":5093,"described":5094,"Ġ00":5095,"Ġobliques":5096,"Ġrup":5097,"Ġfaintly":5098,"Ġbleb":5099,"chondrom":5100,"ostosis":5101,"Ġdifferentiate":5102,"Ġpseudoaneurysm":5103,"signific":5104,"identified":5105,"Ġpneumatocele":5106,"bronchial":5107,"cence":5108,"Ġbegin":5109,"Ġperson":5110,"Ġmidthoracic":5111,"Ġ22":5112,"Ġ23":5113,"urcation":5114,"Ġcentralized":5115,"Ġdistance":5116,"oliotic":5117,"Ġestabl":5118,"Ġsituated":5119,"Ġ(___":5120,"appeared":5121,"Ġcommunications":5122,"hyd":5123,"significant":5124,"pt":5125,"Ġent":5126,"Ġnp":5127,"olitis":5128,"Ġoropharynx":5129,"Ġuncomp":5130,"Ġcompens":5131,"iscule":5132,"Ġinterlobar":5133,"Ġverb":5134,"Ġwalls":5135,"Ġinclusions":5136,"Ġcommin":5137,"Ġminiscule":5138,"Ġmaintained":5139,"Ġpleurop":5140,"Ġgrad":5141,"indeterminate":5142,"Ġemailed":5143,"evaluated":5144,"Ġsubluxation":5145,"Ġmodality":5146,"Ġperibronchiolar":5147,"Ġflexi":5148,"Ġuncomplicated":5149,"plain":5150,"ssion":5151,"Ġthem":5152,"enhanced":5153,"Ġeg":5154,"Ġhd":5155,"Ġriding":5156,"pacemaker":5157,"Ġintermedi":5158,"venti":5159,"Ġbenef":5160,"Ġsuboptimally":5161,"Ġupwards":5162,"Ġholds":5163,"Ġbifurcation":5164,"plained":5165,"ls":5166,"Ġinges":5167,"Ġinsignificant":5168,"mply":5169,"Ġrelation":5170,"romised":5171,"Ġpresently":5172,"Ġinterspaces":5173,"Ġacqui":5174,"Ġdiscussion":5175,"Ġreveals":5176,"Ġechocardiogram":5177,"Ġcranial":5178,"Ġunexplained":5179,"Ġcvl":5180,"Ġexceeding":5181,"Ġattempted":5182,"Ġcongenital":5183,"Ġverbally":5184,"Ġcomminuted":5185,"Ġacquisition":5186,"zone":5187,"Ġsimply":5188,"Ġreally":5189,"ticip":5190,"Ġintervally":5191,"Ġreflection":5192,"Ġpostprocedural":5193,"Ġhyperostosis":5194,"Ġpresented":5195,"Ġcavitated":5196,"Ġconfirms":5197,"Ġcirc":5198,"Ġcertainty":5199,"Ġattempt":5200,"Ġhyperdensity":5201,"Ġpreferably":5202,"Ġflexion":5203,"bi":5204,"cult":5205,"eve":5206,"Ġsent":5207,"Ġintended":5208,"Ġwan":5209,"Ġfung":5210,"tating":5211,"Ġcovered":5212,"Ġresor":5213,"Ġassum":5214,"Ġdistorted":5215,"Ġsupra":5216,"avitary":5217,"Ġoccult":5218,"Ġretrospect":5219,"Ġrequires":5220,"Ġobliterating":5221,"Ġdramatic":5222,"ticipated":5223,"Ġcut":5224,"Ġwax":5225,"Ġconcom":5226,"Ġtoge":5227,"axi":5228,"pped":5229,"itant":5230,"Ġprocedural":5231,"ocar":5232,"Ġevacu":5233,"Ġupd":5234,"valve":5235,"Ġexclusion":5236,"Ġapproximate":5237,"vasculature":5238,"Ġobliter":5239,"Ġclosely":5240,"Ġloculations":5241,"Ġinterpreted":5242,"laying":5243,"Ġosteoarth":5244,"Ġreassessment":5245,"Ġarchitecture":5246,"Ġtamp":5247,"Ġhemodynamically":5248,"Ġintracavitary":5249,"Ġbeginning":5250,"Ġconcomitant":5251,"Ġtogether":5252,"Ġer":5253,"onade":5254,"arge":5255,"Ġequi":5256,"direc":5257,"Ġduc":5258,"Ġproved":5259,"tention":5260,"cost":5261,"Ġgoing":5262,"Ġfeature":5263,"Ġrelax":5264,"proximal":5265,"cinoma":5266,"________________":5267,"Ġunexpected":5268,"Ġhemodynamic":5269,"Ġeasily":5270,"Ġexceedingly":5271,"ocarcinoma":5272,"Ġupdated":5273,"Ġtamponade":5274,"off":5275,"ves":5276,"Ġ\"":5277,"Ġcres":5278,"ario":5279,"enario":5280,"Ġlen":5281,"Ġtim":5282,"Ġpatients":5283,"Ġrefe":5284,"Ġscenario":5285,"ominate":5286,"Ġpericardi":5287,"Ġmalposition":5288,"Ġcontusions":5289,"Ġcircumscribed":5290,"Ġreasonably":5291,"chondroma":5292,"lator":5293,"mic":5294,"rous":5295,"Ġanticipated":5296,"Ġloose":5297,"Ġorific":5298,"Ġexpiratory":5299,"Ġlik":5300,"Ġinfer":5301,"Ġcomparing":5302,"Ġstaff":5303,"Ġbrachy":5304,"Ġecmo":5305,"Ġtotally":5306,"calc":5307,"Ġdestructive":5308,"Ġoffice":5309,"Ġquanti":5310,"Ġbronchovasculature":5311,"Ġrelaxation":5312,"long":5313,"sh":5314,"Ġide":5315,"titial":5316,"Ġmaxi":5317,"Ġrever":5318,"Ġenough":5319,"Ġkne":5320,"gency":5321,"Ġperforation":5322,"Ġshifting":5323,"Ġraised":5324,"Ġdiagnosed":5325,"Ġobviously":5326,"Ġdetermination":5327,"Ġpyloric":5328,"Ġsmoking":5329,"Ġradiopacity":5330,"Ġclamped":5331,"Ġcorrelating":5332,"costal":5333,"Ġorifice":5334,"posed":5335,"sia":5336,"Ġsolid":5337,"Ġredirec":5338,"Ġpower":5339,"ission":5340,"Ġscoliotic":5341,"rectomy":5342,"ologist":5343,"Ġamounts":5344,"Ġpericardium":5345,"Ġentity":5346,"Ġexplaining":5347,"Ġobliquely":5348,"Ġpointed":5349,"Ġintroduced":5350,"Ġresponse":5351,"Ġmanifested":5352,"Ġmigration":5353,"titution":5354,"Ġtracks":5355,"hydration":5356,"Ġingested":5357,"Ġcirculation":5358,"uro":5359,"Ġmus":5360,"thorac":5361,"Ġ___;":5362,"Ġexchanged":5363,"Ġabrup":5364,"lla":5365,"Ġadmin":5366,"Ġdisappeared":5367,"Ġspan":5368,"Ġvisc":5369,"Ġearliest":5370,"dles":5371,"Ġventilator":5372,"Ġdocumentation":5373,"Ġresections":5374,"Ġhypox":5375,"Ġsuccessive":5376,"Ġpeer":5377,"Ġquantif":5378,"Ġnephro":5379,"ocaval":5380,"Ġfungal":5381,"Ġevacuated":5382,"Ġabrupt":5383,"his":5384,"par":5385,"su":5386,"tment":5387,"year":5388,"Ġmr":5389,"Ġfla":5390,"Ġenchondroma":5391,"Ġintercostal":5392,"Ġmidc":5393,"Ġstaple":5394,"Ġtransbronchial":5395,"Ġlooping":5396,"Ġadenocarcinoma":5397,"Ġrun":5398,"Ġinnominate":5399,"Ġstrad":5400,"Ġcorevalve":5401,"Ġeffacement":5402,"Ġintermedius":5403,"apical":5404,"cop":5405,"gl":5406,"ergency":5407,"Ġface":5408,"used":5409,"Ġintrapulmonary":5410,"Ġcorac":5411,"Ġveil":5412,"Ġbronchiolitis":5413,"visual":5414,"Ġdirection":5415,"Ġordering":5416,"Ġworkup":5417,"Ġconnected":5418,"Ġpatent":5419,"Ġcresc":5420,"Ġbrachycephalic":5421,"Ġach":5422,"rilobular":5423,"Ġwider":5424,"Ġprost":5425,"Ġviewed":5426,"Ġhemithoraces":5427,"Ġdisrup":5428,"Ġcentrilobular":5429,"Ġworsen":5430,"Ġrod":5431,"Ġdisplacing":5432,"Ġheterogenous":5433,"Ġprojections":5434,"Ġacromio":5435,"Ġradiologic":5436,"Ġvisceral":5437,"Ġprostate":5438,"Ġcou":5439,"Ġfu":5440,"Ġda":5441,"Ġdehis":5442,"Ġpool":5443,"ocy":5444,"Ġintervertebral":5445,"Ġinterposed":5446,"Ġcompartment":5447,"Ġworst":5448,"Ġexpect":5449,"Ġatriocaval":5450,"Ġswallow":5451,"Ġreferrable":5452,"Ġfound":5453,"Ġscatter":5454,"Ġemergency":5455,"Ġcircular":5456,"Ġreached":5457,"Ġpenetrated":5458,"Ġcranially":5459,"Ġcompensatory":5460,"Ġduct":5461,"Ġknee":5462,"back":5463,"iate":5464,"stitial":5465,"Ġpal":5466,"Ġcre":5467,"Ġtail":5468,"phrenic":5469,"set":5470,"Ġevening":5471,"atch":5472,"Ġrecord":5473,"Ġsometim":5474,"Ġinstitution":5475,"Ġpassed":5476,"Ġoptim":5477,"luctu":5478,"Ġtake":5479,"Ġbroad":5480,"Ġspondyl":5481,"Ġdecompres":5482,"Ġdehiscence":5483,"Ġsometimes":5484,"ability":5485,"omal":5486,"Ġfluctu":5487,"emar":5488,"stment":5489,"Ġstated":5490,"Ġimping":5491,"Ġendovascular":5492,"Ġinterstial":5493,"vice":5494,"Ġclosure":5495,"Ġsupported":5496,"Ġappreciate":5497,"Ġanymore":5498,"Ġtechnologist":5499,"Ġmarg":5500,"Ġdiscontinued":5501,"Ġtransparent":5502,"Ġwaning":5503,"Ġosteoarthritis":5504,"copd":5505,"arenchymal":5506,"ered":5507,"vr":5508,"Ġul":5509,"Ġicu":5510,"Ġsac":5511,"ide":5512,"Ġsimple":5513,"emia":5514,"Ġund":5515,"Ġunde":5516,"Ġinterventional":5517,"Ġintervening":5518,"Ġused":5519,"demonstration":5520,"Ġadvance":5521,"Ġ___:___":5522,"Ġessential":5523,"Ġbronchiectatic":5524,"Ġmeasu":5525,"Ġservice":5526,"Ġcarefully":5527,"Ġocclusion":5528,"Ġpleuroparenchymal":5529,"Ġwaxing":5530,"Ġquantity":5531,"Ġnephrostomy":5532,"bd":5533,"eity":5534,"hem":5535,"alled":5536,"orting":5537,"eness":5538,"male":5539,"chest":5540,"ocon":5541,"Ġoblong":5542,"Ġnodulation":5543,"Ġapically":5544,"existed":5545,"Ġphrenic":5546,"Ġ01":5547,"Ġ02":5548,"Ġphysiologic":5549,"Ġdiscoid":5550,"ortication":5551,"Ġreasonable":5552,"Ġectasia":5553,"Ġanatomy":5554,"Ġseeds":5555,"Ġlapar":5556,"Ġbulky":5557,"Ġresorption":5558,"Ġhypoxia":5559,"Ġcouple":5560,"aicd":5561,"mum":5562,"pose":5563,"Ġcry":5564,"Ġinte":5565,"Ġproble":5566,"gmen":5567,"Ġmaybe":5568,"Ġclos":5569,"Ġassessing":5570,"Ġneuro":5571,"Ġbronchogram":5572,"Ġfemale":5573,"Ġmanub":5574,"appro":5575,"Ġmyco":5576,"Ġsplenomegaly":5577,"Ġlipoma":5578,"Ġclarification":5579,"Ġdecortication":5580,"Ġeffectively":5581,"Ġmuscle":5582,"Ġacromiohumeral":5583,"Ġcrypt":5584,"gic":5585,"wh":5586,"Ġaware":5587,"Ġpock":5588,"opulmonic":5589,"Ġassociation":5590,"Ġphysiology":5591,"Ġocca":5592,"Ġdelineation":5593,"patient":5594,"Ġspleen":5595,"Ġlobulation":5596,"Ġlevocon":5597,"Ġaortopulmonic":5598,"Ġparahilar":5599,"Ġsafely":5600,"Ġaccordingly":5601,"Ġtimes":5602,"Ġquantify":5603,"Ġpooling":5604,"gmentectomy":5605,"Ġmycob":5606,"Ġpocket":5607,"thy":5608,"inoph":5609,"tems":5610,"Ġla":5611,"Ġeos":5612,"Ġbur":5613,"Ġrim":5614,"Ġnormalized":5615,"Ġdeli":5616,"Ġagent":5617,"Ġquer":5618,"Ġlayers":5619,"Ġheterogeneity":5620,"defibrillator":5621,"Ġmarginally":5622,"Ġbulb":5623,"Ġaccumulating":5624,"neumonic":5625,"Ġcoarseness":5626,"Ġinformed":5627,"Ġfibrosing":5628,"Ġdecompressed":5629,"Ġeosinoph":5630,",.":5631,"ited":5632,"tom":5633,"teration":5634,"time":5635,"acuation":5636,"icin":5637,"Ġlocule":5638,"chan":5639,"genic":5640,"Ġgive":5641,"Ġconform":5642,"Ġtransfusion":5643,"Ġmetal":5644,"Ġshortness":5645,"Ġsystemic":5646,"Ġlobular":5647,"feren":5648,"Ġusual":5649,"Ġmenis":5650,"Ġdisplayed":5651,"Ġspondylosis":5652,"Ġcryptogenic":5653,"Ġlevoconvex":5654,"Ġeosinophil":5655,"duoden":5656,"emph":5657,"elling":5658,"Ġcolum":5659,"tizing":5660,"Ġinde":5661,"Ġmvr":5662,"ulates":5663,"rotizing":5664,"Ġvicin":5665,"tatic":5666,"Ġunit":5667,"Ġsuction":5668,"Ġmoved":5669,"Ġpads":5670,"Ġevacuation":5671,"Ġvascul":5672,"Ġalteration":5673,"Ġhemidi":5674,"Ġsplaying":5675,"Ġpostop":5676,"Ġsurve":5677,"inflation":5678,"Ġroot":5679,"Ġlymphatic":5680,"Ġnecrotizing":5681,"Ġunfortun":5682,"udal":5683,"Ġsubtot":5684,"interstitial":5685,"Ġconsisting":5686,"Ġreference":5687,"Ġmidclavicular":5688,"Ġvicinity":5689,"--___":5690,"ella":5691,"focal":5692,"omp":5693,"ines":5694,"align":5695,"Ġpt":5696,"Ġpending":5697,"Ġmatch":5698,"Ġbra":5699,"Ġtap":5700,"idne":5701,"entral":5702,"edial":5703,"Ġspared":5704,"Ġkidne":5705,"Ġgastroduoden":5706,"Ġmechan":5707,"istration":5708,"Ġmixed":5709,"Ġdiscontinuity":5710,"Ġobtaining":5711,"Ġplane":5712,"Ġadministration":5713,"Ġdelivered":5714,"Ġeosinophilic":5715,"Ġcolumn":5716,"Ġunfortunately":5717,"Ġgastroduodenal":5718,"cated":5719,"ptal":5720,"uid":5721,"Ġnine":5722,"tice":5723,"Ġfa":5724,"ram":5725,"Ġsegmentectomy":5726,"Ġbeli":5727,"Ġcardiomediastinum":5728,"peri":5729,"Ġhair":5730,"Ġadm":5731,"Ġadded":5732,"Ġtear":5733,"Ġprominently":5734,"Ġcurved":5735,"ectasis":5736,"cabg":5737,"Ġcostodiaphragmatic":5738,"Ġinvestigation":5739,"Ġinvestigated":5740,"Ġbranching":5741,"Ġreaccumulated":5742,"Ġideal":5743,"Ġtailored":5744,"emphysema":5745,"heart":5746,"kle":5747,"rou":5748,"Ġprac":5749,"ensitive":5750,"umb":5751,"astrium":5752,"iably":5753,"ocomp":5754,"Ġdiver":5755,"ographic":5756,"usci":5757,"Ġresected":5758,"Ġdegener":5759,"Ġadju":5760,"Ġherniation":5761,"Ġtransluc":5762,"Ġcharacter":5763,"Ġcurves":5764,"Ġnonetheless":5765,"Ġaffect":5766,"Ġgrowth":5767,"Ġaccurate":5768,"lining":5769,"Ġimmunocomp":5770,"Ġmarginal":5771,"uscitation":5772,"justed":5773,"aled":5774,"edema":5775,"Ġisout":5776,"Ġreverse":5777,"Ġdy":5778,"Ġonset":5779,"Ġoverlay":5780,"Ġprevascular":5781,"Ġcaps":5782,"Ġexcluding":5783,"Ġresuscitation":5784,"Ġbronchoscopic":5785,"Ġexamined":5786,"Ġinsuff":5787,"Ġinsensitive":5788,"Ġnecrosis":5789,"curring":5790,"Ġrepeating":5791,"Ġabsent":5792,"Ġascer":5793,"Ġmamm":5794,"Ġirregularly":5795,"Ġdelineate":5796,"Ġsystems":5797,"Ġcontributes":5798,"Ġsupportive":5799,"Ġepigastrium":5800,"grade":5801,"Ġepisode":5802,"Ġrupture":5803,"Ġoptimized":5804,"Ġcloser":5805,"Ġoccasion":5806,"los":5807,"Ġnotice":5808,"Ġinad":5809,"Ġchem":5810,"Ġordin":5811,"Ġexpiration":5812,"Ġintermit":5813,"Ġcapping":5814,"Ġperif":5815,"ticul":5816,"Ġterminal":5817,"Ġidentical":5818,"Ġknow":5819,"Ġ30":5820,"Ġadjusted":5821,"Ġoutlining":5822,"Ġdraining":5823,"Ġhypertrophy":5824,"Ġecg":5825,"Ġunusually":5826,"Ġtooth":5827,"Ġcoalescence":5828,"Ġintracardiac":5829,"Ġopposed":5830,"Ġepisodes":5831,"Ġwhiteout":5832,"Ġestablished":5833,"ventilated":5834,"Ġinferolateral":5835,"Ġspanning":5836,"Ġunderes":5837,"Ġquery":5838,"Ġsubtotal":5839,"Ġadmission":5840,"Ġinadver":5841,"Ġintermittent":5842,"bronch":5843,"dg":5844,"sub":5845,"uk":5846,"wing":5847,"Ġthrom":5848,"Ġcbd":5849,"tiv":5850,"ress":5851,"anding":5852,"Ġventral":5853,"Ġleuk":5854,"Ġdemar":5855,"Ġ___-___":5856,"ograft":5857,"aseptal":5858,"Ġvisi":5859,"llation":5860,"Ġendograft":5861,"Ġassy":5862,"Ġparaseptal":5863,"Ġangulated":5864,"Ġroom":5865,"Ġcurls":5866,"Ġherniated":5867,"Ġretracting":5868,"Ġbile":5869,"Ġosteophytic":5870,"pel":5871,"Ġnursing":5872,"illance":5873,"operic":5874,"Ġrevealing":5875,"Ġcysts":5876,"Ġanatomical":5877,"Ġparallel":5878,"Ġcaptured":5879,"Ġturned":5880,"Ġgallstones":5881,"Ġdisruption":5882,"Ġmanubrium":5883,"Ġsurveillance":5884,"ati":5885,"fib":5886,"post":5887,"vent":5888,"wi":5889,"Ġ:":5890,"enth":5891,"entic":5892,"Ġbreak":5893,"Ġwound":5894,"Ġvary":5895,"tage":5896,"Ġcardia":5897,"Ġred":5898,"Ġordered":5899,"Ġsequence":5900,"Ġproxim":5901,"Ġexcre":5902,"Ġintral":5903,"Ġeleventh":5904,"Ġstage":5905,"Ġangi":5906,"Ġcompressed":5907,"Ġconfident":5908,"Ġcrowd":5909,"operatively":5910,"hood":5911,"Ġallows":5912,"Ġswelling":5913,"Ġrv":5914,"Ġbreasts":5915,"Ġosteophytosis":5916,"Ġcavitating":5917,"Ġmicro":5918,"Ġarthroplasties":5919,"Ġsuccessfully":5920,"evaluation":5921,"Ġoccluded":5922,"Ġfluoroscopic":5923,"Ġmycobacterial":5924,"Ġmeniscus":5925,"Ġbelieve":5926,"Ġimmunocompromised":5927,"Ġordinary":5928,"Ġproximity":5929,"sup":5930,"xy":5931,"Ġaris":5932,"Ġpn":5933,"Ġthelower":5934,"tellation":5935,"Ġsymmetry":5936,"Ġlacer":5937,"Ġinjec":5938,"Ġinability":5939,"Ġmural":5940,"Ġans":5941,"Ġfdg":5942,"Ġrecess":5943,"change":5944,"Ġenhanced":5945,"Ġconstellation":5946,"istic":5947,"Ġonline":5948,"creases":5949,"Ġinflation":5950,"Ġdisch":5951,"Ġconsistently":5952,"Ġsettings":5953,"Ġdistorts":5954,"Ġcomplicated":5955,"roplasties":5956,"Ġirregularities":5957,"Ġreliably":5958,"Ġpullback":5959,"Ġmissed":5960,"Ġmimic":5961,"interval":5962,"Ġopportun":5963,"Ġpancre":5964,"Ġgradual":5965,"biop":5966,"Ġcrescentic":5967,"Ġultim":5968,"Ġvasculitis":5969,"Ġhemidiaph":5970,"Ġlaceration":5971,"volum":5972,"Ġpi":5973,"Ġput":5974,"sitial":5975,"teral":5976,"Ġisol":5977,"ulate":5978,"rotated":5979,"Ġtoler":5980,"chronic":5981,"early":5982,"lectomy":5983,"seen":5984,"Ġcomprom":5985,"ope":5986,"Ġintersitial":5987,"ssa":5988,"Ġjus":5989,"Ġbronchogenic":5990,"Ġhere":5991,"Ġevaluating":5992,"Ġijv":5993,"Ġtranscatheter":5994,"Ġallowances":5995,"Ġtrapped":5996,"Ġfossa":5997,"Ġrul":5998,"apy":5999,"Ġdisclos":6000,"Ġreadjusted":6001,"Ġbiopsi":6002,"Ġhydrothorax":6003,"Ġelements":6004,"Ġwidely":6005,"Ġcircumferen":6006,"Ġecho":6007,"tility":6008,"Ġblebs":6009,"Ġmaximum":6010,"Ġascertain":6011,"Ġinadvertent":6012,"biopsy":6013,"Ġdiscloses":6014,"gagn":6015,"jejun":6016,"ru":6017,"alectasis":6018,"sic":6019,"astic":6020,"Ġmes":6021,"Ġantero":6022,"uloplasty":6023,"neumo":6024,"itz":6025,"Ġatalectasis":6026,"adder":6027,"valent":6028,"Ġrecon":6029,"cardia":6030,"Ġparac":6031,"Ġsimult":6032,"Ġviscus":6033,"Ġroof":6034,"Ġdifficul":6035,"Ġnecrotic":6036,"Ġpectoralis":6037,"Ġfibrous":6038,"ropen":6039,"taining":6040,"Ġtreitz":6041,"Ġapproaching":6042,"Ġreportedly":6043,"Ġdocuments":6044,"Ġdetermining":6045,"Ġaccumulated":6046,"Ġartifacts":6047,"Ġsecurely":6048,"Ġneutropen":6049,"Ġossific":6050,"Ġobjects":6051,"sued":6052,"visualization":6053,"ocytosis":6054,"Ġtapered":6055,"Ġmechanical":6056,"Ġadjustment":6057,"Ġunderestimated":6058,"tivation":6059,"gagni":6060,"Ġsimultaneous":6061,"col":6062,"ned":6063,"rin":6064,"rning":6065,"sen":6066,"Ġthecavoatrial":6067,"Ġinst":6068,"uminal":6069,"anz":6070,"Ġoverhydration":6071,"Ġget":6072,"Ġganz":6073,"Ġinfra":6074,"tively":6075,"Ġparap":6076,"Ġsurpri":6077,"Ġjud":6078,"type":6079,"Ġcavities":6080,"Ġthickenings":6081,"Ġoutpatient":6082,"Ġvertebroplasties":6083,"undant":6084,"osclerosis":6085,"Ġphase":6086,"Ġinvolved":6087,"Ġxray":6088,"Ġcoronal":6089,"cave":6090,"Ġdoubtful":6091,"Ġmorgagni":6092,"osite":6093,"Ġpeak":6094,"comb":6095,"Ġdiscordancy":6096,"Ġstraigh":6097,"Ġproducing":6098,"Ġclamping":6099,"Ġmeantime":6100,"Ġtendinopathy":6101,"Ġbeneficial":6102,"Ġstraddles":6103,"Ġindeed":6104,"Ġthromb":6105,"with":6106,"Ġvarying":6107,"Ġexcreted":6108,"volume":6109,"Ġcircumferential":6110,"Ġparapneumonic":6111,"rd":6112,"try":6113,"alveolar":6114,"orph":6115,"dity":6116,"unds":6117,"Ġprof":6118,"Ġenc":6119,"Ġinterlobular":6120,"light":6121,"asia":6122,"Ġsubchondral":6123,"Ġmidzone":6124,"Ġcomparisons":6125,"uckle":6126,"Ġreports":6127,"develop":6128,"Ġsuperolateral":6129,"Ġsuperinfection":6130,"Ġinfections":6131,"Ġhypersen":6132,"psin":6133,"Ġventricles":6134,"Ġpulse":6135,"Ġtakes":6136,"Ġhydropneumo":6137,"Ġreactivation":6138,"Ġentertained":6139,"Ġdislocated":6140,"Ġsurrounded":6141,"Ġdesign":6142,"Ġsideholes":6143,"Ġdecompression":6144,"Ġstep":6145,"posterior":6146,"Ġbenefit":6147,"Ġero":6148,"Ġequivalent":6149,"calcified":6150,"Ġrunning":6151,"Ġsaccular":6152,"Ġproblem":6153,"Ġalterations":6154,"roup":6155,"Ġperifissural":6156,"Ġopportunistic":6157,"Ġisolated":6158,"Ġstraighten":6159,"cing":6160,"coplas":6161,"ias":6162,"pendent":6163,"pneumothorax":6164,"ycomb":6165,"Ġter":6166,"third":6167,"Ġpr":6168,"Ġeq":6169,"acia":6170,"ides":6171,"ched":6172,"pha":6173,"Ġ___).":6174,"ette":6175,"derly":6176,"Ġsizeable":6177,"Ġablation":6178,"Ġoverdis":6179,"Ġgroup":6180,"Ġrect":6181,"Ġmultin":6182,"oneycomb":6183,"Ġnodal":6184,"Ġdistinc":6185,"Ġreside":6186,"Ġelderly":6187,"Ġlocaliz":6188,"Ġsternoclavicular":6189,"Ġkinks":6190,"Ġrings":6191,"Ġreassessed":6192,"dynamic":6193,"Ġhorizontally":6194,"Ġexacerbated":6195,"Ġgallstone":6196,"Ġbrain":6197,"Ġtranslucency":6198,"pelvis":6199,"Ġtolerate":6200,"colla":6201,"trypsin":6202,"Ġhypersensitivity":6203,"coplasma":6204,"Ġmultinodular":6205,"cts":6206,"gth":6207,"oking":6208,"pment":6209,"rand":6210,"terom":6211,"Ġlll":6212,"asm":6213,"Ġinh":6214,"dilated":6215,"Ġanulus":6216,"Ġhoneycomb":6217,"ffy":6218,"tasis":6219,"omatous":6220,"Ġ___=":6221,"Ġdeb":6222,"ewise":6223,"Ġmiliary":6224,"Ġstanding":6225,"Ġpredis":6226,"Ġalpha":6227,"Ġpertin":6228,"Ġguid":6229,"ottic":6230,"Ġ25":6231,"mage":6232,"Ġresem":6233,"Ġpacs":6234,"Ġbronchosp":6235,"Ġvisually":6236,"Ġheading":6237,"Ġstages":6238,"ĠĠĠĠĠĠĠĠĠĠĠĠĠĠĠĠĠĠ":6239,"Ġshortly":6240,"Ġoriginal":6241,"Ġamorph":6242,"ĠĠĠĠĠĠĠĠĠĠĠĠĠĠĠĠĠĠĠĠĠĠĠĠĠĠĠĠĠĠĠĠĠĠĠĠĠĠĠĠĠĠĠĠĠĠĠĠĠĠ":6243,"Ġreliable":6244,"Ġfavored":6245,"Ġasbestosis":6246,"Ġmyoc":6247,"Ġmycoplasma":6248,"Ġevolution":6249,"Ġcoincides":6250,"Ġparaesophageal":6251,"Ġfluffy":6252,"Ġentry":6253,"Ġgradually":6254,"Ġlikewise":6255,"Ġredirected":6256,"glottic":6257,"Ġlaparoscopic":6258,"Ġnoticeable":6259,"Ġhydropneumothoraces":6260,"Ġpertinent":6261,"bed":6262,"ible":6263,"mia":6264,"trache":6265,"reteral":6266,"Ġovere":6267,"Ġiss":6268,"Ġbot":6269,"rest":6270,"Ġfash":6271,"Ġlooking":6272,"charac":6273,"Ġbecom":6274,"Ġsill":6275,"Ġedematous":6276,"Ġexchange":6277,"Ġstar":6278,"vision":6279,"alyzed":6280,"Ġsubglottic":6281,"Ġmidesophagus":6282,"Ġsplin":6283,"ules":6284,"Ġgreate":6285,"Ġdisplaces":6286,"Ġinspec":6287,"Ġhiv":6288,"Ġdegra":6289,"Ġtend":6290,"containing":6291,"Ġextrathoracic":6292,"Ġdenoting":6293,"Ġantitrypsin":6294,"Ġvaric":6295,"Ġvaried":6296,"Ġdistinctly":6297,"Ġimpacted":6298,"Ġaortosclerosis":6299,"Ġachi":6300,"alignment":6301,"Ġdiverticul":6302,"Ġconfidently":6303,"Ġarising":6304,"Ġultimately":6305,"Ġdistinction":6306,"Ġ___=___":6307,"Ġamorphous":6308,"Ġfashion":6309,"characteri":6310,"Ġsplinting":6311,"ile":6312,"mass":6313,"polar":6314,"rance":6315,"vole":6316,"Ġadynamic":6317,"retro":6318,"Ġthemid":6319,"Ġcement":6320,"Ġsol":6321,"Ġretention":6322,"Ġcompan":6323,"houette":6324,"Ġsilhouetted":6325,"Ġstrand":6326,"racted":6327,"Ġtil":6328,"Ġsubphrenic":6329,"Ġinterstital":6330,"Ġknuckle":6331,"Ġsomething":6332,"Ġblastic":6333,"Ġconfined":6334,"Ġconfused":6335,"Ġcurving":6336,"Ġtraceable":6337,"Ġincreasingly":6338,"Ġsaid":6339,"thesis":6340,"Ġentirety":6341,"Ġgeographic":6342,"rachiocephalic":6343,"ways":6344,"Ġacromion":6345,"Ġcvp":6346,"Ġtransplant":6347,"Ġfibrothorax":6348,"Ġestablish":6349,"Ġobliterates":6350,"Ġequipment":6351,"Ġpericarditis":6352,"Ġcompartments":6353,"Ġimpinging":6354,"Ġmeasured":6355,"Ġburden":6356,"Ġptx":6357,"Ġvisibility":6358,"Ġassymetric":6359,"supine":6360,"Ġdifficulty":6361,"rinsic":6362,"Ġinstrum":6363,"Ġlocalizes":6364,"collapse":6365,"Ġoverex":6366,"Ġgreatest":6367,"Ġinspection":6368,"by":6369,"brachiocephalic":6370,"walled":6371,"rees":6372,"Ġpen":6373,"Ġcvc":6374,"eds":6375,"Ġoxy":6376,"Ġincreases":6377,"unk":6378,"uly":6379,"Ġreexpanded":6380,"bles":6381,"Ġcompromised":6382,"eck":6383,"Ġintersection":6384,"lihood":6385,"Ġcaudal":6386,"Ġlikelihood":6387,"Ġenlarge":6388,"Ġnotch":6389,"irds":6390,"Ġidentifiable":6391,"Ġpicture":6392,"Ġconcerned":6393,"Ġthickness":6394,"Ġblunts":6395,"Ġcurling":6396,"Ġoutline":6397,"Ġprogress":6398,"Ġphd":6399,"Ġpreceded":6400,"Ġgenu":6401,"duction":6402,"Ġopen":6403,"Ġwarranting":6404,"aries":6405,"otherapy":6406,"oplastic":6407,"Ġabscesses":6408,"Ġaffected":6409,"Ġclarified":6410,"Ġdistinguishing":6411,"Ġrestriction":6412,"Ġmicronodules":6413,"bladder":6414,"Ġgallbladder":6415,"Ġentrance":6416,"thoracentesis":6417,"Ġcoracoclavicular":6418,"Ġdamage":6419,"Ġpractically":6420,"Ġbiopsied":6421,"Ġreconstruc":6422,"Ġsurprising":6423,"Ġrectangular":6424,"Ġhoneycombing":6425,"Ġbronchospasm":6426,"Ġoxygen":6427,"bol":6428,"imal":6429,"lic":6430,"mar":6431,"pen":6432,"tary":6433,"top":6434,"Ġpin":6435,"Ġpill":6436,"Ġplates":6437,"orated":6438,"Ġowing":6439,"Ġinten":6440,"Ġmess":6441,"dic":6442,"Ġbar":6443,"Ġfall":6444,"Ġflas":6445,"Ġconce":6446,"Ġrein":6447,"Ġreoc":6448,"Ġdome":6449,"Ġcheck":6450,"Ġexcur":6451,"Ġrapi":6452,"ects":6453,"ifying":6454,"Ġprepyloric":6455,"Ġprevent":6456,"Ġalways":6457,"Ġabnormally":6458,"Ġreporting":6459,"Ġportal":6460,"Ġdefects":6461,"Ġscope":6462,"Ġsimulating":6463,"Ġarg":6464,"Ġtrach":6465,"Ġanything":6466,"Ġfist":6467,"Ġadvantage":6468,"Ġnonvisualization":6469,"Ġyo":6470,"Ġneedle":6471,"eterminant":6472,"Ġtypically":6473,"Ġdiscernible":6474,"Ġnephrectomy":6475,"Ġruptured":6476,"Ġcutaneous":6477,"Ġlength":6478,"Ġlikley":6479,"Ġredirection":6480,"Ġcoracoid":6481,"Ġpalsy":6482,"Ġlocules":6483,"Ġinjectable":6484,"Ġjustified":6485,"Ġsimultaneously":6486,"teromedial":6487,"Ġsolitary":6488,"Ġoverexpanded":6489,"Ġgenuine":6490,"Ġmessage":6491,"Ġexcursion":6492,"clavian":6493,"pnel":6494,"sternal":6495,"static":6496,"wor":6497,"increased":6498,"techn":6499,"Ġlad":6500,"active":6501,"united":6502,"Ġhum":6503,"Ġcontained":6504,"Ġconduction":6505,"rapnel":6506,"Ġreevaluated":6507,"omies":6508,"pacer":6509,"Ġproced":6510,"Ġasper":6511,"Ġdiaph":6512,"Ġuip":6513,"Ġchanging":6514,"Ġpregn":6515,"Ġpreclu":6516,"Ġaltered":6517,"Ġgir":6518,"rement":6519,"hepatic":6520,"Ġsliver":6521,"Ġadhe":6522,"Ġremode":6523,"Ġintraaortic":6524,"Ġaorticopulmonary":6525,"ribut":6526,"Ġesophagram":6527,"Ġnotewor":6528,"Ġdegrees":6529,"Ġmale":6530,"Ġrotational":6531,"Ġevenly":6532,"Ġoffer":6533,"Ġaccessory":6534,"shaft":6535,"Ġhydrostatic":6536,"Ġmissing":6537,"Ġfragmented":6538,"oked":6539,"Ġdysp":6540,"Ġuniformly":6541,"shot":6542,"Ġreversed":6543,"omalacia":6544,"when":6545,"Ġkidney":6546,"Ġinsufficiency":6547,"characteristic":6548,"volemia":6549,"Ġflash":6550,"Ġrapidity":6551,"Ġyoung":6552,"Ġprocedures":6553,"Ġasperg":6554,"Ġnoteworthy":6555,"dum":6556,"night":6557,"ute":6558,"Ġau":6559,"tia":6560,"Ġelimin":6561,"ritic":6562,"Ġbic":6563,"Ġanomal":6564,"umon":6565,"nea":6566,"Ġrevision":6567,"Ġunrelated":6568,"Ġprocessed":6569,"density":6570,"dendum":6571,"healed":6572,"Ġposture":6573,"Ġparalysis":6574,"osu":6575,"recent":6576,"Ġpreservation":6577,"Ġpersisted":6578,"Ġemphasi":6579,"Ġtransfer":6580,"Ġafterno":6581,"Ġhypoplastic":6582,"Ġresulted":6583,"Ġtrapping":6584,"Ġgastrojejun":6585,"Ġwithdrawing":6586,"Ġthym":6587,"severely":6588,"Ġinfarcts":6589,"ician":6590,"udent":6591,"Ġtrunk":6592,"Ġdepicts":6593,"Ġprecisely":6594,"Ġmix":6595,"Ġeffects":6596,"Ġopposite":6597,"ventilation":6598,"argeted":6599,"Ġpericardiocentesis":6600,"Ġneurogenic":6601,"Ġdemarcated":6602,"fibrosis":6603,"Ġcompromise":6604,"Ġparacardiac":6605,"Ġprudent":6606,"Ġafternoon":6607,"ima":6608,"ml":6609,"po":6610,"por":6611,"tracheal":6612,"Ġavascular":6613,"Ġlump":6614,"Ġnoon":6615,"Ġmediastin":6616,"diuresis":6617,"Ġtargeted":6618,"Ġlea":6619,"Ġuns":6620,"Ġappli":6621,"istent":6622,"isms":6623,"Ġpaid":6624,"Ġvascula":6625,"Ġweight":6626,"Ġmidshaft":6627,"atology":6628,"Ġinflow":6629,"Ġpresents":6630,"Ġaddendum":6631,"Ġshrapnel":6632,"Ġsuperf":6633,"Ġtorturous":6634,"Ġdistends":6635,"Ġentities":6636,"Ġgoes":6637,"Ġrll":6638,"Ġemergent":6639,"Ġsepsis":6640,"Ġdependently":6641,"Ġsymptomatology":6642,"Ġannuloplasty":6643,"Ġhemat":6644,"Ġarthritis":6645,"cont":6646,"Ġdenoted":6647,"Ġdenotes":6648,"Ġradiolucent":6649,"Ġclustered":6650,"Ġworked":6651,"hemorrha":6652,"appropriate":6653,"Ġbulbous":6654,"Ġfather":6655,"Ġanswer":6656,"Ġdesigned":6657,"Ġmyocardial":6658,"Ġtendon":6659,"retrocardiac":6660,"technique":6661,"Ġtransferred":6662,"Ġgastrojejunostomy":6663,"Ġvasculatures":6664,"cloc":6665,"dant":6666,"fa":6667,"form":6668,"imp":6669,"mick":6670,"ara":6671,"Ġlav":6672,"ercing":6673,"Ġhid":6674,"Ġhick":6675,"Ġflan":6676,"illary":6677,"Ġselec":6678,"Ġseated":6679,"Ġprot":6680,"Ġproven":6681,"Ġmod":6682,"Ġfocality":6683,"Ġureteral":6684,"minimal":6685,"Ġoverly":6686,"dency":6687,"Ġothers":6688,"mail":6689,"Ġshin":6690,"Ġintraparenchymal":6691,"Ġmultilobar":6692,"Ġindirect":6693,"quently":6694,"Ġperformance":6695,"Ġinvoked":6696,"oint":6697,"available":6698,"Ġhemorrhagic":6699,"Ġreferable":6700,"Ġmeasure":6701,"Ġattendant":6702,"Ġsends":6703,"Ġsyn":6704,"Ġtripolar":6705,"Ġtraversed":6706,"Ġogt":6707,"Ġorganized":6708,"Ġorganisms":6709,"Ġmimick":6710,"strophic":6711,"Ġexceeds":6712,"evaluate":6713,"Ġpurpose":6714,"Ġreaccumulating":6715,"________________________________":6716,"Ġmaximal":6717,"Ġfluctuating":6718,"Ġdystrophic":6719,"Ġpiercing":6720,"Ġterms":6721,"Ġbottom":6722,"Ġtilted":6723,"Ġfistula":6724,"osupp":6725,"Ġlumpectomy":6726,"contrast":6727,"clock":6728,"Ġlavage":6729,"Ġhickman":6730,"Ġflank":6731,"gged":6732,"orem":6733,"pied":6734,"point":6735,"thia":6736,"thirds":6737,"intestinal":6738,"alasia":6739,"Ġpne":6740,"leural":6741,"Ġim":6742,"Ġnight":6743,"Ġsched":6744,"entioned":6745,"Ġinse":6746,"Ġinner":6747,"Ġinappropriate":6748,"Ġbasi":6749,"rob":6750,"Ġcongl":6751,"new":6752,"monia":6753,"Ġcardial":6754,"Ġcardioperic":6755,"ental":6756,"omer":6757,"Ġunco":6758,"Ġunavailable":6759,"Ġseiz":6760,"ety":6761,"ewel":6762,"ecal":6763,"ectious":6764,"Ġinterrup":6765,"ife":6766,"lithia":6767,"asive":6768,"Ġgun":6769,"Ġgut":6770,"iring":6771,"Ġjewel":6772,"Ġreplete":6773,"dependent":6774,"achy":6775,"Ġpostinflammatory":6776,"Ġcanal":6777,"Ġjunctions":6778,"Ġcorrec":6779,"infectious":6780,"Ġdistracted":6781,"Ġpresump":6782,"Ġtracheomalacia":6783,"Ġobserve":6784,"Ġaforem":6785,"Ġthoracoplasty":6786,"Ġsemiupright":6787,"Ġmelan":6788,"Ġhydration":6789,"Ġrml":6790,"Ġchole":6791,"Ġtendency":6792,"Ġhypoventilation":6793,"Ġholes":6794,"Ġtruly":6795,"Ġosteoly":6796,"Ġmicu":6797,"Ġrevealed":6798,"Ġcannulates":6799,"Ġspontaneous":6800,"Ġdiagnoses":6801,"Ġconclusion":6802,"Ġplanes":6803,"Ġcontributions":6804,"Ġimmunosupp":6805,"Ġfluoroscopy":6806,"Ġ(___,":6807,"parable":6808,"Ġachalasia":6809,"Ġlabe":6810,"Ġmammary":6811,"Ġintraluminal":6812,"developing":6813,"trachea":6814,"Ġbecomes":6815,"Ġdiverticulum":6816,"Ġcompanion":6817,"Ġaugm":6818,"Ġsuperficial":6819,"Ġhidden":6820,"Ġmimicking":6821,"Ġschedule":6822,"Ġinseparable":6823,"Ġconglomer":6824,"Ġcardiopericardial":6825,"lithiasis":6826,"Ġjewelry":6827,"Ġaforementioned":6828,"Ġmelanoma":6829,"aded":6830,"aged":6831,"cent":6832,"coma":6833,"hing":6834,"pat":6835,"went":6836,"Ġther":6837,"articular":6838,"Ġiat":6839,"Ġlarynx":6840,"Ġinade":6841,"ice":6842,"Ġsight":6843,"ometer":6844,"Ġchond":6845,"Ġnormalization":6846,"Ġdelay":6847,"Ġlowest":6848,"Ġexcessive":6849,"Ġasy":6850,"Ġappara":6851,"Ġradiating":6852,"egally":6853,"Ġsubjec":6854,"Ġbasolateral":6855,"Ġrecumb":6856,"Ġclinician":6857,"Ġunderwent":6858,"Ġstat":6859,"Ġimproves":6860,"Ġdistorting":6861,"Ġrotary":6862,"Ġ48":6863,"Ġconstruc":6864,"Ġdescri":6865,"pectoral":6866,"previous":6867,"Ġgastrointestinal":6868,"Ġbrachial":6869,"berkn":6870,"Ġrn":6871,"Ġrecognize":6872,"Ġpathologies":6873,"Ġcostovertebral":6874,"Ġseparated":6875,"Ġoccupied":6876,"Ġmanifestations":6877,"Ġpreoperatively":6878,"Ġreturning":6879,"Ġcycle":6880,"Ġantibiotics":6881,"Ġformed":6882,"Ġstraight":6883,"Ġrestrictive":6884,"Ġsmoothly":6885,"Ġdifferentiation":6886,"Ġattempts":6887,"gram":6888,"poses":6889,"Ġtendinitis":6890,"Ġpalp":6891,"which":6892,"Ġleukocytosis":6893,"Ġdischarge":6894,"Ġpancreatic":6895,"Ġneutropenic":6896,"Ġhumeri":6897,"Ġgunshot":6898,"Ġinadequ":6899,"Ġapparatus":6900,"berknife":6901,"basal":6902,"dden":6903,"dling":6904,"eved":6905,"get":6906,"yne":6907,"onec":6908,"Ġadi":6909,"Ġnotic":6910,"Ġinver":6911,"dicular":6912,"Ġbr":6913,"ouch":6914,"Ġanast":6915,"rogenic":6916,"Ġvol":6917,"Ġleav":6918,"Ġreidentified":6919,"Ġchalle":6920,"ations":6921,"Ġcount":6922,"cetoma":6923,"Ġsudden":6924,"Ġdeterior":6925,"Ġcardiomegally":6926,"Ġenh":6927,"Ġconsul":6928,"Ġconstitu":6929,"Ġmot":6930,"ister":6931,"oping":6932,"Ġsto":6933,"Ġstric":6934,"Ġhemiarth":6935,"Ġterminated":6936,"Ġshil":6937,"tled":6938,"Ġintram":6939,"Ġhypervolemia":6940,"Ġcorrob":6941,"Ġdistribu":6942,"Ġlinearly":6943,"Ġrow":6944,"Ġextensively":6945,"Ġoutlet":6946,"lod":6947,"Ġacces":6948,"Ġtransmit":6949,"Ġinvasive":6950,"Ġheterogeneously":6951,"Ġmalalignment":6952,"Ġindeterminant":6953,"Ġdepressed":6954,"Ġbronchiolar":6955,"Ġreceive":6956,"Ġru":6957,"Ġrfa":6958,"Ġoccurring":6959,"Ġmaterials":6960,"Ġcardioesophageal":6961,"lastic":6962,"Ġconditions":6963,"Ġfunctioning":6964,"Ġmycetoma":6965,"Ġremnants":6966,"Ġcyberknife":6967,"appearance":6968,"Ġspurs":6969,"Ġmyelomatous":6970,"Ġimplantable":6971,"Ġplana":6972,"resolved":6973,"Ġsubluxed":6974,"Ġdisplays":6975,"Ġconsists":6976,"Ġobliterated":6977,"Ġruns":6978,"Ġstraddling":6979,"visualized":6980,"Ġfuture":6981,"Ġlamin":6982,"perihilar":6983,"Ġcapsule":6984,"Ġintermittently":6985,"Ġangiography":6986,"Ġanteroposterior":6987,"Ġsillou":6988,"Ġmediastinoscopy":6989,"Ġcholelithiasis":6990,"Ġscheduled":6991,"Ġiatrogenic":6992,"onecrosis":6993,"Ġanastom":6994,"Ġleaves":6995,"Ġchallen":6996,"bdom":6997,"git":6998,"ire":6999,"ioca":7000,"mented":7001,"spy":7002,"uated":7003,"vas":7004,"although":7005,"Ġspacer":7006,"ences":7007,"Ġissued":7008,"astia":7009,"rity":7010,"ullary":7011,"Ġwispy":7012,"Ġsigm":7013,"Ġdev":7014,"ewire":7015,"ogast":7016,"isthesis":7017,"Ġpneumonias":7018,"rone":7019,"Ġperpen":7020,"Ġgyne":7021,"Ġsubsternal":7022,"Ġinflu":7023,"Ġimpella":7024,"Ġhemithoracic":7025,"Ġsinister":7026,"Ġpresenting":7027,"Ġdislod":7028,"Ġclot":7029,"Ġsimulates":7030,"Ġdistress":7031,"Ġscaring":7032,"mentary":7033,"motility":7034,"Ġheterotop":7035,"Ġtwel":7036,"Ġosteotomy":7037,"Ġosteonecrosis":7038,"Ġdictating":7039,"Ġmana":7040,"Ġquestions":7041,"Ġoriginating":7042,"Ġsharpness":7043,"Ġsymptomatic":7044,"Ġdoubted":7045,"Ġtuberosity":7046,"Ġstronger":7047,"Ġreasons":7048,"Ġhospitalization":7049,"comastia":7050,"Ġreticulations":7051,"Ġdiscernable":7052,"Ġdysmotility":7053,"Ġbranches":7054,"Ġcorrelative":7055,"Ġmeasurement":7056,"Ġdegenerate":7057,"Ġoccasionally":7058,"Ġoverdistention":7059,"Ġguidewire":7060,"Ġinstrumentation":7061,"Ġreconstruction":7062,"Ġpills":7063,"Ġdyspnea":7064,"Ġrecumbent":7065,"Ġstool":7066,"Ġhemiarthroplasty":7067,"Ġaccessible":7068,"Ġsigmoid":7069,"Ġperpendicular":7070,"Ġheterotopic":7071,".)":7072,"fth":7073,"gastric":7074,"grity":7075,"possible":7076,"tte":7077,"vised":7078,"ysis":7079,"Ġaway":7080,"rel":7081,"Ġpas":7082,"arity":7083,"tex":7084,"les":7085,"orally":7086,"Ġsqu":7087,"Ġmac":7088,"Ġwalled":7089,"Ġanalyzed":7090,"Ġtral":7091,"Ġflus":7092,"Ġleg":7093,"Ġrecurring":7094,"Ġrevised":7095,"omen":7096,"oman":7097,"omediastinal":7098,"ember":7099,"Ġlost":7100,"tue":7101,"bectomy":7102,"pher":7103,"Ġprove":7104,"Ġopaciti":7105,"Ġopacif":7106,"Ġ___)":7107,"Ġmildy":7108,"Ġatlectasis":7109,"larged":7110,"Ġoverriding":7111,"gestion":7112,"Ġhemia":7113,"heum":7114,"Ġidentifies":7115,"matic":7116,"izable":7117,"Ġbronchopulmonary":7118,"Ġsupple":7119,"Ġadjoin":7120,"lose":7121,"Ġsection":7122,"Ġsectional":7123,"Ġnondilated":7124,"Ġsagit":7125,"ological":7126,"Ġreplacing":7127,"Ġpredominate":7128,"Ġcoronaries":7129,"Ġmeta":7130,"Ġnipples":7131,"Ġattenuated":7132,"Ġartificial":7133,"Ġcenter":7134,"Ġdisclose":7135,"Ġdiscrep":7136,"Ġelementary":7137,"Ġextravas":7138,"Ġfunctional":7139,"Ġpelvic":7140,"Ġrequisition":7141,"Ġmedication":7142,"Ġcranioca":7143,"Ġparavertebral":7144,"Ġvirtue":7145,"Ġdisparity":7146,"Ġdownwards":7147,"Ġconceivable":7148,"Ġexactly":7149,"Ġproduct":7150,"Ġconnection":7151,"Ġmodalities":7152,"Ġtendinosis":7153,"Ġpneumatoceles":7154,"Ġassuming":7155,"Ġsupradiaphragmatic":7156,"Ġflagged":7157,"hemothorax":7158,"Ġintegrity":7159,"Ġconforms":7160,"Ġdegeneration":7161,"Ġchemotherapy":7162,"Ġmimics":7163,"Ġerosive":7164,"Ġachieve":7165,"Ġreoccurrence":7166,"Ġpregnancy":7167,"Ġremodeling":7168,"Ġenhance":7169,"Ġmottled":7170,"Ġshilhouette":7171,"Ġchallenging":7172,"ogastrectomy":7173,"Ġgynecomastia":7174,"Ġtwelfth":7175,"Ġadjoining":7176,"Ġsagittal":7177,"af":7178,"ai":7179,"gun":7180,"thick":7181,"Ġaa":7182,"Ġcc":7183,"orn":7184,"diagn":7185,"Ġbent":7186,"Ġanteromedial":7187,"Ġtal":7188,"Ġtachy":7189,"Ġrise":7190,"Ġconver":7191,"Ġconcav":7192,"Ġpneumobil":7193,"beit":7194,"Ġcontribut":7195,"Ġstran":7196,"Ġprepectoral":7197,"Ġalbeit":7198,"Ġperia":7199,"Ġremission":7200,"Ġinfuse":7201,"Ġsligh":7202,"Ġpostero":7203,"Ġdisorder":7204,"Ġspot":7205,"Ġpostprocedure":7206,"Ġpartic":7207,"Ġcortic":7208,"Ġunderinflation":7209,"Ġtest":7210,"ranial":7211,"Ġresiduals":7212,"Ġesophagogastrectomy":7213,"Ġnonrotated":7214,"Ġgranular":7215,"Ġpectorally":7216,"Ġpresume":7217,"Ġcomplic":7218,"Ġinduc":7219,"Ġreviewing":7220,"Ġtraverse":7221,"Ġdepend":7222,"Ġalimentary":7223,"Ġrheum":7224,"Ġascends":7225,"Ġoccurrence":7226,"Ġevents":7227,"Ġeventrated":7228,"Ġcollapsing":7229,"Ġcephalized":7230,"Ġundergo":7231,"Ġsarcoma":7232,"Ġbleed":7233,"Ġrecognizable":7234,"Ġposterolaterally":7235,"Ġvariable":7236,"Ġassisting":7237,"Ġaffects":7238,"Ġexpanding":7239,"Ġdissemination":7240,"Ġassistant":7241,"Ġmagnification":7242,"Ġrequiring":7243,"Ġoperation":7244,"Ġimportance":7245,"Ġinvestigate":7246,"Ġpleuropulmonary":7247,"Ġassumed":7248,"Ġlenticular":7249,"calcification":7250,"Ġcreating":7251,"Ġmatches":7252,"Ġkidneys":7253,"Ġchemo":7254,"Ġredundant":7255,"Ġmesh":7256,"Ġequal":7257,"Ġconceal":7258,"Ġbicon":7259,"imaging":7260,"Ġleaving":7261,"Ġmodest":7262,"Ġseizure":7263,"Ġconstruct":7264,"Ġnoticed":7265,"Ġmanagement":7266,"Ġtrali":7267,"Ġdiscrepancy":7268,"thickening":7269,"Ġpneumobilia":7270,"Ġstranding":7271,"iar":7272,"listhesis":7273,"mark":7274,"meter":7275,"ng":7276,"pneumon":7277,"slight":7278,"ton":7279,"Ġaid":7280,"Ġpulmon":7281,"Ġitem":7282,"Ġna":7283,"Ġspi":7284,"enlarged":7285,"errant":7286,"Ġms":7287,"Ġmember":7288,"Ġbit":7289,"rol":7290,"ided":7291,"idence":7292,"Ġpneumoth":7293,"Ġunresolved":7294,"lection":7295,"Ġbegun":7296,"Ġprofusion":7297,"Ġ___'":7298,"Ġended":7299,"Ġappe":7300,"Ġpair":7301,"Ġones":7302,"Ġabundant":7303,"Ġaberrant":7304,"Ġpreexisted":7305,"Ġcapacity":7306,"rical":7307,"Ġwhe":7308,"atric":7309,"Ġendo":7310,"Ġhamar":7311,"Ġidentification":7312,"Ġshor":7313,"Ġactual":7314,"Ġarrest":7315,"Ġcortex":7316,"inferior":7317,"Ġbordering":7318,"Ġblunt":7319,"Ġtechni":7320,"Ġnoncalcified":7321,"Ġnondependent":7322,"Ġhypoden":7323,"Ġpericardiac":7324,"Ġcomplain":7325,"Ġmalpositioning":7326,"Ġextrinsic":7327,"Ġreceiving":7328,"Ġgranulomata":7329,"Ġvaguely":7330,"Ġprostatic":7331,"Ġcuffed":7332,"Ġmanip":7333,"Ġoccur":7334,"Ġpleuritic":7335,"Ġsclero":7336,"Ġgrafts":7337,"Ġradiodensities":7338,"Ġoverlaps":7339,"aeration":7340,"congestion":7341,"Ġpathologically":7342,"Ġreturns":7343,"justment":7344,"namic":7345,"Ġdisconne":7346,"Ġsufficiently":7347,"Ġexpander":7348,"Ġdiscontinuities":7349,"Ġipf":7350,"Ġstrain":7351,"resolving":7352,"Ġrelationsh":7353,"biventricular":7354,"Ġdata":7355,"Ġsimplest":7356,"Ġfailed":7357,"Ġdynamic":7358,"opericardium":7359,"Ġhemidiaphgram":7360,"Ġprofile":7361,"Ġstraightening":7362,"Ġstarting":7363,"Ġsyndes":7364,"Ġlabeled":7365,"previously":7366,"bdomen":7367,"Ġhemiabdomen":7368,"Ġsupplemented":7369,"Ġtalc":7370,"Ġperiaortic":7371,"Ġcorticated":7372,"Ġinduced":7373,"Ġbiconcave":7374,"Ġhamartoma":7375,"Ġrelationship":7376,"asion":7377,"gemia":7378,"hette":7379,"ncy":7380,"uber":7381,"Ġcu":7382,"arged":7383,"orily":7384,"Ġoli":7385,"Ġnomin":7386,"Ġinci":7387,"Ġever":7388,"Ġmedic":7389,"ressing":7390,"Ġtren":7391,"Ġfre":7392,"Ġformal":7393,"Ġpleure":7394,"Ġren":7395,"Ġdon":7396,"Ġchil":7397,"embol":7398,"anger":7399,"Ġunch":7400,"Ġproportion":7401,"Ġdehydration":7402,"Ġsilhou":7403,"iating":7404,"Ġexuber":7405,"Ġcleare":7406,"Ġclears":7407,"tensive":7408,"Ġlowermost":7409,"vitation":7410,"Ġoverdistended":7411,"Ġmidtrachea":7412,"atoid":7413,"llate":7414,"uccessful":7415,"Ġhemopericardium":7416,"Ġintervals":7417,"monstrate":7418,"Ġsignify":7419,"Ġadd":7420,"Ġspe":7421,"Ġspines":7422,"Ġposttreatment":7423,"Ġconcerns":7424,"Ġprominant":7425,"Ġexpos":7426,"oste":7427,"Ġ36":7428,"existent":7429,"Ġdiffusion":7430,"Ġemphasis":7431,"Ġconfines":7432,"Ġconfidence":7433,"Ġsounds":7434,"Ġ45":7435,"Ġquick":7436,"Ġcome":7437,"Ġfurthermore":7438,"Ġfixed":7439,"Ġhip":7440,"wards":7441,"Ġsaber":7442,"erves":7443,"Ġinvasion":7444,"Ġhighlight":7445,"Ġabsol":7446,"Ġthymic":7447,"Ġbibasalar":7448,"idental":7449,"Ġascribed":7450,"Ġmanometer":7451,"Ġkyphoscoliosis":7452,"Ġsatisfactorily":7453,"Ġreduces":7454,"Ġdocumenting":7455,"Ġmanifest":7456,"Ġcontinuously":7457,"Ġsternoman":7458,"Ġattribute":7459,"ridement":7460,"Ġdiscontinuation":7461,"Ġformer":7462,"Ġintracranial":7463,"Ġturns":7464,"Ġplanned":7465,"Ġdecided":7466,"Ġstellate":7467,"Ġmasked":7468,"Ġpatency":7469,"Ġimpinges":7470,"Ġmuscles":7471,"Ġintralob":7472,"Ġangiogram":7473,"Ġdebridement":7474,"Ġissues":7475,"Ġreintubated":7476,"Ġaspergill":7477,"Ġemphasized":7478,"Ġunsuccessful":7479,"Ġpiercings":7480,"Ġcorrected":7481,"Ġconglomerate":7482,"Ġsubject":7483,"Ġdescription":7484,"Ġcorroborated":7485,"Ġcraniocaudal":7486,"Ġconcavity":7487,"Ġcontributory":7488,"Ġrheumatoid":7489,"Ġspiral":7490,"Ġoligemia":7491,"Ġnominal":7492,"Ġmedicine":7493,"Ġpleurex":7494,"Ġexuberant":7495,"Ġclearer":7496,"Ġexposures":7497,"arence":7498,"bling":7499,"cine":7500,"ctasis":7501,"mophy":7502,"median":7503,"opacity":7504,"tog":7505,"tran":7506,"trial":7507,"vulus":7508,"this":7509,"Ġavid":7510,"Ġspher":7511,"ering":7512,"Ġnothing":7513,"Ġinside":7514,"Ġintest":7515,"rit":7516,"Ġbow":7517,"untered":7518,"outh":7519,"Ġfli":7520,"Ġvac":7521,"Ġcardiop":7522,"Ġcharge":7523,"emic":7524,"itous":7525,"Ġcooper":7526,"phoid":7527,"Ġpropor":7528,"stinal":7529,"Ġenco":7530,"Ġpoly":7531,"Ġpager":7532,"Ġcontrol":7533,"Ġlift":7534,"ograms":7535,"Ġutility":7536,"owled":7537,"Ġoverlaying":7538,"Ġovernight":7539,"Ġcables":7540,"Ġaltog":7541,"renced":7542,"Ġmidway":7543,"ibit":7544,"Ġ28":7545,"mailed":7546,"Ġrecorder":7547,"xiphoid":7548,"Ġexplor":7549,"Ġackn":7550,"Ġtorsion":7551,"Ġverge":7552,"ĠĠĠĠĠ":7553,"Ġfolding":7554,"tectom":7555,"Ġadvis":7556,"Ġanywhere":7557,"Ġoutlines":7558,"Ġaccompanies":7559,"Ġfibronod":7560,"Ġindole":7561,"ointestinal":7562,"Ġdopp":7563,"Ġspecial":7564,"Ġdepth":7565,"Ġfrankly":7566,"Ġtreat":7567,"Ġmastectom":7568,"Ġconfirming":7569,"Ġeman":7570,"Ġgrade":7571,"Ġgravitation":7572,"timate":7573,"Ġreactions":7574,"Ġstrip":7575,"Ġdiminish":7576,"Ġkept":7577,"Ġsurrounds":7578,"Ġequivocally":7579,"Ġcoughing":7580,"pericardial":7581,"Ġcoalescing":7582,"Ġ--?":7583,"Ġfacing":7584,"interventional":7585,"Ġproduced":7586,"Ġhemopneumothorax":7587,"Ġbronchoalveolar":7588,"Ġpurposes":7589,"Ġurgently":7590,"Ġmeans":7591,"Ġassumes":7592,"Ġreferenced":7593,"thoracotomy":7594,"Ġflail":7595,"Ġtakeoff":7596,"subclavian":7597,"atitis":7598,"Ġpnue":7599,"Ġdischarged":7600,"Ġpancreatitis":7601,"Ġgetting":7602,"Ġprofound":7603,"Ġstraightened":7604,"Ġequally":7605,"Ġdebris":7606,"Ġresembling":7607,"Ġvarices":7608,"Ġappliances":7609,"Ġprotru":7610,"Ġinterruption":7611,"Ġvolvulus":7612,"Ġstricture":7613,"Ġrugger":7614,"Ġdeviating":7615,"Ġpassive":7616,"Ġtachycardia":7617,"Ġappearence":7618,"Ġsyndesmophy":7619,"Ġspeak":7620,"Ġabsolute":7621,"Ġsternomanub":7622,"Ġspherical":7623,"Ġproportional":7624,"Ġencountered":7625,"Ġaltogether":7626,"Ġacknowled":7627,"Ġfibronodular":7628,"Ġindolent":7629,"Ġmastectomies":7630,"Ġgravitational":7631,"bted":7632,"fi":7633,"ht":7634,"oesophageal":7635,"sal":7636,"tum":7637,"vement":7638,"Ġ>":7639,"Ġ\\":7640,"Ġ~":7641,"Ġum":7642,"Ġxiphoid":7643,"Ġaxi":7644,"alation":7645,"Ġcic":7646,"arget":7647,"orrect":7648,"Ġil":7649,"Ġild":7650,"Ġstero":7651,"ers":7652,"rimin":7653,"dient":7654,"unchanged":7655,"oubted":7656,"resh":7657,"uma":7658,"aned":7659,"Ġtarget":7660,"Ġhear":7661,"Ġfit":7662,"Ġcondu":7663,"nectomy":7664,"take":7665,"Ġsicu":7666,"ents":7667,"Ġreimaging":7668,"Ġduration":7669,"Ġloos":7670,"Ġorif":7671,"ters":7672,"anging":7673,"iting":7674,"Ġcoexistent":7675,"Ġproce":7676,"___.":7677,"Ġattest":7678,"Ġmoder":7679,"istered":7680,"Ġpaying":7681,"Ġability":7682,"Ġstump":7683,"Ġforms":7684,"Ġgap":7685,"otra":7686,"ached":7687,"Ġinfective":7688,"Ġretroperitoneal":7689,"Ġretrolisthesis":7690,"Ġcloth":7691,"ards":7692,"Ġassure":7693,"osternal":7694,"Ġnasointestinal":7695,"Ġelevate":7696,"Ġhepat":7697,"extubation":7698,"Ġcostosternal":7699,"Ġtext":7700,"Ġstandpoint":7701,"Ġtracheob":7702,"ulent":7703,"Ġcavo":7704,"lavicle":7705,"Ġarches":7706,"eries":7707,"Ġnotes":7708,"ceptible":7709,"Ġmalfunction":7710,"ginous":7711,"Ġfood":7712,"Ġincon":7713,"Ġdeviates":7714,"Ġgranulomatosis":7715,"Ġpathogen":7716,"Ġcommunic":7717,"Ġretract":7718,"lungs":7719,"Ġchoice":7720,"Ġbullectomy":7721,"Ġcephalic":7722,"Ġoriginates":7723,"Ġgradient":7724,"Ġfixations":7725,"Ġembolic":7726,"Ġduodenal":7727,"aryngeal":7728,"Ġstabilized":7729,"Ġconsequent":7730,"Ġinterpret":7731,"Ġmillimeter":7732,"Ġbronchopleural":7733,"Ġsupports":7734,"Ġendplates":7735,"Ġvirus":7736,"siform":7737,"Ġvariations":7738,"Ġchambers":7739,"Ġproduces":7740,"Ġtransiently":7741,"Ġpursued":7742,"Ġpurulent":7743,"Ġeffacing":7744,"Ġ(___)":7745,"Ġassume":7746,"Ġideally":7747,"Ġfusiform":7748,"Ġswallowing":7749,"Ġundoubted":7750,"Ġlaparotomy":7751,"approach":7752,"Ġpockets":7753,"aligned":7754,"Ġinsufficient":7755,"bronchograms":7756,"Ġneutropenia":7757,"Ġinhalation":7758,"Ġissue":7759,"Ġchecked":7760,"Ġdiaphysis":7761,"Ġgirdles":7762,"Ġanomaly":7763,"umonia":7764,"Ġselective":7765,"Ġaugmented":7766,"Ġanastomosis":7767,"Ġextravasation":7768,"Ġtechniques":7769,"Ġcomplaints":7770,"Ġfrequently":7771,"trans":7772,"Ġflipped":7773,"Ġcooperate":7774,"Ġemanating":7775,"Ġsternomanubrial":7776,"Ġacknowledged":7777,"Ġconduit":7778,"Ġloosening":7779,"Ġtracheobronch":7780,"Ġundoubtedly":7781,"--":7782,"base":7783,"deg":7784,"demar":7785,"for":7786,"fol":7787,"lined":7788,"lication":7789,"lind":7790,"mul":7791,"nodular":7792,"tch":7793,"xture":7794,"yst":7795,"inar":7796,"intubation":7797,"inatum":7798,"Ġtheright":7799,"arterial":7800,"size":7801,"len":7802,"tivity":7803,"tiocytosis":7804,"Ġsle":7805,"Ġlab":7806,"Ġintimal":7807,"Ġeluc":7808,"Ġmouth":7809,"Ġbun":7810,"Ġwa":7811,"ghorn":7812,"Ġflor":7813,"Ġconed":7814,"Ġconcave":7815,"tability":7816,"Ġdd":7817,"omet":7818,"Ġorph":7819,"bet":7820,"strate":7821,"Ġopaci":7822,"see":7823,"Ġdeci":7824,"Ġedges":7825,"ock":7826,"derma":7827,"raction":7828,"Ġprevi":7829,"Ġtill":7830,"Ġaller":7831,"Ġintrinsic":7832,"Ġlimb":7833,"Ġporcine":7834,"Ġstructural":7835,"Ġplaces":7836,"Ġplacing":7837,"Ġidentifying":7838,"Ġsignifying":7839,"Ġcallous":7840,"Ġapproved":7841,"urg":7842,"Ġdisposition":7843,"Ġdissec":7844,"Ġretrograde":7845,"Ġcarinatum":7846,"quing":7847,"Ġexpressed":7848,"Ġacce":7849,"Ġkap":7850,"Ġkub":7851,"Ġpatch":7852,"Ġintraoperative":7853,"infrahilar":7854,"Ġmedistinal":7855,"Ġstaghorn":7856,"exp":7857,"Ġtexture":7858,"coast":7859,"coiled":7860,"ximately":7861,"Ġrole":7862,"Ġpacemakers":7863,"Ġcoming":7864,"Ġoutp":7865,"Ġdifferentiated":7866,"Ġdeformed":7867,"Ġtranshepatic":7868,"Ġvalue":7869,"Ġperfusion":7870,"theli":7871,"Ġuptake":7872,"Ġtravel":7873,"Ġbiatrial":7874,"Ġaligns":7875,"Ġbronchiol":7876,"dish":7877,"Ġestimate":7878,"Ġobstructed":7879,"etermined":7880,"Ġincorrect":7881,"Ġrou":7882,"Ġrpo":7883,"Ġdevise":7884,"Ġplaquing":7885,"Ġdemonstrable":7886,"Ġcholecyst":7887,"Ġseptum":7888,"Ġapproaches":7889,"Ġaneurysmatic":7890,"Ġreadjustment":7891,"Ġrespond":7892,"Ġhrs":7893,"Ġjuxtaphrenic":7894,"abdomen":7895,"Ġsplenectomy":7896,"Ġfragmentation":7897,"Ġcavitations":7898,"Ġcoalition":7899,"Ġcylind":7900,"Ġstented":7901,"Ġbubbles":7902,"ocarditis":7903,"Ġradioopaque":7904,"Ġsizes":7905,"Ġdisprop":7906,"Ġdeposit":7907,"Ġcovers":7908,"Ġeffaced":7909,"Ġinferom":7910,"Ġadministered":7911,"Ġdisrupted":7912,"Ġfluctuations":7913,"Ġundetermined":7914,"Ġinteres":7915,"Ġinterest":7916,"Ġproblems":7917,"Ġthrombosis":7918,"Ġpredispose":7919,"Ġresembles":7920,"Ġdegraded":7921,"Ġdegrades":7922,"Ġstrands":7923,"Ġsurprisingly":7924,"Ġbarotra":7925,"Ġprecludes":7926,"Ġgirdle":7927,"Ġeliminated":7928,"hemorrhage":7929,"Ġosteolytic":7930,"Ġdelayed":7931,"Ġinversus":7932,"Ġbrus":7933,"Ġconstitute":7934,"Ġdislodged":7935,"after":7936,"pneumonectomy":7937,"Ġname":7938,"Ġmanipulation":7939,"Ġscleroderma":7940,"Ġpnuemonia":7941,"Ġsteroid":7942,"demarcated":7943,"Ġelucid":7944,"Ġflorid":7945,"Ġorphaned":7946,"Ġkaposi":7947,"Ġcholecystostomy":7948,"Ġcylindrical":7949,"Ġbarotrauma":7950,"basilar":7951,"bowel":7952,"cor":7953,"cement":7954,"cap":7955,"dose":7956,"face":7957,"hibit":7958,"iv":7959,"ket":7960,"kyph":7961,"lctasis":7962,"oke":7963,"ovenous":7964,"oalveolar":7965,"otheli":7966,"rates":7967,"wors":7968,"Ġumb":7969,"rex":7970,"rella":7971,"Ġprone":7972,"Ġtheupper":7973,"Ġsal":7974,"enker":7975,"enomen":7976,"Ġlanger":7977,"Ġinstinct":7978,"acy":7979,"Ġbal":7980,"Ġbac":7981,"Ġanemia":7982,"raluminal":7983,"Ġtom":7984,"Ġfused":7985,"Ġfecal":7986,"roi":7987,"Ġwiring":7988,"Ġpneumatosis":7989,"Ġvom":7990,"Ġvast":7991,"Ġsitus":7992,"Ġreevaluation":7993,"Ġdu":7994,"Ġdental":7995,"omf":7996,"Ġtool":7997,"edially":7998,"sist":7999,"chase":8000,"iton":8001,"Ġuncom":8002,"Ġseats":8003,"Ġcop":8004,"Ġbeam":8005,"Ġprompt":8006,"Ġexer":8007,"Ġturning":8008,"opneumothorax":8009,"Ġpreop":8010,"Ġford":8011,"Ġmidly":8012,"ssub":8013,"Ġagre":8014,"Ġimpact":8015,"Ġendocarditis":8016,"ibasilar":8017,"persed":8018,"Ġthorough":8019,"Ġthoraces":8020,"Ġminimum":8021,"Ġinterspersed":8022,"Ġapproval":8023,"Ġapproxi":8024,"pient":8025,"Ġspa":8026,"Ġsprea":8027,"Ġcarry":8028,"Ġparalyzed":8029,"Ġprominences":8030,"Ġsimulate":8031,"Ġpacking":8032,"Ġcord":8033,"Ġelevating":8034,"stand":8035,"Ġresolves":8036,"Ġverified":8037,"Ġprovides":8038,"Ġlocally":8039,"Ġconfo":8040,"Ġquo":8041,"Ġsubsegment":8042,"Ġfill":8043,"Ġzenker":8044,"Ġhernias":8045,"Ġquadrants":8046,"Ġtranssub":8047,"Ġnoncontrast":8048,"selves":8049,"amous":8050,"ectly":8051,"teria":8052,"Ġperfectly":8053,"Ġaccompl":8054,"Ġmineralization":8055,"Ġphenomen":8056,"Ġconfluenting":8057,"wered":8058,"Ġfails":8059,"Ġextraluminal":8060,"Ġdepends":8061,"note":8062,"Ġshadowing":8063,"Ġyi":8064,"roidectomy":8065,"Ġlumens":8066,"Ġredemonstrate":8067,"Ġsharper":8068,"mptomatic":8069,"Ġdiscrimin":8070,"Ġconvexed":8071,"ogenous":8072,"Ġhypotension":8073,"Ġdifferently":8074,"Ġhyperlucencies":8075,"lingular":8076,"Ġaccumulations":8077,"Ġvariety":8078,"Ġblurred":8079,"Ġobliqued":8080,"Ġmorphological":8081,"Ġsmoker":8082,"Ġfevers":8083,"Ġtaper":8084,"hans":8085,"vertebroplasty":8086,"Ġhistiocytosis":8087,"Ġradiolucencies":8088,"Ġconclusively":8089,"Ġpurchase":8090,"Ġpancoast":8091,"Ġthemselves":8092,"superi":8093,"Ġcrescent":8094,"ocyst":8095,"Ġconforming":8096,"subtle":8097,"Ġhemidiaphram":8098,"Ġmesotheli":8099,"Ġjudging":8100,"Ġsuperolaterally":8101,"Ġoverdistension":8102,"Ġvaricella":8103,"Ġachieved":8104,"bolic":8105,"Ġadhesion":8106,"Ġadhesions":8107,"Ġmixture":8108,"hemorrhagic":8109,"Ġimmunosuppression":8110,"Ġchondroid":8111,"Ġasymptomatic":8112,"Ġpalpable":8113,"Ġinadequately":8114,"Ġdeterioration":8115,"Ġconsultation":8116,"Ġopacifies":8117,"Ġmetabolic":8118,"Ġparticles":8119,"Ġchemoembol":8120,"Ġdisconnected":8121,"Ġbowing":8122,"Ġadvisable":8123,"Ġdiminishing":8124,"Ġcicatric":8125,"Ġddx":8126,"Ġallergic":8127,"Ġbronchioloalveolar":8128,"Ġinteresting":8129,"Ġbrushing":8130,"Ġumbrella":8131,"Ġlangerhans":8132,"Ġapproxima":8133,"Ġspreading":8134,"Ġtranssubclavian":8135,"Ġmesothelioma":8136,"Ġchemoembolization":8137,"ata":8138,"but":8139,"cortic":8140,"down":8141,"event":8142,"fic":8143,"guid":8144,"kin":8145,"lasia":8146,"oled":8147,"pin":8148,"stable":8149,"series":8150,"uem":8151,"induc":8152,"Ġppd":8153,"Ġphere":8154,"Ġpumon":8155,"Ġcll":8156,"arca":8157,"lets":8158,"Ġii":8159,"edullary":8160,"Ġom":8161,"Ġiscoiled":8162,"asarca":8163,"Ġinstruc":8164,"Ġeas":8165,"Ġmental":8166,"accum":8167,"Ġbol":8168,"union":8169,"Ġanasarca":8170,"ulsion":8171,"Ġtack":8172,"Ġtold":8173,"Ġho":8174,"iliar":8175,"Ġlean":8176,"ratch":8177,"angi":8178,"Ġunidentified":8179,"tuse":8180,"tuitous":8181,"Ġcompressions":8182,"Ġcolectomy":8183,"Ġprol":8184,"Ġ___/":8185,"Ġatelctasis":8186,"etal":8187,"Ġeng":8188,"Ġpooled":8189,"Ġsilou":8190,"Ġconsolidate":8191,"Ġmodi":8192,"dering":8193,"Ġcontributed":8194,"tening":8195,"Ġinterventricular":8196,"Ġcompares":8197,"Ġstates":8198,"Ġvigor":8199,"Ġprevertebral":8200,"Ġfortuitous":8201,"Ġgain":8202,"Ġgot":8203,"Ġsubstrate":8204,"Ġmidnight":8205,"Ġ___.___":8206,"romegaly":8207,"Ġobtuse":8208,"omyel":8209,"alloping":8210,"Ġrecover":8211,"Ġcalculus":8212,"Ġdisk":8213,"cardiomediastinal":8214,"Ġscratch":8215,"Ġscalloping":8216,"ostic":8217,"ionella":8218,"Ġremoving":8219,"Ġactivity":8220,"Ġatria":8221,"Ġarr":8222,"Ġaspirations":8223,"Ġverify":8224,"Ġ35":8225,"Ġstations":8226,"Ġthicker":8227,"Ġsurgically":8228,"Ġoutward":8229,"Ġfills":8230,"Ġ55":8231,"bilateral":8232,"Ġseconds":8233,"Ġtransition":8234,"Ġnonunion":8235,"amiliar":8236,"Ġtranscutaneous":8237,"Ġperforated":8238,"ologically":8239,"curv":8240,"itoneum":8241,"Ġhyperextended":8242,"Ġunfav":8243,"Ġneural":8244,"leton":8245,"Ġvagus":8246,"Ġthyromegaly":8247,"dism":8248,"Ġrefers":8249,"Ġreferred":8250,"Ġescap":8251,"Ġfocused":8252,"Ġredemonstrates":8253,"Ġsenile":8254,"Ġskeleton":8255,"Ġoriginally":8256,"Ġacromial":8257,"ordin":8258,"Ġreducing":8259,"Ġdiscomf":8260,"Ġcorrespondingly":8261,"Ġnarrows":8262,"Ġfiducials":8263,"Ġresponded":8264,"Ġindications":8265,"Ġblebectomy":8266,"Ġstimulators":8267,"Ġglobally":8268,"Ġmorphologic":8269,"caliber":8270,"Ġcoalesced":8271,"Ġdepict":8272,"Ġcannulation":8273,"Ġsooner":8274,"Ġhyperdensities":8275,"Ġpenetrating":8276,"Ġanatomically":8277,"given":8278,"Ġparallels":8279,"Ġbbs":8280,"Ġproductive":8281,"Ġ#___":8282,"Ġbreathing":8283,"mildly":8284,"Ġimmune":8285,"Ġintermediate":8286,"Ġresorbed":8287,"Ġreversal":8288,"Ġspans":8289,"Ġmidclavicle":8290,"Ġexpectoration":8291,"Ġcreates":8292,"Ġundulation":8293,"Ġundulating":8294,"approximately":8295,"thyroidectomy":8296,"Ġptbd":8297,"Ġbreaks":8298,"Ġpnuem":8299,"Ġanswered":8300,"Ġcompromis":8301,"Ġjudged":8302,"Ġpeaking":8303,"Ġaspergil":8304,"impro":8305,"Ġadipose":8306,"ouching":8307,"Ġintramedullary":8308,"Ġdistribute":8309,"Ġsillouette":8310,"Ġsquamous":8311,"Ġlegionella":8312,"Ġopacitiy":8313,"aidi":8314,"diagnostic":8315,"Ġwhee":8316,"Ġincipient":8317,"Ġchilaidi":8318,"Ġsilhoutte":8319,"Ġquickly":8320,"Ġintestines":8321,"Ġclothing":8322,"Ġcommunicate":8323,"Ġmillimeters":8324,"better":8325,"Ġdisproportion":8326,"roidism":8327,"Ġvomiting":8328,"Ġuncommon":8329,"Ġyield":8330,"superior":8331,"Ġcicatricial":8332,"corticated":8333,"eventration":8334,"guided":8335,"induced":8336,"Ġpheresis":8337,"Ġbolus":8338,"Ġtacks":8339,"Ġvigorous":8340,"Ġdiscomfort":8341,"amin":8342,"bral":8343,"city":8344,"clavicular":8345,"fre":8346,"fied":8347,"fety":8348,"hosis":8349,"ired":8350,"lty":8351,"mary":8352,"pred":8353,"pus":8354,"part":8355,"ports":8356,"rhosis":8357,"sa":8358,"stent":8359,"she":8360,"stim":8361,"sug":8362,"utive":8363,"inosis":8364,"onary":8365,"Ġccu":8366,"Ġcrac":8367,"Ġnative":8368,"tition":8369,"Ġomitted":8370,"Ġing":8371,"Ġmatter":8372,"did":8373,"ousity":8374,"umothorax":8375,"ulous":8376,"anced":8377,"anket":8378,"Ġtable":8379,"Ġtag":8380,"Ġhide":8381,"Ġfun":8382,"roax":8383,"icir":8384,"neck":8385,"Ġthereafter":8386,"raph":8387,"rame":8388,"Ġreli":8389,"Ġreevaluate":8390,"Ġrenew":8391,"Ġresist":8392,"Ġdro":8393,"Ġdem":8394,"Ġload":8395,"cho":8396,"turation":8397,"Ġcounts":8398,"Ġbelong":8399,"cutive":8400,"Ġsilic":8401,"Ġexhibit":8402,"Ġapper":8403,"ocentric":8404,"ocrit":8405,"Ġrare":8406,"Ġabd":8407,"Ġradiotherapy":8408,"ographically":8409,"Ġlateralization":8410,"Ġalve":8411,"Ġpercei":8412,"Ġperceptible":8413,"Ġgu":8414,"otumor":8415,"Ġwhole":8416,"gmata":8417,"ticulation":8418,"Ġhemithyroidectomy":8419,"delen":8420,"Ġ26":8421,"Ġposteromedial":8422,"Ġsignfic":8423,"Ġdefine":8424,"Ġinfected":8425,"Ġretrospec":8426,"Ġassump":8427,"Ġprominance":8428,"quency":8429,"Ġexpand":8430,"Ġshunting":8431,"Ġcandid":8432,"Ġjuxt":8433,"Ġacinar":8434,"Ġtortous":8435,"Ġmarks":8436,"Ġpatulous":8437,"Ġbronchocentric":8438,"Ġcorpus":8439,"Ġhesi":8440,"Ġmedias":8441,"Ġundersur":8442,"Ġsomeone":8443,"Ġperio":8444,"Ġsupplement":8445,"Ġblanket":8446,"Ġsole":8447,"Ġ40":8448,"Ġstigmata":8449,"Ġinsult":8450,"Ġinspected":8451,"Ġstreaking":8452,"Ġcombine":8453,"athyroidism":8454,"tuber":8455,"Ġlymphovenous":8456,"Ġnoncardiac":8457,"Ġnonobstructive":8458,"Ġnondiagnostic":8459,"Ġtransfi":8460,"ectomies":8461,"Ġsafety":8462,"Ġsemicir":8463,"Ġnearby":8464,"Ġpresuming":8465,"Ġpersistant":8466,"Ġillness":8467,"Ġgeographically":8468,"Ġspeck":8469,"Ġgasless":8470,"tains":8471,"Ġmarrow":8472,"Ġleftwards":8473,"Ġranging":8474,"Ġseeing":8475,"Ġredevelop":8476,"Ġrespects":8477,"Ġobservations":8478,"Ġgenerators":8479,"Ġadequacy":8480,"Ġalternati":8481,"Ġdiscretely":8482,"oscope":8483,"Ġhrct":8484,"Ġdiminutive":8485,"promin":8486,"Ġcirrhosis":8487,"Ġvalvuloplasty":8488,"Ġjuxtamediastinal":8489,"Ġstimulation":8490,"Ġmisalignment":8491,"body":8492,"Ġcarcinoid":8493,"Ġconsequently":8494,"Ġconsecutive":8495,"Ġcoincide":8496,"Ġlymphangitis":8497,"Ġislands":8498,"Ġcriteria":8499,"Ġimpactions":8500,"Ġsponge":8501,"Ġradiofre":8502,"serted":8503,"Ġhandful":8504,"Ġdiscontinuous":8505,"Ġdiscordant":8506,"hancement":8507,"Ġpseudocyst":8508,"Ġproducts":8509,"Ġinterfaces":8510,"Ġdisplaying":8511,"Ġcartila":8512,"possi":8513,"Ġpanlobular":8514,"Ġwaned":8515,"Ġwaxed":8516,"calcific":8517,"thoracocentesis":8518,"Ġfluctuated":8519,"Ġmarginating":8520,"Ġcoupled":8521,"Ġneurostim":8522,"Ġmanubrial":8523,"Ġmycobac":8524,"Ġindependent":8525,"Ġleukemic":8526,"Ġdemarcation":8527,"fibrotic":8528,"Ġpna":8529,"Ġthrombus":8530,"Ġencas":8531,"Ġbarrel":8532,"Ġconcealed":8533,"Ġargues":8534,"Ġthymoma":8535,"Ġhematocrit":8536,"Ġanswering":8537,"formation":8538,"Ġuncoiled":8539,"Ġosteolysis":8540,"Ġinadequate":8541,"Ġtransmitting":8542,"Ġinfluen":8543,"Ġcomplicating":8544,"marked":8545,"slightly":8546,"Ġpneumothroax":8547,"Ġtrendelen":8548,"Ġintralobar":8549,"Ġaspergillosis":8550,"Ġcardiopul":8551,"Ġprotruding":8552,"Ġsyndesmophytes":8553,"Ġaxial":8554,"Ġillu":8555,"Ġbundles":8556,"Ġdissecting":8557,"worsening":8558,"Ġphenomenon":8559,"Ġpumonary":8560,"Ġleaning":8561,"omyelitis":8562,"Ġpnuemothorax":8563,"Ġaspergillus":8564,"Ġwheezing":8565,"Ġrenewed":8566,"Ġperceived":8567,"Ġsignficant":8568,"Ġassumption":8569,"Ġundersurface":8570,"Ġtransfix":8571,"Ġsemicircular":8572,"Ġalternatives":8573,"Ġradiofrequency":8574,"Ġneurostimulator":8575,".\"":8576,"avid":8577,"bone":8578,"burg":8579,"bibasilar":8580,"cc":8581,"df":8582,"ef":8583,"emp":8584,"elec":8585,"erence":8586,"gkin":8587,"iric":8588,"ietal":8589,"jd":8590,"lli":8591,"mur":8592,"ns":8593,"prior":8594,"ror":8595,"stage":8596,"ups":8597,"za":8598,"Ġ__":8599,"ins":8600,"Ġpl":8601,"Ġtheore":8602,"Ġcr":8603,"arach":8604,"teinosis":8605,"ori":8606,"orra":8607,"orable":8608,"Ġimpres":8609,"Ġnet":8610,"tiple":8611,"edded":8612,"Ġson":8613,"Ġsate":8614,"Ġsend":8615,"esta":8616,"Ġincomp":8617,"Ġmk":8618,"Ġml":8619,"Ġmur":8620,"ribe":8621,"acath":8622,"Ġwatch":8623,"Ġhod":8624,"Ġfasc":8625,"Ġconge":8626,"Ġconcent":8627,"iling":8628,"Ġvide":8629,"Ġthereby":8630,"rain":8631,"Ġpleurally":8632,"Ġreappearance":8633,"Ġdail":8634,"Ġdjd":8635,"olic":8636,"Ġununited":8637,"Ġsees":8638,"estration":8639,"pacities":8640,"lecystectomy":8641,"cell":8642,"Ġproteinosis":8643,"seous":8644,"Ġdecreases":8645,"Ġcomposite":8646,"Ġatele":8647,"Ġpoore":8648,"Ġexud":8649,"Ġmovement":8650,"ogens":8651,"Ġpap":8652,"Ġpaired":8653,"opleural":8654,"Ġradial":8655,"minant":8656,"Ġlobect":8657,"Ġpreferen":8658,"gestive":8659,"Ġalle":8660,"lux":8661,"Ġga":8662,"Ġgent":8663,"Ġremove":8664,"atsis":8665,"Ġinfor":8666,"Ġ___..":8667,"Ġhemorra":8668,"Ġendoscope":8669,"Ġsliding":8670,"Ġbasally":8671,"Ġminim":8672,"mative":8673,"trode":8674,"Ġdeflection":8675,"vices":8676,"Ġexclusive":8677,"Ġdisappearance":8678,"Ġspil":8679,"Ġspoon":8680,"cardial":8681,"cardiomegaly":8682,"Ġparticul":8683,"Ġparietal":8684,"Ġregular":8685,"Ġcanted":8686,"Ġacdf":8687,"Ġintraabdominal":8688,"Ġhyperpar":8689,"Ġhypertrans":8690,"Ġprovider":8691,"Ġmedius":8692,"Ġexamine":8693,"Ġgrounds":8694,"examin":8695,"Ġportacath":8696,"Ġengorgment":8697,"Ġscarred":8698,"Ġpresternal":8699,"Ġcollp":8700,"moan":8701,"mosis":8702,"oblastic":8703,"Ġcompressing":8704,"Ġgives":8705,"Ġconference":8706,"mesis":8707,"Ġsideports":8708,"Ġindivid":8709,"Ġindisting":8710,"Ġconstric":8711,"Ġinstability":8712,"loaded":8713,"Ġbackwards":8714,"undancy":8715,"Ġfulminant":8716,"ameral":8717,"terium":8718,"terized":8719,"terization":8720,"Ġthoracoscopy":8721,"Ġswans":8722,"Ġinvoke":8723,"Ġinvolution":8724,"Ġdevelopments":8725,"Ġdevelopmental":8726,"Ġneu":8727,"Ġosteoblastic":8728,"Ġavm":8729,"distention":8730,"Ġrightwards":8731,"Ġrind":8732,"surgery":8733,"Ġefforts":8734,"apati":8735,"Ġascribe":8736,"Ġsubdiaphragmatically":8737,"Ġdoctor":8738,"Ġplating":8739,"Ġpathogens":8740,"Ġphysicians":8741,"Ġfell":8742,"Ġbulges":8743,"Ġdextrocardia":8744,"Ġdextrocurv":8745,"Ġembedded":8746,"culous":8747,"Ġgroundglass":8748,"Ġplethoric":8749,"Ġintroducing":8750,"Ġlordosis":8751,"Ġcontinually":8752,"Ġtented":8753,"Ġuncertainty":8754,"Ġnarrower":8755,"Ġundergoing":8756,"Ġhypoinflation":8757,"prob":8758,"Ġhydroxy":8759,"Ġosteopor":8760,"metry":8761,"Ġradiological":8762,"Ġlymphangi":8763,"Ġaneurysmally":8764,"Ġtunnel":8765,"trapping":8766,"Ġcannulate":8767,"Ġbronchopneumonic":8768,"Ġmedullary":8769,"uishable":8770,"Ġparasternal":8771,"Ġatelecatsis":8772,"Ġdecide":8773,"hyth":8774,"Ġinterventions":8775,"Ġhollow":8776,"Ġcharacteristics":8777,"Ġcomplexity":8778,"hydro":8779,"Ġcompensation":8780,"Ġreverses":8781,"Ġflare":8782,"Ġpractition":8783,"bronchi":8784,"bronchoscopy":8785,"Ġredo":8786,"Ġredundancy":8787,"Ġjustif":8788,"jejunal":8789,"Ġinfradiaphragmatic":8790,"Ġjudge":8791,"Ġencased":8792,"Ġerosion":8793,"Ġguidance":8794,"Ġintense":8795,"Ġargu":8796,"Ġunstable":8797,"Ġimmunosuppressed":8798,"Ġaugmentation":8799,"Ġthermal":8800,"Ġpalpation":8801,"Ġdistributes":8802,"Ġlaminectomies":8803,"Ġspacers":8804,"Ġflushed":8805,"calcifications":8806,"Ġunchaged":8807,"Ġstripes":8808,"Ġumbil":8809,"Ġhepatomegaly":8810,"Ġtracheobronchoplasty":8811,"expand":8812,"Ġoutput":8813,"Ġpromptly":8814,"Ġagreed":8815,"Ġaccomplished":8816,"Ġtapering":8817,"Ġunfavorable":8818,"Ġchilaiditi":8819,"predominant":8820,"Ġfundic":8821,"cholecystectomy":8822,"Ġapperance":8823,"Ġalveolitis":8824,"Ġhesitate":8825,"tuberculous":8826,"Ġspeckled":8827,"Ġmycobacterium":8828,"Ġinfluenza":8829,"Ġtrendelenburg":8830,"llite":8831,"Ġtheoretically":8832,"Ġsatellite":8833,"Ġmurmur":8834,"Ġhodgkin":8835,"Ġdaily":8836,"Ġpoorer":8837,"Ġexudate":8838,"Ġlobectomies":8839,"Ġexclusively":8840,"Ġhyperparathyroidism":8841,"Ġcollpase":8842,"Ġindistinguishable":8843,"apatite":8844,"Ġdextrocurvature":8845,"Ġhydroxyapatite":8846,"Ġpractitioner":8847,"bus":8848,"centric":8849,"cally":8850,"dual":8851,"fu":8852,"hr":8853,"however":8854,"linear":8855,"patoce":8856,"sation":8857,"ster":8858,"ude":8859,"vol":8860,"ylo":8861,"zen":8862,"Ġ________________________________":8863,"thecal":8864,"inclu":8865,"allower":8866,"Ġcited":8867,"arter":8868,"lesion":8869,"Ġili":8870,"Ġniss":8871,"tile":8872,"Ġsear":8873,"Ġsort":8874,"Ġopd":8875,"Ġlu":8876,"Ġlul":8877,"Ġisch":8878,"Ġnocardia":8879,"especially":8880,"rious":8881,"acardiac":8882,"Ġbuc":8883,"unding":8884,"reso":8885,"Ġtace":8886,"Ġtribut":8887,"ghb":8888,"Ġfx":8889,"ros":8890,"Ġrij":8891,"Ġvas":8892,"Ġvns":8893,"Ġled":8894,"Ġthereto":8895,"idation":8896,"Ġret":8897,"Ġdup":8898,"oming":8899,"Ġchild":8900,"Ġcharach":8901,"terstitial":8902,"itude":8903,"Ġunchn":8904,"Ġcoc":8905,"Ġopacifying":8906,"Ġdet":8907,"Ġatelectais":8908,"Ġencomp":8909,"Ġenhancement":8910,"ogr":8911,"Ġdiast":8912,"oplication":8913,"Ġintern":8914,"vial":8915,"lies":8916,"Ġoverdose":8917,"Ġpreprocedure":8918,"Ġpretracheal":8919,"Ġcaud":8920,"Ġperistent":8921,"Ġperitoneum":8922,"Ġgj":8923,"Ġgone":8924,"Ġgrid":8925,"therapy":8926,"Ġwegen":8927,"utum":8928,"Ġenlargment":8929,"atypical":8930,"ticula":8931,"ssoming":8932,"llular":8933,"Ġbutton":8934,"Ġosh":8935,"tiform":8936,"Ġcathe":8937,"devices":8938,"Ġ27":8939,"Ġ29":8940,"Ġposteri":8941,"Ġhapp":8942,"Ġreflux":8943,"using":8944,"Ġrespiration":8945,"Ġfront":8946,"Ġsputum":8947,"Ġclincal":8948,"Ġparameter":8949,"Ġexplic":8950,"Ġshock":8951,"Ġshallower":8952,"osal":8953,"Ġsurger":8954,"Ġtortuousity":8955,"Ġarticulation":8956,"Ġintrapleural":8957,"Ġintrathecal":8958,"Ġbronchio":8959,"psulated":8960,"Ġhepatoce":8961,"Ġ33":8962,"Ġsubstances":8963,"Ġunderside":8964,"Ġstamp":8965,"extensive":8966,"Ġdistant":8967,"Ġteh":8968,"Ġtether":8969,"Ġdens":8970,"mental":8971,"Ġmultichannel":8972,"obli":8973,"Ġdraw":8974,"Ġsuperimpos":8975,"Ġinfiltrating":8976,"Ġdeserves":8977,"Ġ52":8978,"Ġ58":8979,"lover":8980,"Ġlayered":8981,"Ġesophagitis":8982,"Ġsomewhere":8983,"Ġlymphomatous":8984,"Ġnonag":8985,"Ġtransthoracic":8986,"Ġtransmitted":8987,"Ġindicator":8988,"Ġphoned":8989,"Ġshifts":8990,"Ġpulm":8991,"Ġfailing":8992,"Ġunfamiliar":8993,"deform":8994,"Ġconvincingly":8995,"Ġgeomet":8996,"ginated":8997,"again":8998,"agraph":8999,"Ġmarginates":9000,"Ġfatty":9001,"Ġwedged":9002,"Ġhydrone":9003,"trace":9004,"Ġconfirmatory":9005,"Ġsyno":9006,"Ġfundoplication":9007,"Ġsepta":9008,"Ġdextroscoliotic":9009,"Ġcorresponded":9010,"location":9011,"Ġchains":9012,"lumbar":9013,"Ġdislocations":9014,"flowing":9015,"lingula":9016,"______":9017,"Ġstabilizing":9018,"Ġpelves":9019,"Ġblossoming":9020,"Ġtemporal":9021,"Ġneighb":9022,"assessment":9023,"Ġantral":9024,"Ġosteochondrom":9025,"Ġsuffers":9026,"Ġcannulating":9027,"Ġempiric":9028,"Ġseeming":9029,"Ġsummary":9030,"______________":9031,"Ġtapping":9032,"Ġdiscerned":9033,"Ġfacet":9034,"Ġhousesta":9035,"Ġcomments":9036,"Ġconcluded":9037,"Ġmagnitude":9038,"Ġcompleted":9039,"Ġpseudotumor":9040,"Ġoperated":9041,"Ġoperating":9042,"overlying":9043,"Ġdifferentiating":9044,"Ġflotation":9045,"Ġnephrou":9046,"inflammation":9047,"Ġjejunostomy":9048,"Ġconnec":9049,"Ġsteep":9050,"Ġbifid":9051,"Ġentra":9052,"Ġingestion":9053,"Ġcutoff":9054,"Ġobliterate":9055,"Ġhemodynamics":9056,"Ġlentiform":9057,"Ġtiming":9058,"shadow":9059,"Ġhypoxemia":9060,"Ġquantification":9061,"Ġabruptly":9062,"Ġfusions":9063,"Ġulcer":9064,"Ġunderex":9065,"Ġclosures":9066,"Ġmatching":9067,"Ġhairpin":9068,"Ġdiverticula":9069,"Ġcapsulated":9070,"Ġmammogram":9071,"Ġbiopsies":9072,"Ġinhomogeneous":9073,"Ġbecoming":9074,"Ġsillhouette":9075,"Ġstarted":9076,"masses":9077,"Ġpenumonia":9078,"Ġpenumothorax":9079,"marginated":9080,"Ġreinserted":9081,"Ġargue":9082,"Ġpregnant":9083,"Ġprecluding":9084,"Ġremodeled":9085,"Ġthymus":9086,"Ġthymectomy":9087,"Ġhematogenous":9088,"______________________________________________":9089,"Ġuncoiling":9090,"Ġpresumptive":9091,"Ġpresumptively":9092,"Ġbrought":9093,"Ġconsulted":9094,"Ġsillouhette":9095,"Ġmeasurements":9096,"Ġflush":9097,"Ġslighly":9098,"Ġshorter":9099,"Ġhypodense":9100,"Ġexpanders":9101,"Ġcubitus":9102,"osteal":9103,"Ġexploratory":9104,"Ġspeaks":9105,"Ġabsolutely":9106,"Ġopacites":9107,"Ġtravels":9108,"Ġroux":9109,"kyphoplasty":9110,"Ġsaline":9111,"Ġtomography":9112,"Ġspares":9113,"Ġinterestingly":9114,"Ġomr":9115,"Ġrecoverable":9116,"Ġescapes":9117,"Ġresistance":9118,"Ġsilicone":9119,"Ġjuxtacardiac":9120,"Ġsolely":9121,"Ġillust":9122,"empyema":9123,"electrode":9124,"Ġsonogram":9125,"Ġvideo":9126,"Ġpapillary":9127,"Ġpreferentially":9128,"Ġminimize":9129,"Ġspillover":9130,"Ġparticulary":9131,"moanry":9132,"Ġindividual":9133,"Ġfellow":9134,"sternotomy":9135,"Ġ______________________________________________________________________________":9136,"Ġiliac":9137,"Ġnissen":9138,"Ġbuck":9139,"Ġchildhood":9140,"Ġencompass":9141,"Ġwegener":9142,"Ġexplicit":9143,"Ġsurgeries":9144,"Ġhepatocellular":9145,"Ġnonaggressive":9146,"Ġhydroneph":9147,"Ġosteochondromatosis":9148,"Ġhousestaff":9149,"):":9150,"+/":9151,"?)":9152,"aff":9153,"ady":9154,"aiton":9155,"bri":9156,"bow":9157,"dec":9158,"esis":9159,"ece":9160,"etence":9161,"flex":9162,"im":9163,"log":9164,"lide":9165,"mor":9166,"med":9167,"mediastinum":9168,"ounds":9169,"rary":9170,"sue":9171,"ulectomy":9172,"zrd":9173,"Ġ]":9174,"Ġ+/":9175,"inder":9176,"inop":9177,"onuc":9178,"Ġamp":9179,"Ġaut":9180,"Ġthro":9181,"Ġplus":9182,"Ġpouch":9183,"Ġplastic":9184,"Ġcig":9185,"arder":9186,"tip":9187,"eded":9188,"Ġostomy":9189,"ense":9190,"Ġlup":9191,"Ġlisted":9192,"ese":9193,"Ġinactive":9194,"Ġeve":9195,"Ġease":9196,"Ġmra":9197,"riac":9198,"rise":9199,"ritory":9200,"acrom":9201,"Ġbrache":9202,"Ġbold":9203,"unar":9204,"under":9205,"oured":9206,"Ġwing":9207,"Ġwent":9208,"Ġward":9209,"Ġangular":9210,"Ġaneur":9211,"resection":9212,"ans":9213,"Ġhomogen":9214,"Ġrising":9215,"ilation":9216,"icially":9217,"lymph":9218,"Ġva":9219,"Ġveter":9220,"Ġvalu":9221,"Ġsit":9222,"month":9223,"enting":9224,"Ġreappeared":9225,"Ġdub":9226,"omas":9227,"Ġloading":9228,"Ġoro":9229,"chf":9230,"Ġunrec":9231,"tur":9232,"turing":9233,"ears":9234,"physi":9235,"sto":9236,"Ġopacific":9237,"Ġcompact":9238,"Ġcompelling":9239,"Ġconsult":9240,"Ġexc":9241,"Ġexlu":9242,"Ġexpi":9243,"Ġexterior":9244,"Ġexperi":9245,"Ġmoreso":9246,"istence":9247,"Ġpaper":9248,"Ġeval":9249,"Ġradionuc":9250,"Ġuzrd":9251,"Ġstone":9252,"Ġstones":9253,"Ġpreci":9254,"geon":9255,"Ġperhilar":9256,"Ġperme":9257,"renal":9258,"Ġsubcu":9259,"atte":9260,"atly":9261,"ssed":9262,"Ġcomparative":9263,"Ġcongestions":9264,"Ġimplying":9265,"Ġjunc":9266,"Ġobese":9267,"Ġbaso":9268,"levation":9269,"Ġrecru":9270,"Ġctpa":9271,"uscular":9272,"Ġrests":9273,"piginous":9274,"Ġretrotracheal":9275,"Ġclas":9276,"Ġworth":9277,"soft":9278,"Ġparathy":9279,"Ġregressing":9280,"osterior":9281,"Ġmarket":9282,"Ġnasal":9283,"Ġintratracheal":9284,"Ġcorpect":9285,"Ġelevates":9286,"Ġfluidopneumothorax":9287,"Ġunderline":9288,"Ġgroove":9289,"Ġassessable":9290,"Ġabdominop":9291,"Ġperihepatic":9292,"Ġperiosteal":9293,"cosis":9294,"Ġlocate":9295,"Ġcollar":9296,"Ġangled":9297,"Ġtracheoesophageal":9298,"Ġfollowups":9299,"mothorax":9300,"obi":9301,"Ġdevelops":9302,"please":9303,"Ġobserves":9304,"Ġbladder":9305,"Ġgrew":9306,"Ġconfusing":9307,"Ġdescend":9308,"Ġlessened":9309,"Ġhim":9310,"ticularly":9311,"Ġaccidental":9312,"Ġfuller":9313,"Ġnonenlarged":9314,"Ġtransposition":9315,"Ġtransformation":9316,"Ġsamp":9317,"terostomy":9318,"barrel":9319,"Ġsemis":9320,"Ġsemierect":9321,"Ġdistending":9322,"Ġhistoplas":9323,"Ġelbow":9324,"Ġreplaces":9325,"Ġlingulectomy":9326,"lerated":9327,"respon":9328,"Ġaxis":9329,"Ġscanned":9330,"Ġuploaded":9331,"Ġcharacterizing":9332,"Ġgastrectomy":9333,"Ġabsor":9334,"Ġabscence":9335,"Ġextrac":9336,"sitis":9337,"Ġosteomyelitis":9338,"Ġbend":9339,"Ġmargination":9340,"Ġmeth":9341,"Ġmeet":9342,"Ġdiagnose":9343,"Ġmasking":9344,"Ġluminal":9345,"Ġextremities":9346,"Ġretractile":9347,"Ġbielectrode":9348,"Ġfebri":9349,"Ġaxillae":9350,"Ġexternally":9351,"Ġeventually":9352,"Ġtriang":9353,"indeterminant":9354,"Ġattached":9355,"elvic":9356,"Ġembolized":9357,"lucent":9358,"penetration":9359,"penetrated":9360,"Ġextrapulmonary":9361,"Ġextraordin":9362,"Ġreticulated":9363,"Ġpushing":9364,"Ġelective":9365,"Ġmisplaced":9366,"Ġplueral":9367,"Ġscapulae":9368,"Ġcircumflex":9369,"Ġplugs":9370,"Ġscreening":9371,"Ġdishis":9372,"Ġlooked":9373,"Ġexplanations":9374,"Ġinfarctions":9375,"pericardi":9376,".___.":9377,"Ġlevo":9378,"ference":9379,"Ġcrisis":9380,"Ġseroma":9381,"Ġserpiginous":9382,"Ġfacil":9383,"Ġcoverage":9384,"Ġoccluding":9385,"Ġsequestration":9386,"Ġpursue":9387,"Ġconsist":9388,"Ġimportantly":9389,"Ġpreferred":9390,"posing":9391,"Ġfluoro":9392,"Ġ(___).":9393,"Ġ(___),":9394,"Ġbifurcations":9395,"Ġcirculating":9396,"Ġosteoarthritic":9397,"Ġerror":9398,"Ġflap":9399,"Ġswallowed":9400,"Ġimpingement":9401,"Ġoccasions":9402,"Ġburst":9403,"Ġqueried":9404,"tomas":9405,"Ġtears":9406,"Ġinferolaterally":9407,"Ġassymetry":9408,"Ġmicrocalcifications":9409,"suprahilar":9410,"Ġultimate":9411,"Ġthrombosed":9412,"within":9413,"development":9414,"Ġterritory":9415,"Ġpredisposes":9416,"Ġpredisposing":9417,"tracheostomy":9418,"Ġbottle":9419,"Ġcompany":9420,"Ġintensive":9421,"Ġpreventing":9422,"Ġanomalous":9423,"Ġpresumption":9424,"patchy":9425,"Ġadip":9426,"Ġlaminectomy":9427,"Ġanastomotic":9428,"Ġsquare":9429,"Ġslighlty":9430,"Ġposteroinferior":9431,"Ġmodestly":9432,"Ġcurious":9433,"Ġrendered":9434,"Ġaddressed":9435,"Ġhighlights":9436,"Ġhighlighting":9437,"Ġexploration":9438,"Ġdoppler":9439,"degree":9440,"Ġsleeve":9441,"Ġwaist":9442,"Ġaccelerated":9443,"Ġinferomedial":9444,"Ġconfounding":9445,"Ġeasy":9446,"Ġsilouhette":9447,"Ġmodified":9448,"Ġgotten":9449,"improved":9450,"partum":9451,"Ġexpands":9452,"Ġcandidate":9453,"Ġmediastium":9454,"Ġredevelopment":9455,"prominent":9456,"Ġcartilaginous":9457,"possibly":9458,"Ġencasing":9459,"Ġtransfixing":9460,"Ġ_____":9461,"oriented":9462,"Ġimpressive":9463,"Ġcongesion":9464,"Ġconcentrated":9465,"probably":9466,"including":9467,"Ġsearch":9468,"Ġduplicated":9469,"Ġunchnaged":9470,"Ġdetached":9471,"Ġcatheterization":9472,"Ġparameters":9473,"Ġtethering":9474,"Ġgeometric":9475,"Ġneighboring":9476,"Ġnephroureteral":9477,"Ġexplicitly":9478,"Ġhydronephrosis":9479,"Ġ+/-":9480,"Ġcigare":9481,"Ġlupus":9482,"Ġbracheo":9483,"Ġexpired":9484,"Ġradionuclide":9485,"Ġcorpectomy":9486,"Ġabdominopelvic":9487,"Ġhistoplasmosis":9488,"Ġfebrile":9489,"Ġextraordinarily":9490,"ae":9491,"bid":9492,"centimeter":9493,"cillary":9494,"dr":9495,"een":9496,"eff":9497,"elevation":9498,"fir":9499,"fication":9500,"hema":9501,"hge":9502,"iw":9503,"iac":9504,"ius":9505,"lot":9506,"lidation":9507,"my":9508,"na":9509,"nes":9510,"pulsion":9511,"stion":9512,"sta":9513,"spic":9514,"spaces":9515,"vated":9516,"xpansion":9517,"zes":9518,"Ġ&":9519,"inous":9520,"onal":9521,"onged":9522,"Ġace":9523,"Ġame":9524,"Ġaler":9525,"Ġthumb":9526,"Ġthirds":9527,"Ġthresh":9528,"alse":9529,"Ġplasty":9530,"Ġcd":9531,"Ġcast":9532,"Ġcere":9533,"Ġcases":9534,"arm":9535,"ars":9536,"arse":9537,"lear":9538,"leration":9539,"leman":9540,"organ":9541,"Ġitems":9542,"tie":9543,"tity":9544,"Ġspite":9545,"Ġserve":9546,"Ġland":9547,"Ġincre":9548,"Ġevery":9549,"Ġebus":9550,"Ġmut":9551,"Ġmat":9552,"Ġmam":9553,"rist":9554,"riform":9555,"unfol":9556,"oura":9557,"Ġwron":9558,"Ġwounds":9559,"Ġwrist":9560,"Ġancillary":9561,"uli":9562,"ull":9563,"uliar":9564,"anterior":9565,"Ġtum":9566,"Ġtng":9567,"Ġtouching":9568,"ghted":9569,"atemesis":9570,"Ġfan":9571,"Ġfaces":9572,"Ġfalse":9573,"malign":9574,"rog":9575,"illa":9576,"iliac":9577,"icu":9578,"icit":9579,"net":9580,"Ġthereof":9581,"monary":9582,"Ġcardipulmonary":9583,"Ġleftsided":9584,"Ġredist":9585,"Ġready":9586,"Ġder":9587,"Ġdot":9588,"Ġdump":9589,"emed":9590,"axillary":9591,"axilla":9592,"Ġlot":9593,"Ġornam":9594,"anges":9595,"angement":9596,"chair":9597,"Ġuninter":9598,"astinal":9599,"Ġseeding":9600,"phy":9601,"phone":9602,"Ġ___\"":9603,"sequent":9604,"Ġdeal":9605,"Ġdeemed":9606,"Ġcomputed":9607,"hour":9608,"Ġcardiomedi":9609,"Ġenvi":9610,"Ġenca":9611,"Ġexistence":9612,"Ġasd":9613,"Ġask":9614,"Ġaspira":9615,"Ġmoving":9616,"Ġdiasta":9617,"Ġpaging":9618,"Ġpaget":9619,"Ġcontrary":9620,"Ġabpa":9621,"oposterior":9622,"tened":9623,"Ġinterrog":9624,"Ġure":9625,"Ġupp":9626,"Ġstop":9627,"iferative":9628,"ifies":9629,"liar":9630,"lioration":9631,"Ġbilob":9632,"Ġovershadow":9633,"Ġtight":9634,"Ġstud":9635,"Ġcable":9636,"Ġpersi":9637,"Ġpercent":9638,"Ġweak":9639,"Ġsubm":9640,"Ġaggra":9641,"Ġimplies":9642,"Ġhematemesis":9643,"lace":9644,"Ġaorto":9645,"Ġjp":9646,"Ġairtrapping":9647,"Ġairspaces":9648,"diaphragms":9649,"Ġrefel":9650,"Ġidentity":9651,"Ġreflections":9652,"opharyngeal":9653,"Ġapprox":9654,"Ġrectal":9655,"Ġstoma":9656,"Ġcalcif":9657,"Ġcalculi":9658,"Ġspring":9659,"Ġretropulsion":9660,"cardiophrenic":9661,"Ġworking":9662,"soid":9663,"Ġscaff":9664,"Ġasses":9665,"Ġsimulated":9666,"osseous":9667,"Ġsurround":9668,"Ġsurgeon":9669,"Ġacid":9670,"Ġpace":9671,"Ġdiseases":9672,"Ġatriobi":9673,"Ġfreely":9674,"Ġarc":9675,"Ġintragastric":9676,"Ġdiffering":9677,"Ġfluids":9678,"infar":9679,"Ġundertaken":9680,"Ġunderstand":9681,"Ġsometime":9682,"external":9683,"Ġdistraction":9684,"Ġperidiaphragmatic":9685,"compression":9686,"Ġsupposed":9687,"Ġhill":9688,"Ġtracheoplasty":9689,"Ġovertly":9690,"pleuro":9691,"Ġapproximates":9692,"tations":9693,"Ġ42":9694,"Ġinsterstitial":9695,"Ġcurl":9696,"Ġfix":9697,"Ġcrown":9698,"Ġpacers":9699,"incidental":9700,"pseud":9701,"upine":9702,"lobe":9703,"loyed":9704,"Ġmultifocality":9705,"Ġpigtails":9706,"Ġhiatial":9707,"Ġnonacute":9708,"Ġnonresolving":9709,"Ġnonhemorrhagic":9710,"Ġtransped":9711,"Ġsave":9712,"Ġpassage":9713,"Ġswe":9714,"Ġminus":9715,"Ġhardly":9716,"Ġshiel":9717,"Ġinvading":9718,"Ġ60":9719,"Ġnecklace":9720,"Ġpredates":9721,"Ġinvoluted":9722,"Ġfibrill":9723,"Ġindistinctly":9724,"week":9725,"adenopathy":9726,"atorily":9727,"Ġentired":9728,"Ġtram":9729,"ropathy":9730,"Ġoption":9731,"Ġfoal":9732,"Ġfoley":9733,"Ġforesh":9734,"Ġazygoesophageal":9735,"question":9736,"Ġrate":9737,"Ġprospec":9738,"apular":9739,"Ġ(#":9740,"Ġdifferentials":9741,"Ġirri":9742,"Ġoffset":9743,"Ġorigins":9744,"Ġoriginate":9745,"Ġoriginated":9746,"Ġsupracardiac":9747,"Ġhematomas":9748,"Ġdisplacements":9749,"airspace":9750,"Ġdelineating":9751,"Ġinsertions":9752,"sym":9753,"elchair":9754,"Ġhypoxic":9755,"Ġhypovolemia":9756,"Ġmorbid":9757,"projec":9758,"Ġcontemp":9759,"contu":9760,"Ġaccumulate":9761,"Ġpeculiar":9762,"Ġdesire":9763,"emergently":9764,"Ġpedicles":9765,"Ġthinning":9766,"Ġregards":9767,"Ġrotatory":9768,"layed":9769,"Ġsecretary":9770,"infiltrates":9771,"assessed":9772,"ĠĠĠĠĠĠĠĠĠĠĠĠĠĠĠĠĠĠĠĠĠĠĠĠĠĠĠĠĠĠĠĠĠĠĠĠĠĠĠĠĠĠĠĠĠĠĠĠĠĠĠĠĠĠĠĠĠĠĠĠĠĠĠĠĠĠĠĠĠĠĠ":9773,"Ġreticulo":9774,"Ġclarity":9775,"Ġechocardiographic":9776,"Ġempty":9777,"Ġpacks":9778,"Ġorgans":9779,"Ġorganization":9780,"sertion":9781,"Ġparaaortic":9782,"Ġhomogeneously":9783,"Ġligation":9784,"Ġdiagnosable":9785,"Ġateleca":9786,"Ġcarotids":9787,"Ġasthmatic":9788,"Ġdeposited":9789,"Ġellipsoid":9790,"Ġimplantation":9791,"rophic":9792,"Ġpageable":9793,"Ġtransit":9794,"Ġrequesting":9795,"arthrosis":9796,"Ġjejunal":9797,"Ġconnect":9798,"Ġpseudoarthrosis":9799,"Ġconsisted":9800,"opathies":9801,"Ġclusters":9802,"Ġfemur":9803,"Ġmeaning":9804,"Ġeasier":9805,"Ġcompensatorily":9806,"bile":9807,"Ġfungus":9808,"Ġobliterans":9809,"Ġcrest":9810,"Ġtimed":9811,"partial":9812,"particularly":9813,"Ġfudic":9814,"Ġcreation":9815,"Ġcreated":9816,"Ġ___:___.":9817,"Ġneurolog":9818,"Ġlobulations":9819,"Ġmeniscoid":9820,"Ġsuctioning":9821,"Ġsurvey":9822,"Ġmatched":9823,"Ġnineth":9824,"Ġtranslucent":9825,"Ġmammilation":9826,"Ġperifocal":9827,"Ġleukemia":9828,"Ġbreakage":9829,"Ġinjection":9830,"Ġmesenteric":9831,"Ġparacentesis":9832,"Ġdifficulties":9833,"Ġencoura":9834,"Ġstepoff":9835,"Ġinhaled":9836,"Ġmyocardium":9837,"Ġreconstructive":9838,"Ġreoccurred":9839,"Ġdysplasia":9840,"imaged":9841,"Ġapplied":9842,"Ġtendonitis":9843,"Ġselected":9844,"Ġpneu":9845,"Ġpnemothorax":9846,"Ġinterrupted":9847,"Ġcorrection":9848,"Ġexcessively":9849,"Ġsuddenly":9850,"Ġdeteriorated":9851,"Ġintramural":9852,"Ġtransmits":9853,"Ġinfluence":9854,"Ġdislodgement":9855,"Ġcentering":9856,"Ġconnections":9857,"aired":9858,"Ġconversation":9859,"Ġcomplicates":9860,"Ġwheelchair":9861,"Ġdatabase":9862,"Ġtrend":9863,"Ġformally":9864,"Ġrender":9865,"Ġintralobular":9866,"Ġaspergilloma":9867,"Ġpolyangi":9868,"Ġattests":9869,"Ġmoderatly":9870,"Ġinconsistent":9871,"follow":9872,"multiple":9873,"Ġdecision":9874,"Ġprevios":9875,"Ġacceleration":9876,"Ġinferomedially":9877,"Ġnamely":9878,"Ġsteroids":9879,"Ġelucidate":9880,"corre":9881,"Ġbalanced":9882,"standard":9883,"Ġdiscriminate":9884,"Ġapproximating":9885,"Ġapproximatively":9886,"Ġinstructed":9887,"accumulated":9888,"Ġprolonged":9889,"Ġcompromising":9890,"Ġdisproportionate":9891,"sheath":9892,"Ġcrack":9893,"Ġateletasis":9894,"Ġinformative":9895,"Ġhemorrahge":9896,"examined":9897,"Ġconstrictive":9898,"bronchiectasis":9899,"Ġjustification":9900,"fusions":9901,"Ġtributaries":9902,"rosthesis":9903,"Ġcharachterized":9904,"Ġdiastolic":9905,"Ġcaudally":9906,"Ġsuperimposing":9907,"Ġsynovial":9908,"Ġentrapped":9909,"Ġillustrated":9910,"Ġthroat":9911,"Ġaneursym":9912,"Ġdubious":9913,"Ġunrecogn":9914,"turbed":9915,"physiologic":9916,"Ġpermeability":9917,"Ġjuncture":9918,"Ġclassic":9919,"Ġparathyroid":9920,"Ġsampling":9921,"Ġsemisupine":9922,"Ġadiposity":9923,"Ġcigarette":9924,"Ġbracheocephalic":9925,"Ġamelioration":9926,"unfolded":9927,"Ġwrong":9928,"Ġfalsely":9929,"malignancy":9930,"Ġornamentation":9931,"Ġenviron":9932,"Ġencapsulated":9933,"Ġdiastasis":9934,"Ġaggravated":9935,"Ġatriobiventricular":9936,"pleurodesis":9937,"Ġtranspedic":9938,"Ġfibrillation":9939,"Ġforeshor":9940,"Ġfudicial":9941,"Ġpolyangiitis":9942,",?":9943,"/___":9944,":.":9945,"aps":9946,"bs":9947,"bul":9948,"bular":9949,"border":9950,"bacterial":9951,"car":9952,"ctation":9953,"cology":9954,"cord":9955,"cences":9956,"dged":9957,"eu":9958,"frac":9959,"frame":9960,"gs":9961,"gy":9962,"gragm":9963,"hist":9964,"ian":9965,"ipper":9966,"ky":9967,"lme":9968,"mteric":9969,"mart":9970,"ni":9971,"nod":9972,"ota":9973,"pon":9974,"plic":9975,"rual":9976,"rusion":9977,"rub":9978,"sar":9979,"sor":9980,"sent":9981,"tant":9982,"uished":9983,"urative":9984,"wo":9985,"Ġ*":9986,"thac":9987,"internal":9988,"Ġaro":9989,"Ġavi":9990,"Ġarise":9991,"repositioning":9992,"Ġpes":9993,"Ġpedi":9994,"Ġpure":9995,"Ġcpa":9996,"arl":9997,"silar":9998,"siton":9999,"leb":10000,"orac":10001,"oratory":10002,"oradi":10003,"Ġnj":10004,"Ġnuc":10005,"tio":10006,"tili":10007,"titis":10008,"ede":10009,"Ġsch":10010,"ended":10011,"enerative":10012,"Ġls":10013,"Ġlpo":10014,"esthe":10015,"Ġinward":10016,"Ġintention":10017,"Ġeft":10018,"Ġefusion":10019,"Ġmall":10020,"Ġmand":10021,"riel":10022,"ings":10023,"inger":10024,"diaph":10025,"dilection":10026,"action":10027,"Ġbrac":10028,"Ġbise":10029,"Ġbring":10030,"Ġbending":10031,"Ġbanding":10032,"Ġwomen":10033,"Ġanky":10034,"Ġanesthe":10035,"umed":10036,"Ġtl":10037,"Ġtric":10038,"Ġhar":10039,"Ġhop":10040,"Ġhence":10041,"Ġhug":10042,"Ġhope":10043,"Ġfast":10044,"Ġfain":10045,"Ġframe":10046,"roke":10047,"rocal":10048,"robed":10049,"Ġrig":10050,"Ġconern":10051,"Ġconcord":10052,"Ġwit":10053,"Ġrightsided":10054,"Ġlet":10055,"Ġplerual":10056,"Ġsihouet":10057,"monas":10058,"Ġrew":10059,"Ġrecur":10060,"Ġretains":10061,"Ġdw":10062,"Ġdose":10063,"Ġdrop":10064,"Ġdominating":10065,"Ġdressing":10066,"olation":10067,"olds":10068,"omach":10069,"omedial":10070,"Ġchart":10071,"Ġtoe":10072,"emas":10073,"Ġlodged":10074,"Ġoropharyngeal":10075,"chi":10076,"chron":10077,"itate":10078,"Ġunre":10079,"Ġunchange":10080,"Ġundiagn":10081,"Ġcoun":10082,"pharynx":10083,"ceeding":10084,"Ġprom":10085,"stomach":10086,"cual":10087,"segmental":10088,"Ġdelete":10089,"Ġcompre":10090,"Ġens":10091,"Ġenterostomy":10092,"Ġpop":10093,"Ġconsolidaiton":10094,"iability":10095,"ocol":10096,"ocative":10097,"Ġmobile":10098,"ogonal":10099,"Ġdiag":10100,"Ġdivision":10101,"Ġcontrain":10102,"Ġlist":10103,"Ġonto":10104,"Ġray":10105,"Ġpneumoniae":10106,"oprosthesis":10107,"Ġevocative":10108,"tency":10109,"Ġradiogr":10110,"Ġinterbody":10111,"aine":10112,"Ġutili":10113,"Ġstress":10114,"Ġstroke":10115,"Ġlaterality":10116,"visible":10117,"lim":10118,"ligi":10119,"lighted":10120,"Ġbilaterality":10121,"Ġpredilection":10122,"Ġtib":10123,"ronically":10124,"Ġforam":10125,"Ġcadi":10126,"Ġalters":10127,"keletal":10128,"adjusted":10129,"Ġweb":10130,"Ġsubs":10131,"Ġsubacrom":10132,"Ġwhy":10133,"atin":10134,"aton":10135,"Ġinfrac":10136,"outside":10137,"Ġimper":10138,"Ġimpending":10139,"Ġimpair":10140,"Ġendoprosthesis":10141,"Ġ___,,":10142,"tifact":10143,"Ġcathter":10144,"gns":10145,"Ġexager":10146,"del":10147,"Ġhamm":10148,"Ġhamart":10149,"Ġsignal":10150,"Ġsignifies":10151,"Ġcalf":10152,"omyomatosis":10153,"Ġdeflated":10154,"Ġadmitted":10155,"Ġdisorgan":10156,"Ġdisrobed":10157,"Ġspare":10158,"Ġsparse":10159,"Ġsplayed":10160,"Ġretroperitoneum":10161,"Ġretrocardial":10162,"Ġscant":10163,"gesting":10164,"Ġpostpyloric":10165,"Ġpostthoracotomy":10166,"Ġpostpartum":10167,"reexpansion":10168,"Ġboarder":10169,"Ġpossibl":10170,"quarter":10171,"Ġexpense":10172,"Ġshunts":10173,"osa":10174,"oskeletal":10175,"Ġatrius":10176,"Ġlining":10177,"Ġhypertensive":10178,"Ġverses":10179,"psed":10180,"Ġheaded":10181,"Ġ31":10182,"Ġundersto":10183,"Ġstab":10184,"Ġgroin":10185,"Ġsuppression":10186,"Ġsuppurative":10187,"Ġnowhere":10188,"Ġclipping":10189,"Ġpersisten":10190,"Ġmultilobular":10191,"Ġmultiplic":10192,"Ġcold":10193,"Ġcolitis":10194,"Ġcontinuity":10195,"moth":10196,"Ġbasalar":10197,"Ġsubcorac":10198,"mea":10199,"Ġ41":10200,"Ġ44":10201,"Ġ46":10202,"placement":10203,"Ġresidue":10204,"Ġinfiltrated":10205,"Ġwidens":10206,"Ġdisplace":10207,"Ġveteb":10208,"Ġveiw":10209,"Ġinstitu":10210,"Ġoutlined":10211,"Ġfilament":10212,"Ġzipper":10213,"Ġ50":10214,"Ġ57":10215,"Ġ500":10216,"Ġnodularities":10217,"lobectomy":10218,"Ġlysis":10219,"Ġaccident":10220,"eresis":10221,"Ġsupras":10222,"Ġsecondarily":10223,"amediastinal":10224,"Ġtransver":10225,"Ġafterwards":10226,"Ġtimeframe":10227,"Ġmets":10228,"Ġsaw":10229,"Ġdoboff":10230,"Ġperforming":10231,"Ġaccompany":10232,"Ġminnes":10233,"suspected":10234,"Ġ..":10235,"Ġinvolute":10236,"Ġmedialization":10237,"Ġcomplaint":10238,"ception":10239,"Ġunfused":10240,"thetic":10241,"Ġlymphadenop":10242,"Ġlymphadenopathies":10243,"views":10244,"Ġindenting":10245,"Ġhighest":10246,"Ġhighlighted":10247,"Ġconfigurations":10248,"risk":10249,"Ġtrabe":10250,"Ġbowels":10251,"drain":10252,"ropath":10253,"Ġoptic":10254,"Ġopened":10255,"Ġavulsion":10256,"Ġmethy":10257,"dislocation":10258,"Ġgenerous":10259,"Ġcorrespondence":10260,"Ġphysiological":10261,"Ġcommented":10262,"Ġdictate":10263,"Ġrcc":10264,"Ġeffaces":10265,"Ġforearm":10266,"Ġpathcy":10267,"Ġcommunity":10268,"Ġbiv":10269,"Ġbipolar":10270,"Ġinsert":10271,"Ġconspicious":10272,"Ġartificially":10273,"Ġeventual":10274,"rylate":10275,"Ġapproached":10276,"Ġcoarctation":10277,"Ġcolonoscopy":10278,"culoskeletal":10279,"Ġmateriel":10280,"Ġrecurrently":10281,"Ġhypochond":10282,"oscopically":10283,"Ġfarr":10284,"arian":10285,"Ġbecame":10286,"otherwise":10287,"Ġpyogenic":10288,"cavitary":10289,"Ġrepairs":10290,"cinosis":10291,"Ġstimulating":10292,"Ġeccentric":10293,"apped":10294,"apparent":10295,"Ġseparating":10296,"oplasties":10297,"Ġpush":10298,"Ġmye":10299,"Ġdetector":10300,"Ġmiss":10301,"esophagectomy":10302,"Ġmucosal":10303,"Ġcircumference":10304,"Ġtrunc":10305,"Ġpellets":10306,"Ġinterpreting":10307,"Ġmorphologically":10308,"Ġrequirement":10309,"Ġaffor":10310,"Ġsecretion":10311,"Ġovarian":10312,".___,":10313,"Ġstenotic":10314,"aditi":10315,"just":10316,"Ġvariability":10317,"Ġwetness":10318,"Ġosteochondroma":10319,"trauma":10320,"Ġbridge":10321,"Ġclarifying":10322,"Ġradiopacities":10323,"Ġorganism":10324,"Ġepihilar":10325,"Ġorthogonal":10326,"Ġstrikingly":10327,"Ġdistinguished":10328,"Ġdistinguishable":10329,"Ġnegligi":10330,"Ġgeneralize":10331,"Ġsays":10332,"Ġepiglot":10333,"Ġairlessness":10334,"Ġatelecasis":10335,"blunting":10336,"Ġelectronically":10337,"Ġurge":10338,"Ġurged":10339,"Ġoutermost":10340,"Ġattempting":10341,"Ġdecending":10342,"Ġpseudomonas":10343,"hyper":10344,"Ġtransplan":10345,"Ġfibrocalcific":10346,"graph":10347,"grams":10348,"Ġsteps":10349,"Ġleakage":10350,"Ġmicronodularity":10351,"Ġaspirate":10352,"medial":10353,"Ġreaccumulate":10354,"Ġpancreas":10355,"Ġsupraaortic":10356,"Ġevacuate":10357,"Ġductal":10358,"Ġlends":10359,"Ġpericardiotomy":10360,"Ġbrachytherapy":10361,"Ġreverted":10362,"Ġreversible":10363,"Ġknees":10364,"Ġmusculoskeletal":10365,"partially":10366,"paramediastinal":10367,"Ġflame":10368,"Ġcrescenteric":10369,"Ġfuther":10370,"Ġcreate":10371,"Ġoptimum":10372,"Ġlaparoscopy":10373,"Ġsubtotally":10374,"Ġbraid":10375,"Ġmechanism":10376,"Ġbelieved":10377,"Ġadjusting":10378,"Ġascertained":10379,"subsequent":10380,"Ġvisibly":10381,"pelvic":10382,"Ġpiece":10383,"Ġputting":10384,"Ġinadvertently":10385,"Ġpredisposition":10386,"bedded":10387,"Ġcementoplasty":10388,"Ġtilting":10389,"Ġinstruments":10390,"Ġpins":10391,"Ġintentional":10392,"Ġpreclude":10393,"Ġeliminate":10394,"Ġanomalies":10395,"portable":10396,"imposed":10397,"Ġprotrusion":10398,"Ġmaximally":10399,"Ġpnemonia":10400,"Ġimbedded":10401,"Ġbasilic":10402,"Ġbasically":10403,"Ġseizures":10404,"Ġspontaneously":10405,"Ġlabel":10406,"Ġconglomeration":10407,"Ġchondrocal":10408,"Ġasymetric":10409,"Ġsubjective":10410,"Ġstrict":10411,"Ġcorrobor":10412,"Ġaaa":10413,"Ġconverted":10414,"Ġdisorders":10415,"Ġequalization":10416,"Ġconceals":10417,"Ġshortening":10418,"Ġhypodensities":10419,"Ġoccurs":10420,"Ġdisconnection":10421,"Ġincision":10422,"Ġeversion":10423,"Ġchiladiti":10424,"Ġvacated":10425,"Ġprofoundly":10426,"Ġsyndesmophyte":10427,"Ġspeaking":10428,"Ġproceed":10429,"Ġproceeds":10430,"Ġmoderated":10431,"degenerative":10432,"Ġlaboratory":10433,"Ġpatches":10434,"Ġincorrectly":10435,"Ġroute":10436,"Ġelucidated":10437,"Ġbalance":10438,"Ġduo":10439,"Ġconfounded":10440,"Ġzenkers":10441,"Ġsmokers":10442,"Ġinstructions":10443,"accumulating":10444,"Ġhook":10445,"Ġarrhyth":10446,"Ġcompromises":10447,"suggestive":10448,"Ġdrooping":10449,"Ġrarely":10450,"Ġretrospective":10451,"Ġretrospectively":10452,"Ġperiods":10453,"Ġcardiopulmoanry":10454,"Ġplural":10455,"Ġincompetence":10456,"Ġwatching":10457,"Ġfascia":10458,"Ġgentleman":10459,"Ġhypertranslucent":10460,"Ġosteoporosis":10461,"Ġarguing":10462,"Ġcocaine":10463,"Ġstamped":10464,"oblique":10465,"Ġseemingly":10466,"Ġunderexposed":10467,"Ġbuckshot":10468,"morl":10469,"Ġauto":10470,"Ġexluded":10471,"Ġbasoapical":10472,"Ġrecrudes":10473,"pericardiotomy":10474,"hematoma":10475,"Ġthreshold":10476,"Ġmutli":10477,"Ġmammoth":10478,"Ġtumors":10479,"Ġaspirating":10480,"Ġbilobed":10481,"Ġpersisi":10482,"Ġweakness":10483,"Ġrefelct":10484,"Ġfixating":10485,"Ġminuscule":10486,"Ġentiredly":10487,"Ġemptying":10488,"Ġatelecatasis":10489,"Ġunrecognized":10490,"Ġenvironmental":10491,"Ġtranspedicular":10492,"apsular":10493,"borderline":10494,"history":10495,"lmethac":10496,"Ġpediatric":10497,"Ġnuclear":10498,"Ġschmorl":10499,"Ġmandatory":10500,"Ġbisegmentectomy":10501,"Ġhopes":10502,"Ġhugging":10503,"Ġfainter":10504,"Ġutilizing":10505,"Ġforamen":10506,"Ġsubacromial":10507,"Ġhammer":10508,"Ġhamartomas":10509,"Ġunderstood":10510,"Ġmultiplicity":10511,"Ġsubcoracoid":10512,"Ġvetebral":10513,"Ġminnesota":10514,"Ġmethylmethac":10515,"Ġhypochondriac":10516,"Ġnegligible":10517,"Ġchondrocalcinosis":10518,"Ġmethylmethacrylate":10519,"./":10520,".).":10521,".),":10522,"??":10523,"ah":10524,"aturation":10525,"bac":10526,"big":10527,"cri":10528,"cli":10529,"could":10530,"cial":10531,"centu":10532,"clin":10533,"clip":10534,"central":10535,"ete":10536,"eps":10537,"evid":10538,"fac":10539,"four":10540,"fted":10541,"from":10542,"free":10543,"gate":10544,"gam":10545,"gshe":10546,"hen":10547,"has":10548,"ie":10549,"ier":10550,"ision":10551,"iro":10552,"isis":10553,"ive":10554,"iment":10555,"ites":10556,"jp":10557,"ks":10558,"lf":10559,"lad":10560,"lsy":10561,"lphone":10562,"mb":10563,"mediastin":10564,"mis":10565,"may":10566,"nding":10567,"nary":10568,"niotic":10569,"ox":10570,"oar":10571,"oic":10572,"oly":10573,"oax":10574,"oir":10575,"ounded":10576,"oaneurysm":10577,"opacities":10578,"pres":10579,"pet":10580,"present":10581,"ptive":10582,"pina":10583,"pore":10584,"ported":10585,"pnea":10586,"qe":10587,"rt":10588,"rasc":10589,"shou":10590,"sten":10591,"td":10592,"tan":10593,"toscoliosis":10594,"ught":10595,"ust":10596,"vo":10597,"var":10598,"vessel":10599,"wden":10600,"zones":10601,"Ġ)":10602,"that":10603,"int":10604,"ince":10605,"increase":10606,"insertion":10607,"Ġample":10608,"resi":10609,"ream":10610,"resia":10611,"Ġthre":10612,"also":10613,"Ġpil":10614,"Ġphe":10615,"Ġplaying":10616,"Ġpjp":10617,"Ġcul":10618,"Ġcentesis":10619,"arp":10620,"arte":10621,"arded":10622,"arison":10623,"arment":10624,"arcer":10625,"arcoma":10626,"six":10627,"sicu":10628,"oroid":10629,"orpore":10630,"Ġight":10631,"tih":10632,"tiss":10633,"tibility":10634,"Ġsought":10635,"Ġsbo":10636,"Ġobe":10637,"Ġoss":10638,"enia":10639,"encing":10640,"Ġlax":10641,"Ġlat":10642,"Ġisn":10643,"Ġnose":10644,"Ġinterior":10645,"Ġej":10646,"Ġeth":10647,"Ġmegaly":10648,"rix":10649,"rieval":10650,"diffu":10651,"digns":10652,"Ġbor":10653,"Ġbuckle":10654,"Ġbinder":10655,"Ġbears":10656,"unless":10657,"mpted":10658,"oulsy":10659,"Ġwtih":10660,"Ġante":10661,"ressions":10662,"anticipated":10663,"Ġtand":10664,"Ġtrial":10665,"Ġtry":10666,"Ġtapped":10667,"Ġhome":10668,"Ġhcc":10669,"atelecta":10670,"Ġfro":10671,"Ġfind":10672,"roach":10673,"rounded":10674,"Ġrigh":10675,"Ġconven":10676,"ilunar":10677,"icus":10678,"Ġves":10679,"Ġvocal":10680,"Ġvad":10681,"Ġplex":10682,"Ġsid":10683,"Ġcardiology":10684,"Ġreen":10685,"Ġreloc":10686,"Ġreinflation":10687,"Ġreexpand":10688,"Ġdh":10689,"Ġdx":10690,"Ġdri":10691,"Ġdanger":10692,"Ġdht":10693,"Ġches":10694,"Ġchylo":10695,"Ġchoroid":10696,"Ġpneumocon":10697,"angitic":10698,"its":10699,"itting":10700,"Ġunin":10701,"Ġunsure":10702,"Ġundra":10703,"Ġundis":10704,"Ġundisplaced":10705,"Ġuntre":10706,"Ġunsh":10707,"Ġunrespon":10708,"Ġunanticipated":10709,"tup":10710,"tuous":10711,"Ġsetup":10712,"Ġcoexi":10713,"Ġcoag":10714,"Ġcopy":10715,"Ġcoordin":10716,"Ġcowden":10717,"bered":10718,"phragm":10719,"estard":10720,"pacification":10721,"veci":10722,"Ġprotrac":10723,"stream":10724,"cuitous":10725,"cussed":10726,"___,":10727,"Ġ___),":10728,"sep":10729,"Ġdetrac":10730,"Ġcompli":10731,"Ġcompounded":10732,"Ġlowre":10733,"Ġconsent":10734,"Ġconstitution":10735,"Ġconslidation":10736,"Ġedmea":10737,"iad":10738,"Ġatresia":10739,"Ġexostosis":10740,"ococ":10741,"Ġmobility":10742,"Ġmotor":10743,"Ġpare":10744,"Ġcontracted":10745,"Ġcontoured":10746,"Ġabduc":10747,"opy":10748,"oplasia":10749,"tenance":10750,"Ġradigraph":10751,"Ġintercurrent":10752,"Ġcompatibility":10753,"crete":10754,"Ġuter":10755,"Ġuper":10756,"Ġstre":10757,"Ġstring":10758,"Ġstart":10759,"Ġlateralized":10760,"Ġlateralizing":10761,"viding":10762,"vise":10763,"viated":10764,"lied":10765,"Ġprepon":10766,"Ġpreceeding":10767,"Ġtilt":10768,"Ġforce":10769,"ldef":10770,"Ġcad":10771,"Ġcame":10772,"Ġalth":10773,"Ġalter":10774,"Ġperis":10775,"asix":10776,"Ġger":10777,"Ġgarment":10778,"gedly":10779,"adjustment":10780,"otrex":10781,"Ġsubhilar":10782,"Ġsubsc":10783,"Ġwhic":10784,"Ġwhom":10785,"Ġmidlevel":10786,"Ġmidpoint":10787,"atley":10788,"Ġinfil":10789,"Ġinferi":10790,"inii":10791,"remia":10792,"roma":10793,"Ġcomparably":10794,"Ġcomparision":10795,"Ġbutt":10796,"Ġunremak":10797,"Ġagree":10798,"Ġhemos":10799,"Ġendole":10800,"Ġendoscopy":10801,"Ġendarte":10802,"Ġostia":10803,"persistent":10804,"heal":10805,"herent":10806,"Ġjiro":10807,"Ġreproduc":10808,"Ġrepaired":10809,"deline":10810,"demonstrate":10811,"Ġlinea":10812,"Ġposter":10813,"Ġreform":10814,"mature":10815,"Ġsigned":10816,"Ġrecede":10817,"Ġdeficient":10818,"Ġfracturing":10819,"Ġresto":10820,"Ġreserv":10821,"Ġadvise":10822,"Ġdisuse":10823,"Ġspinous":10824,"Ġclou":10825,"Ġclock":10826,"Ġcari":10827,"Ġcart":10828,"Ġcarinii":10829,"Ġpostbiopsy":10830,"Ġbounded":10831,"Ġparad":10832,"Ġparagraph":10833,"Ġexplo":10834,"Ġexpression":10835,"Ġsuperposition":10836,"osarcoma":10837,"Ġcanula":10838,"Ġaction":10839,"Ġkind":10840,"Ġprobability":10841,"ortant":10842,"Ġnasopharynx":10843,"Ġintrabronchial":10844,"Ġworsens":10845,"Ġcords":10846,"Ġenlargements":10847,"Ġwashou":10848,"Ġ34":10849,"Ġ38":10850,"Ġetc":10851,"Ġmediast":10852,"Ġunderling":10853,"Ġstay":10854,"Ġstasis":10855,"Ġstating":10856,"Ġstatis":10857,"andrant":10858,"Ġcostoph":10859,"Ġdistort":10860,"Ġtes":10861,"Ġtech":10862,"Ġperilesion":10863,"Ġpressed":10864,"Ġclimb":10865,"Ġlocating":10866,"Ġinternally":10867,"Ġcollateral":10868,"Ġevaluable":10869,"Ġtracheomegaly":10870,"Ġrecommened":10871,"Ġcontinuation":10872,"ribing":10873,"Ġemphysematic":10874,"mming":10875,"Ġsuperimpose":10876,"Ġsubclavicular":10877,"Ġsubcapsular":10878,"Ġtracts":10879,"Ġ47":10880,"Ġdesaturation":10881,"Ġquandrant":10882,"Ġcomes":10883,"Ġcrowds":10884,"Ġdescent":10885,"Ġtechnician":10886,"Ġcombinations":10887,"Ġoverloaded":10888,"Ġsections":10889,"Ġbackboard":10890,"Ġfulfil":10891,"Ġnonactive":10892,"Ġnonunited":10893,"Ġnoncharacteristic":10894,"Ġnoninfectious":10895,"Ġnontuberculous":10896,"Ġnonstandard":10897,"Ġtranscri":10898,"Ġdiscussing":10899,"olith":10900,"Ġneces":10901,"Ġperfused":10902,"Ġtodays":10903,"Ġsemilunar":10904,"Ġphys":10905,"gani":10906,"Ġ66":10907,"Ġpredating":10908,"Ġpresumable":10909,"Ġtwice":10910,"fully":10911,"Ġlingering":10912,"Ġmaintains":10913,"Ġmaintenance":10914,"pretable":10915,"well":10916,"Ġmalplaced":10917,"Ġindents":10918,"pirator":10919,"Ġillicit":10920,"latz":10921,"Ġjoining":10922,"Ġupstream":10923,"Ġapico":10924,"Ġtrajec":10925,"Ġextraction":10926,"drainage":10927,"Ġdeployed":10928,"Ġdepressions":10929,"ropneumothorax":10930,"Ġgoal":10931,"Ġadenoma":10932,"Ġyou":10933,"Ġyestard":10934,"Ġavail":10935,"Ġreferral":10936,"Ġmasqu":10937,"Ġlumb":10938,"ensation":10939,"Ġincarcer":10940,"Ġrhyth":10941,"Ġefffusion":10942,"Ġmaturation":10943,"tracking":10944,"Ġbihilar":10945,"Ġmanomet":10946,"Ġmaneu":10947,"Ġarterios":10948,"Ġquestionably":10949,"Ġsulcal":10950,"Ġdextropositioning":10951,"Ġfundal":10952,"Ġkyphoplasties":10953,"Ġfissue":10954,"ordotic":10955,"Ġdefines":10956,"Ġdefintie":10957,"Ġaml":10958,"Ġamylo":10959,"Ġamniotic":10960,"timates":10961,"Ġremotely":10962,"Ġannual":10963,"Ġwarts":10964,"shape":10965,"Ġalternate":10966,"Ġparamediastinum":10967,"Ġtends":10968,"Ġsubpulmonary":10969,"Ġfewer":10970,"Ġstriated":10971,"Ġmorgani":10972,"lucency":10973,"Ġresponding":10974,"Ġresponsive":10975,"Ġfarther":10976,"pros":10977,"proved":10978,"proven":10979,"progres":10980,"Ġcircuitous":10981,"confir":10982,"Ġpyopneumothorax":10983,"Ġwindowing":10984,"Ġsterni":10985,"Ġcostochond":10986,"Ġdirections":10987,"boembol":10988,"-___.":10989,"Ġthinner":10990,"Ġregardless":10991,"Ġspiculation":10992,"Ġtotality":10993,"Ġvaries":10994,"Ġscreen":10995,"Ġtempted":10996,"Ġblurs":10997,"Ġblurry":10998,"Ġmorphologies":10999,"torso":11000,"Ġradiologically":11001,"Ġsepticemia":11002,"Ġvsd":11003,"Ġnasojejunal":11004,"Ġmigrating":11005,"Ġhalfway":11006,"Ġcells":11007,"Ġpuncture":11008,"Ġpermitting":11009,"Ġdistinctness":11010,"Ġsuffering":11011,"Ġhorner":11012,"Ġcallback":11013,"tatively":11014,"Ġbenignity":11015,"Ġindented":11016,"Ġempy":11017,"Ġepipharynx":11018,"Ġkerly":11019,"Ġofficial":11020,"Ġhands":11021,"Ġvirtual":11022,"Ġsizing":11023,"Ġdrugs":11024,"Ġdispal":11025,"Ġobtainable":11026,"Ġcva":11027,"Ġossified":11028,"Ġcapable":11029,"Ġtermian":11030,"Ġ___%.":11031,"Ġurgency":11032,"Ġbatwing":11033,"Ġfindigns":11034,"Ġconsistency":11035,"Ġstemming":11036,"Ġlongitudin":11037,"Ġmeandering":11038,"Ġskinfolds":11039,"Ġofficers":11040,"Ġfluoroscopically":11041,"Ġeggshe":11042,"Ġosteoarthropathy":11043,"micu":11044,"Ġquantities":11045,"Ġreversing":11046,"cope":11047,"Ġoptimize":11048,"Ġbroadly":11049,"Ġspondylitis":11050,"hemo":11051,"Ġbursa":11052,"kles":11053,"Ġtranslucencies":11054,"Ġcapsular":11055,"losing":11056,"Ġnoticeably":11057,"Ġunderestimates":11058,"Ġinadvertant":11059,"bronchitis":11060,"Ġthromboembol":11061,"Ġdemarc":11062,"Ġbileaf":11063,"Ġopportunity":11064,"Ġpiriform":11065,"Ġputs":11066,"Ġtolerated":11067,"rugger":11068,"Ġreconsi":11069,"Ġparacardial":11070,"Ġsurprised":11071,"Ġencases":11072,"Ġencroach":11073,"developed":11074,"Ġrectum":11075,"teromedially":11076,"Ġresemble":11077,"Ġstarts":11078,"Ġdiverticulitis":11079,"Ġintensity":11080,"Ġfistul":11081,"Ġhumoral":11082,"Ġdiaphgrams":11083,"Ġelimination":11084,"Ġbicameral":11085,"Ġemphasizing":11086,"Ġleave":11087,"Ġhematology":11088,"formed":11089,"important":11090,"Ġprotocol":11091,"minimally":11092,"Ġsyncope":11093,"Ġbasiliar":11094,"Ġtherm":11095,"Ġchondral":11096,"Ġinversion":11097,"Ġintramuscular":11098,"Ġruq":11099,"Ġmacro":11100,"Ġopacitites":11101,"Ġextravasated":11102,"Ġparticle":11103,"Ġdependant":11104,"marks":11105,"pneumonitis":11106,"Ġpulmonar":11107,"Ġshortened":11108,"Ġhypodensity":11109,"Ġintestine":11110,"Ġcardiopulmon":11111,"Ġprotrudes":11112,"Ġilldef":11113,"Ġproceeding":11114,"Ġinconspic":11115,"Ġinsufficiently":11116,"Ġinhalational":11117,"multifocal":11118,"Ġdecipher":11119,"Ġprevioulsy":11120,"Ġoutpouching":11121,"kyphosis":11122,"Ġdubhoff":11123,"Ġexertion":11124,"Ġspatial":11125,"Ġiii":11126,"Ġeastern":11127,"Ġproliferative":11128,"Ġdisproportionately":11129,"suggesting":11130,"Ġcrackles":11131,"Ġbelongs":11132,"Ġexhibits":11133,"Ġguide":11134,"Ġperiodic":11135,"Ġsupplemental":11136,"inspiratory":11137,"Ġwatched":11138,"Ġfascial":11139,"Ġalleviated":11140,"Ġgau":11141,"Ġneuropath":11142,"Ġosteoporotic":11143,"Ġlymphangiographic":11144,"Ġumbilical":11145,"Ġumbilicus":11146,"volving":11147,"Ġischemia":11148,"Ġischemic":11149,"Ġfxs":11150,"Ġretrieval":11151,"Ġposteriolateral":11152,"Ġbronchioalveolar":11153,"Ġdrawn":11154,"deformity":11155,"Ġconnecting":11156,"Ġencompassed":11157,"Ġencompassing":11158,"decre":11159,"Ġamplatz":11160,"Ġhomogenous":11161,"lymphadenopathy":11162,"Ġveterbral":11163,"Ġvalues":11164,"Ġexperienced":11165,"attempt":11166,"Ġabsorption":11167,"Ġextracorpore":11168,"Ġmethotrex":11169,"Ġdishiscences":11170,"Ġfacilitate":11171,"Ġcerebral":11172,"Ġlandmarks":11173,"Ġeverywhere":11174,"Ġmatrix":11175,"Ġderangement":11176,"Ġuninterpretable":11177,"Ġinterrogation":11178,"Ġureter":11179,"Ġstudent":11180,"Ġscaffold":11181,"infarction":11182,"pseudoaneurysm":11183,"Ġshielded":11184,"Ġprospectively":11185,"contusion":11186,"correlate":11187,"Ġforeshortening":11188,"nodule":11189,"sarcoid":11190,"Ġankylosing":11191,"Ġanesthesia":11192,"Ġrigid":11193,"Ġconcordant":11194,"Ġsihouetting":11195,"chrond":11196,"Ġundiagnosed":11197,"Ġcomprehen":11198,"Ġensuring":11199,"Ġcontraindi":11200,"Ġinfraclavicular":11201,"Ġsupraspina":11202,"Ġepiglottitis":11203,"Ġtransplantation":11204,"Ġhooks":11205,"Ġarrhythmia":11206,"Ġmutliple":11207,"clips":11208,"clinical":11209,"mediastinoscopy":11210,"stenting":11211,"tissue":11212,"Ġobesity":11213,"Ġlaxity":11214,"diffuse":11215,"Ġtandem":11216,"atelectatic":11217,"Ġfrozen":11218,"Ġchylothorax":11219,"Ġpneumoconi":11220,"Ġundrained":11221,"Ġundisturbed":11222,"Ġuntreated":11223,"Ġunsharp":11224,"Ġcoexist":11225,"Ġprotracted":11226,"Ġpreponder":11227,"Ġsubscapular":11228,"Ġhemosta":11229,"Ġendoleak":11230,"Ġendarterectomy":11231,"Ġjiroveci":11232,"delineated":11233,"Ġrestored":11234,"Ġreservoir":11235,"Ġclockwise":11236,"Ġstatistically":11237,"Ġperilesional":11238,"Ġtranscription":11239,"Ġyestarday":11240,"Ġincarceration":11241,"Ġrhythm":11242,"Ġmanometry":11243,"Ġmaneuver":11244,"Ġamyloid":11245,"Ġeggshell":11246,"Ġthromboembolic":11247,"Ġbileaflet":11248,"Ġinconspicuous":11249,"Ġneuropathic":11250,"Ġextracorporeal":11251,"Ġmethotrexate":11252,"Ġcomprehensive":11253,"Ġsupraspinatus":11254,"%)":11255,"aed":11256,"abe":11257,"ais":11258,"atible":11259,"atation":11260,"apse":11261,"amative":11262,"bon":11263,"bre":11264,"bal":11265,"bra":11266,"blo":11267,"brea":11268,"cn":11269,"call":11270,"culature":11271,"cervical":11272,"centesis":11273,"cystic":11274,"carinal":11275,"corn":11276,"clavicle":11277,"dation":11278,"doc":11279,"dge":11280,"ease":11281,"etic":11282,"epi":11283,"eam":11284,"evolving":11285,"fly":11286,"filt":11287,"flets":11288,"gg":11289,"go":11290,"gas":11291,"gast":11292,"gital":11293,"gru":11294,"hn":11295,"hil":11296,"hic":11297,"hce":11298,"homogeneous":11299,"ior":11300,"itable":11301,"ilet":11302,"idity":11303,"image":11304,"jury":11305,"ked":11306,"lcu":11307,"loping":11308,"ming":11309,"mem":11310,"mend":11311,"non":11312,"nas":11313,"nament":11314,"nhy":11315,"nominate":11316,"odi":11317,"ores":11318,"opp":11319,"ody":11320,"oval":11321,"oined":11322,"odesis":11323,"olectomy":11324,"odic":11325,"omonia":11326,"obectomy":11327,"ojejunal":11328,"ositis":11329,"opacification":11330,"pneum":11331,"pent":11332,"pad":11333,"pathy":11334,"pare":11335,"pulmonic":11336,"posure":11337,"pitated":11338,"pneumonic":11339,"rural":11340,"rine":11341,"rsent":11342,"sol":11343,"tric":11344,"tates":11345,"tumor":11346,"ured":11347,"utes":11348,"vats":11349,"vanced":11350,"wa":11351,"wed":11352,"was":11353,"yling":11354,"zius":11355,"zoar":11356,"Ġding":11357,"Ġresent":11358,"Ġtent":11359,"inum":11360,"inced":11361,"intra":11362,"injury":11363,"innominate":11364,"onally":11365,"onitis":11366,"oncology":11367,"Ġares":11368,"Ġaver":11369,"Ġages":11370,"Ġaged":11371,"Ġajacent":11372,"Ġaim":11373,"Ġawa":11374,"ref":11375,"review":11376,"Ġthic":11377,"Ġthigh":11378,"Ġpron":11379,"Ġpens":11380,"Ġplas":11381,"Ġcs":11382,"Ġcas":11383,"Ġctu":11384,"Ġclu":11385,"Ġcard":11386,"Ġcecal":11387,"arr":11388,"aran":11389,"aragraph":11390,"sim":11391,"sich":11392,"teremia":11393,"lest":11394,"orial":11395,"oraneous":11396,"orrow":11397,"Ġnc":11398,"Ġnd":11399,"Ġnid":11400,"Ġnail":11401,"tian":11402,"tiges":11403,"tives":11404,"Ġsg":11405,"Ġsn":11406,"Ġsph":11407,"Ġsat":11408,"Ġsaph":11409,"Ġoth":11410,"Ġomin":11411,"Ġoment":11412,"Ġoap":11413,"Ġower":11414,"enic":11415,"enous":11416,"Ġlch":11417,"Ġlaryn":11418,"Ġlaryngeal":11419,"Ġlasix":11420,"ert":11421,"erate":11422,"eration":11423,"erading":11424,"asthma":11425,"esous":11426,"escribed":11427,"Ġinch":11428,"Ġincreas":11429,"Ġineff":11430,"Ġinvisible":11431,"Ġinert":11432,"Ġequ":11433,"Ġemesis":11434,"Ġmn":11435,"Ġmom":11436,"Ġmag":11437,"ried":11438,"dia":11439,"diton":11440,"acquired":11441,"acinar":11442,"Ġbm":11443,"Ġbron":11444,"Ġbout":11445,"Ġbial":11446,"oug":11447,"Ġwinding":11448,"Ġwant":11449,"Ġwoman":11450,"Ġwrit":11451,"Ġanf":11452,"Ġankle":11453,"rescence":11454,"tioning":11455,"ulopathy":11456,"Ġtpa":11457,"Ġtspine":11458,"Ġtouch":11459,"Ġtsicu":11460,"Ġhh":11461,"Ġhump":11462,"Ġhold":11463,"Ġhoff":11464,"Ġhint":11465,"atearl":11466,"Ġfen":11467,"Ġfamiliar":11468,"Ġfinger":11469,"malacia":11470,"rotation":11471,"rostomy":11472,"roduce":11473,"Ġconus":11474,"Ġconcurrence":11475,"Ġcongru":11476,"iliary":11477,"ics":11478,"icameral":11479,"icolectomy":11480,"Ġwise":11481,"Ġwiht":11482,"near":11483,"Ġpneumectomy":11484,"Ġvoic":11485,"taion":11486,"Ġlend":11487,"Ġwithe":11488,"rax":11489,"rams":11490,"idng":11491,"Ġsihouette":11492,"Ġcardiphrenic":11493,"ftsich":11494,"ently":11495,"Ġreass":11496,"Ġreduce":11497,"Ġretaining":11498,"Ġreaeration":11499,"Ġrebrea":11500,"Ġdates":11501,"Ġdoph":11502,"Ġdomin":11503,"Ġdress":11504,"Ġdbs":11505,"olding":11506,"olisthesis":11507,"olangi":11508,"omed":11509,"omic":11510,"omary":11511,"omedi":11512,"Ġchy":11513,"Ġchla":11514,"Ġchance":11515,"Ġchill":11516,"Ġcholangi":11517,"thora":11518,"Ġtoes":11519,"Ġtobac":11520,"Ġtoilet":11521,"Ġlogged":11522,"Ġpneumoretro":11523,"Ġorogr":11524,"Ġornament":11525,"terclock":11526,"terfly":11527,"sistence":11528,"ppy":11529,"itally":11530,"Ġunicameral":11531,"tuated":11532,"tubes":11533,"turn":11534,"earte":11535,"Ġself":11536,"physema":11537,"phag":11538,"physis":11539,"pharyngeal":11540,"lect":11541,"Ġbean":11542,"Ġbeha":11543,"Ġbegan":11544,"Ġbeside":11545,"Ġbezoar":11546,"Ġprola":11547,"Ġproof":11548,"Ġpropen":11549,"Ġproviding":11550,"stosis":11551,"streak":11552,"cut":11553,"cuff":11554,"cured":11555,"curac":11556,"cupy":11557,"ously":11558,"Ġsutural":11559,"Ġsuited":11560,"Ġsuitable":11561,"___%)":11562,"segment":11563,"Ġdete":11564,"Ġdebil":11565,"email":11566,"Ġlowe":11567,"Ġatectasis":11568,"Ġatelectasi":11569,"eting":11570,"Ġcardiome":11571,"ewall":11572,"Ġenfor":11573,"Ġconsolation":11574,"Ġedeam":11575,"Ġposs":11576,"Ġpositon":11577,"Ġexcess":11578,"Ġexogenous":11579,"Ġexlcu":11580,"Ġapposed":11581,"Ġapposition":11582,"Ġappoin":11583,"Ġapplic":11584,"occupy":11585,"Ġmole":11586,"Ġmoves":11587,"isation":11588,"Ġdilu":11589,"Ġdiath":11590,"Ġdieresis":11591,"Ġdiease":11592,"Ġdigital":11593,"Ġparen":11594,"Ġparec":11595,"Ġcontraction":11596,"ours":11597,"Ġliek":11598,"version":11599,"versible":11600,"versus":11601,"Ġratio":11602,"Ġabuse":11603,"tenuation":11604,"Ġradiogra":11605,"Ġradical":11606,"itiy":11607,"Ġsmallest":11608,"ective":11609,"Ġcardiacmediastinal":11610,"Ġintersiti":11611,"Ġintertitial":11612,"Ġuro":11613,"Ġbilobectomy":11614,"Ġbilatearl":11615,"Ġbilateraly":11616,"Ġappearant":11617,"Ġovercir":11618,"Ġoverpenetration":11619,"Ġoverpenetrated":11620,"Ġprev":11621,"Ġpreven":11622,"Ġpreprocedural":11623,"Ġtitle":11624,"arkably":11625,"getations":11626,"Ġcaught":11627,"keing":11628,"Ġperspec":11629,"Ġpercardial":11630,"Ġgol":11631,"Ġgib":11632,"Ġgown":11633,"added":11634,"Ġapn":11635,"oton":11636,"otope":11637,"otomies":11638,"Ġsubsided":11639,"Ġsubstance":11640,"Ġsubcostal":11641,"Ġsubtype":11642,"Ġsubpectoral":11643,"Ġsubdiaph":11644,"Ġenlarges":11645,"Ġmidhem":11646,"Ġmidchest":11647,"Ġmidabdomen":11648,"antly":11649,"attenuation":11650,"ticystic":11651,"Ġ___.)":11652,"Ġ___.,":11653,"romise":11654,"iror":11655,"Ġimply":11656,"Ġimposition":11657,"Ġimpart":11658,"Ġhemomediastinum":11659,"Ġhemicolectomy":11660,"Ġ130":11661,"dense":11662,"labe":11663,"lating":11664,"Ġaortal":11665,"performed":11666,"Ġsink":11667,"Ġjuc":11668,"Ġjoined":11669,"Ġreply":11670,"Ġreprsent":11671,"Ġbibasi":11672,"vcal":11673,"maged":11674,"achment":11675,"jecting":11676,"omycin":11677,"omycosis":11678,"allation":11679,"Ġdeflec":11680,"Ġresting":11681,"Ġreserve":11682,"Ġrespirator":11683,"Ġadrenal":11684,"Ġadditon":11685,"Ġdisce":11686,"Ġdismis":11687,"Ġspect":11688,"Ġspoke":11689,"Ġsporadi":11690,"Ġclosed":11691,"Ġscore":11692,"Ġscores":11693,"Ġcarme":11694,"Ġpostural":11695,"Ġbox":11696,"Ġbound":11697,"Ġhyer":11698,"Ġclinic":11699,"Ġvenogram":11700,"Ġparan":11701,"Ġthank":11702,"quamative":11703,"Ġexpress":11704,"Ġshared":11705,"Ġsupersed":11706,"Ġsuperadded":11707,"oster":11708,"ostasis":11709,"Ġmultifact":11710,"Ġmulticystic":11711,"Ġaccurac":11712,"Ġpacu":11713,"Ġtort":11714,"Ġart":11715,"Ġarte":11716,"Ġarmo":11717,"Ġarcing":11718,"ringothoracic":11719,"Ġpatten":11720,"Ġintrabdom":11721,"Ġlinq":11722,"Ġlinx":11723,"Ġhyperaerated":11724,"Ġhyperdynamic":11725,"Ġhyperkyphosis":11726,"Ġappropriateness":11727,"geneous":11728,"Ġ39":11729,"Ġmedium":11730,"Ġstatic":11731,"Ġstayed":11732,"Ġstaphy":11733,"expiration":11734,"expiratory":11735,"Ġcostopleural":11736,"ommod":11737,"Ġtee":11738,"Ġtesting":11739,"Ġtevar":11740,"Ġperimeter":11741,"Ġperipros":11742,"Ġdiffused":11743,"gorgement":11744,"Ġpersiste":11745,"Ġlocula":11746,"Ġmultiloc":11747,"tectable":11748,"Ġdrs":11749,"Ġdry":11750,"Ġtracheo":11751,"ormost":11752,"obasal":11753,"plen":11754,"Ġdraped":11755,"Ġemphys":11756,"Ġapproximatley":11757,"Ġblast":11758,"Ġbloc":11759,"Ġroto":11760,"Ġrope":11761,"Ġrotoscoliosis":11762,"Ġdetectably":11763,"Ġdistalmost":11764,"Ġdeserve":11765,"Ġdesquamative":11766,"Ġquarter":11767,"Ġassocia":11768,"Ġextents":11769,"compared":11770,"Ġconstrain":11771,"Ġvehic":11772,"Ġvegetations":11773,"Ġconstantly":11774,"Ġfiles":11775,"Ġdescribing":11776,"Ġlimite":11777,"Ġengorgements":11778,"ledge":11779,"Ġaerodi":11780,"incter":11781,"Ġzoster":11782,"Ġ53":11783,"Ġ56":11784,"Ġ59":11785,"Ġevaluations":11786,"loop":11787,"Ġaccord":11788,"Ġaccommod":11789,"Ġesophagoscopy":11790,"Ġlymphovascular":11791,"Ġnons":11792,"Ġtransvascular":11793,"Ġtranscribed":11794,"ectases":11795,"Ġvalidity":11796,"picc":11797,"picardial":11798,"picious":11799,"Ġconfluate":11800,"Ġallowed":11801,"Ġsustained":11802,"Ġfish":11803,"terogeneous":11804,"Ġaccompaniment":11805,"Ġswit":11806,"Ġswir":11807,"Ġphleb":11808,"Ġphoton":11809,"suspicious":11810,"Ġ63":11811,"Ġ65":11812,"Ġ68":11813,"Ġ600":11814,"Ġpredescribed":11815,"Ġtwisted":11816,"Ġreplace":11817,"Ġpredominates":11818,"Ġpulmo":11819,"Ġpulmoanry":11820,"Ġfibrin":11821,"Ġxrt":11822,"Ġperipheries":11823,"Ġhyperextension":11824,"Ġmalacia":11825,"Ġmalformation":11826,"Ġexcepting":11827,"Ġconvinced":11828,"Ġdozen":11829,"Ġupturn":11830,"Ġapicoposterior":11831,"Ġapicomedial":11832,"Ġcausative":11833,"Ġtrape":11834,"Ġgases":11835,"Ġgasseous":11836,"Ġgastropare":11837,"Ġneoplasia":11838,"Ġextracted":11839,"scale":11840,"Ġspecificity":11841,"Ġwithdrawl":11842,"Ġdepressing":11843,"Ġ734":11844,"Ġhemorrhages":11845,"agned":11846,"noary":11847,"noted":11848,"Ġosteopathy":11849,"Ġosteosclerosis":11850,"Ġosteotomies":11851,"Ġopc":11852,"Ġopening":11853,"Ġoptions":11854,"Ġopcity":11855,"Ġbronchiectases":11856,"Ġreceipt":11857,"Ġtreating":11858,"Ġfoot":11859,"Ġazygus":11860,"Ġphysiologically":11861,"Ġobstruct":11862,"Ġcommand":11863,"Ġdictates":11864,"Ġinca":11865,"Ġhydrated":11866,"Ġ90":11867,"Ġrf":11868,"Ġranges":11869,"Ġdistributions":11870,"Ġascend":11871,"Ġdeviate":11872,"Ġplau":11873,"Ġ(?":11874,"Ġ(~":11875,"Ġconvey":11876,"Ġparatrach":11877,"Ġirreversible":11878,"Ġlongterm":11879,"Ġsyst":11880,"Ġsyringothoracic":11881,"Ġdextrocon":11882,"positional":11883,"Ġcollapses":11884,"Ġconspicuously":11885,"Ġnotifications":11886,"Ġgravity":11887,"Ġgrafted":11888,"Ġfirm":11889,"Ġdefining":11890,"Ġballpoint":11891,"Ġambig":11892,"Ġaneurysms":11893,"Ġskull":11894,"lococ":11895,"Ġintroductory":11896,"Ġinitiation":11897,"Ġinitiated":11898,"Ġinitiating":11899,"Ġlordodic":11900,"Ġparamedial":11901,"about":11902,"Ġcontinual":11903,"Ġtenodesis":11904,"Ġmaker":11905,"Ġsubparagraph":11906,"lobulated":11907,"Ġhypoexpanded":11908,"Ġhypoventilated":11909,"Ġhypotensive":11910,"Ġreadout":11911,"Ġstripping":11912,"Ġdeterminate":11913,"000":11914,"Ġcoarsely":11915,"Ġneoesophageal":11916,"Ġbleomycin":11917,"Ġepicardium":11918,"Ġduodenojejunal":11919,"Ġrecognizing":11920,"Ġpyel":11921,"Ġwindows":11922,"Ġextravascular":11923,"Ġextrapericardial":11924,"Ġkeys":11925,"Ġcpr":11926,"Ġdesirable":11927,"Ġcoarser":11928,"Ġelectively":11929,"Ġmisaligned":11930,"Ġmislabe":11931,"iciations":11932,"sparing":11933,"both":11934,"middle":11935,"udad":11936,"Ġpedicular":11937,"Ġplump":11938,"Ġtook":11939,"Ġevolved":11940,"Ġplugged":11941,"ociation":11942,"Ġinfiltrations":11943,"Ġbloody":11944,"Ġchannels":11945,"called":11946,"metallic":11947,"urgently":11948,"obstruction":11949,"obstructed":11950,"Ġcoincidental":11951,"Ġlipoid":11952,"Ġliposarcoma":11953,"Ġaffection":11954,"Ġcoalesce":11955,"operitoneum":11956,"Ġorders":11957,"Ġslowed":11958,"Ġhalo":11959,"Ġdestructions":11960,"adiology":11961,"Ġlevosc":11962,"Ġvarus":11963,"Ġvariably":11964,"Ġdepiction":11965,"Ġhospitals":11966,"Ġpunctuated":11967,"Ġwidest":11968,"second":11969,"Ġpea":11970,"Ġpeep":11971,"Ġventriculostomy":11972,"Ġventriculopleural":11973,"Ġdorsally":11974,"Ġcannulated":11975,"dynamically":11976,"Ġaortocaval":11977,"Ġtemporarily":11978,"Ġrecording":11979,"Ġapicolaterally":11980,"Ġexacerbating":11981,"Ġradioopacity":11982,"Ġorganoax":11983,"Ġseemed":11984,"iodol":11985,"Ġepipericardial":11986,"ugue":11987,"Ġindentations":11988,"Ġoffices":11989,"Ġcraniad":11990,"Ġdissociation":11991,"Ġparathoracic":11992,"consolidations":11993,"Ġmie":11994,"Ġbroch":11995,"Ġdiagnosing":11996,"mentioned":11997,"Ġ??":11998,"Ġhowver":11999,"Ġforming":12000,"Ġbiggest":12001,"Ġdysphag":12002,"Ġligamentum":12003,"Ġrealized":12004,"Ġquantified":12005,"Ġcapillary":12006,"Ġexacerbations":12007,"Ġpleurocentesis":12008,"Ġobjectively":12009,"Ġmicronodulation":12010,"Ġanterolaterally":12011,"Ġcomplemented":12012,"Ġatelectsis":12013,"Ġhugely":12014,"Ġfloating":12015,"Ġfloppy":12016,"Ġ#___.":12017,"Ġcervicomediastinal":12018,"Ġfinings":12019,"Ġbronchomalacia":12020,"cations":12021,"Ġcontralaterally":12022,"Ġrisks":12023,"Ġossifications":12024,"Ġdysfunctional":12025,"Ġperitonitis":12026,"Ġoperatively":12027,"Ġpanacinar":12028,"Ġflexible":12029,"Ġwane":12030,"Ġresorptive":12031,"Ġsuprabasal":12032,"aximal":12033,"Ġerrant":12034,"Ġercp":12035,"directed":12036,"Ġductus":12037,"Ġfeatureless":12038,"Ġlending":12039,"Ġinferoposterior":12040,"Ġquantitation":12041,"Ġidea":12042,"Ġmusculature":12043,"Ġviscous":12044,"supp":12045,"Ġmrcp":12046,"Ġdisruptions":12047,"Ġdamaged":12048,"ocytop":12049,"Ġpalpi":12050,"Ġcrease":12051,"Ġoptimization":12052,"Ġspondylolisthesis":12053,"Ġfluctuation":12054,"Ġsacrum":12055,"Ġcryptococ":12056,"Ġbursal":12057,"Ġbursitis":12058,"Ġvasculitic":12059,"Ġhemidiap":12060,"Ġlymphatics":12061,"--___,":12062,"Ġmechanics":12063,"Ġcolumns":12064,"Ġadmi":12065,"Ġpractice":12066,"Ġdiversion":12067,"Ġdegenerated":12068,"Ġimmunocompromise":12069,"Ġmammography":12070,"Ġchemical":12071,"Ġknowing":12072,"Ġknowledge":12073,"Ġvisit":12074,"Ġassymteric":12075,"postsurgical":12076,"wire":12077,"Ġexcretion":12078,"Ġmicroatelectasis":12079,"Ġarisen":12080,"Ġinjected":12081,"Ġrecesses":12082,"Ġlacerations":12083,"Ġfossae":12084,"Ġanterolisthesis":12085,"Ġinstallation":12086,"Ġjudgment":12087,"Ġthrombocytop":12088,"Ġdesignation":12089,"Ġdesignated":12090,"Ġerosions":12091,"Ġeroded":12092,"Ġlocalizer":12093,"collapsed":12094,"Ġinhibit":12095,"Ġbronchospastic":12096,"Ġdegradation":12097,"Ġvaricoid":12098,"volemic":12099,"Ġestablishing":12100,"Ġinstrument":12101,"Ġoxygenation":12102,"Ġpinched":12103,"Ġprevents":12104,"Ġdiaphgram":12105,"Ġbiceps":12106,"Ġemphasize":12107,"Ġemphasizes":12108,"Ġleaflets":12109,"Ġappliance":12110,"Ġweights":12111,"Ġtendons":12112,"Ġselect":12113,"Ġmodearte":12114,"Ġinappropriately":12115,"Ġuncooperative":12116,"Ġclinicians":12117,"Ġdescribes":12118,"Ġinverted":12119,"Ġvolun":12120,"Ġrows":12121,"Ġlaminar":12122,"Ġinfluenced":12123,"Ġsigmoidal":12124,"Ġperpendicularly":12125,"Ġopacifiation":12126,"Ġmetaphysis":12127,"Ġcraniocaudad":12128,"Ġbentall":12129,"Ġtachypnea":12130,"Ġconverging":12131,"Ġposterobasal":12132,"Ġspots":12133,"Ġtests":12134,"Ġconcealing":12135,"marker":12136,"Ġpulmonology":12137,"Ġpneumothrax":12138,"Ġtechniqe":12139,"Ġmanipulated":12140,"Ġdynamics":12141,"Ġrendering":12142,"Ġunchagned":12143,"Ġaddress":12144,"osteomyelitis":12145,"Ġ360":12146,"Ġmanifests":12147,"Ġmanifesting":12148,"Ġdecidedly":12149,"Ġclothes":12150,"Ġmalfunctioning":12151,"Ġtracheobronchomalacia":12152,"multi":12153,"Ġbundle":12154,"Ġdissected":12155,"expanding":12156,"Ġtraveling":12157,"Ġbacteremia":12158,"Ġtomorrow":12159,"Ġexert":12160,"Ġagreement":12161,"Ġthoroughly":12162,"Ġaccomplish":12163,"Ġdiscriminating":12164,"Ġhoars":12165,"Ġengage":12166,"Ġ___.___,":12167,"Ġarrange":12168,"improvement":12169,"Ġtags":12170,"Ġrelieved":12171,"Ġrelief":12172,"Ġdropping":12173,"Ġguess":12174,"Ġcandidates":12175,"prominence":12176,"Ġcartilages":12177,"Ġencasement":12178,"Ġcardiopulm":12179,"Ġcrus":12180,"Ġallegedly":12181,"Ġgauge":12182,"Ġgently":12183,"Ġinforadiology":12184,"Ġhemorrage":12185,"Ġconstriction":12186,"Ġneurom":12187,"Ġlymphangiomyomatosis":12188,"bronchiolitis":12189,"Ġarguably":12190,"Ġmurmurs":12191,"Ġluftsich":12192,"Ġcocci":12193,"Ġbuttons":12194,"Ġhappy":12195,"Ġhappened":12196,"obliqu":12197,"deformities":12198,"Ġempirically":12199,"Ġconnective":12200,"Ġulceration":12201,"Ġunderexposure":12202,"Ġhomogeneity":12203,"Ġvaugue":12204,"Ġveterbra":12205,"Ġopacifiction":12206,"Ġexcised":12207,"Ġexcrescence":12208,"Ġexperiencing":12209,"Ġprecipitated":12210,"Ġsubcutan":12211,"attempted":12212,"Ġabsorbed":12213,"Ġextracardiac":12214,"Ġmethod":12215,"Ġdishiscence":12216,"mydia":12217,"status":12218,"Ġalerted":12219,"Ġredistribu":12220,"Ġredistrub":12221,"Ġcardiomedias":12222,"Ġuppper":12223,"Ġstops":12224,"Ġovershadowed":12225,"Ġtightly":12226,"Ġsubmaximal":12227,"Ġassesment":12228,"Ġsupposedly":12229,"Ġsweep":12230,"Ġsweats":12231,"Ġirritation":12232,"Ġmorbidly":12233,"Ġcontemplated":12234,"Ġcontemporaneous":12235,"Ġconnector":12236,"Ġmeaningful":12237,"Ġneurology":12238,"Ġpneuomonia":12239,"followup":12240,"Ġpreviosly":12241,"Ġpreviosuly":12242,"carina":12243,"fractures":12244,"Ġavium":12245,"Ġintentionally":12246,"Ġharb":12247,"Ġhopefully":12248,"Ġconerning":12249,"Ġrewiring":12250,"Ġcounterclock":12251,"Ġpopcorn":12252,"Ġdiagonally":12253,"Ġimperceptible":12254,"Ġexagerrated":12255,"Ġdisorganization":12256,"Ġpossiblity":12257,"Ġpersistenly":12258,"Ġinstitutions":12259,"Ġfilamentous":12260,"Ġtransverses":12261,"Ġtrabecular":12262,"Ġmyelo":12263,"Ġtruncated":12264,"Ġafforded":12265,"Ġstrictly":12266,"Ġcorroborating":12267,"Ġrecrudescent":12268,"Ġpersisitent":12269,"centuated":12270,"evidence":12271,"fourth":12272,"presumed":12273,"residual":12274,"sixth":12275,"Ġossesous":12276,"Ġethiodol":12277,"Ġvestiges":12278,"Ġplexopathy":12279,"Ġsidewall":12280,"Ġdrive":12281,"Ġunresponsive":12282,"Ġcoagulopathy":12283,"Ġcoordinator":12284,"Ġdetracts":12285,"Ġcompliance":12286,"Ġabducted":12287,"Ġradigraphs":12288,"Ġinfilter":12289,"Ġunremakable":12290,"Ġparadox":12291,"Ġexplore":12292,"Ġwashout":12293,"Ġfulfill":12294,"Ġphyscian":12295,"Ġtrajectory":12296,"Ġavailability":12297,"Ġmasquerading":12298,"Ġarteriosum":12299,"Ġcostochondritis":12300,"Ġempyemas":12301,"Ġdispalced":12302,"Ġtermiantes":12303,"Ġlongitudinally":12304,"hemodynamically":12305,"Ġthermometer":12306,"Ġilldefined":12307,"Ġtandemheart":12308,"Ġpneumoconiosis":12309,"Ġpreponderance":12310,"Ġhemostats":12311,"blood":12312,"docum":12313,"goiter":12314,"nasogastric":12315,"wedge":12316,"Ġareseen":12317,"Ġaverage":12318,"Ġthickeing":12319,"Ġpronou":12320,"Ġplasm":12321,"Ġnidus":12322,"Ġnails":12323,"Ġsphincter":12324,"Ġsaphenous":12325,"Ġominous":12326,"Ġomentum":12327,"Ġoapcity":12328,"Ġlaryng":12329,"Ġineffective":12330,"Ġbialteral":12331,"Ġwritten":12332,"Ġcongruent":12333,"Ġvoicemail":12334,"Ġreassuring":12335,"Ġrebreather":12336,"Ġdophoff":12337,"Ġchlamydia":12338,"Ġchills":12339,"Ġcholangiocarcinoma":12340,"Ġtobacco":12341,"Ġpneumoretroperitoneum":12342,"Ġorograstric":12343,"Ġpropensity":12344,"streaky":12345,"Ġappointment":12346,"Ġapplicable":12347,"occupying":12348,"Ġdiathesis":12349,"Ġparecnhy":12350,"Ġliekly":12351,"Ġovercirc":12352,"Ġprevented":12353,"Ġperspective":12354,"Ġmidhemi":12355,"Ġdismissed":12356,"Ġcarmel":12357,"Ġboundaries":12358,"Ġmultifactorial":12359,"Ġaccuracy":12360,"Ġarmored":12361,"Ġintrabdominal":12362,"Ġstaphylococ":12363,"Ġperiprosthetic":12364,"Ġmultilocular":12365,"Ġvehicle":12366,"Ġaerodigestive":12367,"Ġaccordance":12368,"Ġtrapezius":12369,"Ġgastroparesis":12370,"Ġdextroconcave":12371,"Ġorganoaxial":12372,"Ġdysphagia":12373,"Ġhoarseness":12374,"Ġluftsichel":12375,"Ġcounterclockwise":12376,"\".":12377,"'d":12378,"**":12379,",\"":12380,"-,":12381,"100":12382,"601":12383,">___%)":12384,"?.":12385,"?).":12386,"aor":12387,"aul":12388,"ages":12389,"ather":12390,"agular":12391,"aging":12392,"aties":12393,"bble":12394,"band":12395,"bale":12396,"cg":12397,"cen":12398,"case":12399,"cula":12400,"crow":12401,"cling":12402,"cological":12403,"crural":12404,"da":12405,"do":12406,"dt":12407,"dor":12408,"dural":12409,"dated":12410,"dable":12411,"due":12412,"dob":12413,"ev":12414,"eal":12415,"eres":12416,"eft":12417,"ever":12418,"eities":12419,"ell":12420,"eving":12421,"eek":12422,"eoplastic":12423,"fed":12424,"fan":12425,"fis":12426,"fron":12427,"fecta":12428,"fist":12429,"furcation":12430,"fused":12431,"fdg":12432,"gt":12433,"gul":12434,"gmon":12435,"gtail":12436,"gleno":12437,"gatory":12438,"hal":12439,"het":12440,"hia":12441,"haph":12442,"hbo":12443,"hart":12444,"ii":12445,"ith":12446,"ience":12447,"ivc":12448,"iorr":12449,"ims":12450,"impression":12451,"isilar":12452,"iomyomatosis":12453,"itatively":12454,"ki":12455,"kly":12456,"lr":12457,"lte":12458,"llar":12459,"ldy":12460,"later":12461,"losed":12462,"lcome":12463,"litting":12464,"lordotic":12465,"lming":12466,"mer":12467,"mri":12468,"mun":12469,"mate":12470,"main":12471,"muc":12472,"mma":12473,"momediastinum":12474,"mester":12475,"morph":12476,"nin":12477,"nar":12478,"nor":12479,"nded":12480,"nus":12481,"none":12482,"nipple":12483,"nace":12484,"ov":12485,"och":12486,"orec":12487,"ount":12488,"ounced":12489,"osities":12490,"oap":12491,"orement":12492,"ovol":12493,"oius":12494,"oerate":12495,"pes":12496,"pation":12497,"poc":12498,"pine":12499,"pla":12500,"plate":12501,"pag":12502,"piss":12503,"pcp":12504,"pneumo":12505,"qual":12506,"run":12507,"rtion":12508,"rut":12509,"rue":12510,"rll":12511,"rason":12512,"rpo":12513,"rfa":12514,"rgam":12515,"sv":12516,"sw":12517,"scess":12518,"some":12519,"stern":12520,"srated":12521,"stically":12522,"stitution":12523,"stability":12524,"since":12525,"screte":12526,"tn":12527,"tac":12528,"tot":12529,"tined":12530,"tty":12531,"tiny":12532,"tology":12533,"tling":12534,"tvr":12535,"tachy":12536,"two":12537,"trasc":12538,"tours":12539,"uer":12540,"uch":12541,"utic":12542,"uture":12543,"utation":12544,"uterized":12545,"va":12546,"vp":12547,"vs":12548,"via":12549,"vular":12550,"vical":12551,"vasive":12552,"wn":12553,"ws":12554,"whe":12555,"wall":12556,"water":12557,"xe":12558,"ye":12559,"yn":12560,"yt":12561,"ymal":12562,"yten":12563,"yical":12564,"ytic":12565,"yel":12566,"yseal":12567,"Ġ=":12568,"Ġ[":12569,"Ġral":12570,"Ġung":12571,"Ġran":12572,"Ġesoph":12573,"Ġronchial":12574,"thar":12575,"thus":12576,"three":12577,"inary":12578,"ination":12579,"inst":12580,"inical":12581,"into":12582,"intern":12583,"inserted":12584,"inantly":12585,"invasive":12586,"onic":12587,"onia":12588,"onset":12589,"Ġay":12590,"Ġaz":12591,"Ġaus":12592,"Ġathough":12593,"Ġarotic":12594,"Ġaleft":12595,"Ġaip":12596,"rela":12597,"regular":12598,"reple":12599,"reticular":12600,"recurrent":12601,"retrac":12602,"reverse":12603,"repe":12604,"revalve":12605,"replacement":12606,"reported":12607,"Ġthry":12608,"alp":12609,"alr":12610,"albe":12611,"Ġpf":12612,"Ġpun":12613,"Ġpolar":12614,"Ġptosis":12615,"Ġtheleft":12616,"Ġthelungs":12617,"Ġcj":12618,"Ġced":12619,"Ġcra":12620,"Ġclac":12621,"Ġcance":12622,"Ġcrib":12623,"Ġcup":12624,"Ġcect":12625,"Ġceri":12626,"arre":12627,"aral":12628,"artion":12629,"aria":12630,"arters":12631,"articulation":12632,"artifact":12633,"sio":12634,"site":12635,"sider":12636,"sibility":12637,"sici":12638,"siella":12639,"tee":12640,"tele":12641,"tely":12642,"telectasis":12643,"tette":12644,"least":12645,"legmon":12646,"leiomyomatosis":12647,"lemma":12648,"orthorax":12649,"orces":12650,"ortional":12651,"Ġib":12652,"Ġid":12653,"Ġion":12654,"Ġiron":12655,"Ġiod":12656,"Ġiincreased":12657,"Ġncreased":12658,"Ġnut":12659,"Ġnat":12660,"Ġneeding":12661,"Ġnicu":12662,"tied":12663,"tiing":12664,"tiary":12665,"tich":12666,"titive":12667,"tios":12668,"tips":12669,"tized":12670,"titrypsin":12671,"Ġsm":12672,"Ġss":12673,"Ġsun":12674,"Ġspac":12675,"Ġslu":12676,"Ġstic":12677,"Ġspiration":12678,"Ġslower":12679,"Ġsling":12680,"Ġsni":12681,"Ġsensation":12682,"Ġove":12683,"Ġoderate":12684,"Ġomental":12685,"ena":12686,"ential":12687,"enrative":12688,"enhancement":12689,"enterostomy":12690,"entie":12691,"engorgement":12692,"Ġld":12693,"Ġlac":12694,"Ġlis":12695,"Ġlunc":12696,"Ġlsc":12697,"Ġlag":12698,"Ġlleft":12699,"Ġlunar":12700,"Ġisnot":12701,"Ġismid":12702,"ery":12703,"eron":12704,"erred":12705,"erving":12706,"erging":12707,"ercosis":12708,"Ġnop":12709,"asliar":12710,"esema":12711,"escent":12712,"Ġintent":12713,"Ġinline":12714,"Ġinsure":12715,"Ġintub":12716,"Ġinstance":12717,"Ġinapparent":12718,"Ġinherent":12719,"Ġef":12720,"Ġele":12721,"Ġemin":12722,"Ġeat":12723,"Ġeating":12724,"Ġect":12725,"Ġefusions":12726,"Ġephysema":12727,"Ġeye":12728,"Ġment":12729,"Ġmach":12730,"Ġmail":12731,"Ġmolar":12732,"Ġmproved":12733,"rier":12734,"rient":12735,"ingently":12736,"diac":12737,"diation":12738,"dited":12739,"dilation":12740,"dilatation":12741,"dioid":12742,"dilator":12743,"dimentary":12744,"dicual":12745,"dimer":12746,"acral":12747,"acities":12748,"access":12749,"acting":12750,"acement":12751,"accomp":12752,"activation":12753,"Ġba":12754,"Ġbu":12755,"Ġbear":12756,"Ġbad":12757,"Ġbus":12758,"Ġbiz":12759,"Ġbump":12760,"Ġbright":12761,"Ġbcg":12762,"untable":12763,"mpath":12764,"mposed":12765,"ourable":12766,"ouette":12767,"Ġwears":12768,"Ġwks":12769,"Ġange":12770,"Ġanteromedially":12771,"Ġanuer":12772,"ullar":12773,"ani":12774,"any":12775,"anied":12776,"ancies":12777,"antitrypsin":12778,"Ġtv":12779,"Ġtang":12780,"Ġtine":12781,"Ġtong":12782,"Ġtvr":12783,"Ġtrophic":12784,"ghram":12785,"Ġhte":12786,"Ġhung":12787,"Ġhowe":12788,"Ġhind":12789,"Ġhub":12790,"Ġhost":12791,"Ġhinder":12792,"Ġharder":12793,"atement":12794,"Ġareation":12795,"Ġft":12796,"Ġfading":12797,"Ġfresh":12798,"Ġfna":12799,"malpositioned":12800,"rolateral":12801,"royed":12802,"rodesis":12803,"roiliac":12804,"Ġrigth":12805,"Ġriht":12806,"Ġconcur":12807,"Ġconcer":12808,"Ġconcrete":12809,"ilib":12810,"ilovol":12811,"icty":12812,"icult":12813,"neo":12814,"nece":12815,"nets":12816,"neuro":12817,"Ġpneumthorax":12818,"Ġpneumomedi":12819,"Ġpneumorthorax":12820,"Ġvc":12821,"Ġvent":12822,"Ġvess":12823,"Ġvital":12824,"tak":12825,"tamp":12826,"tamin":12827,"tavr":12828,"tabular":12829,"Ġlef":12830,"Ġlethar":12831,"Ġthereis":12832,"Ġwithing":12833,"Ġwithou":12834,"Ġeffuison":12835,"Ġeffuion":12836,"Ġeffusio":12837,"rably":12838,"raion":12839,"ratory":12840,"ratrial":12841,"urally":12842,"Ġlungfi":12843,"idcated":12844,"Ġsic":12845,"Ġsiad":12846,"Ġcardica":12847,"Ġcardiologist":12848,"Ġreop":12849,"Ġremin":12850,"Ġreper":12851,"Ġreinf":12852,"Ġretain":12853,"Ġreab":12854,"Ġredic":12855,"Ġrelocation":12856,"Ġreoriented":12857,"Ġreexamined":12858,"Ġreception":12859,"Ġdance":12860,"Ġdove":12861,"Ġdwelling":12862,"Ġdumb":12863,"Ġduly":12864,"Ġdull":12865,"Ġdomed":12866,"ola":12867,"olly":12868,"olution":12869,"ollection":12870,"olordotic":12871,"omities":12872,"omatic":12873,"omend":12874,"Ġchst":12875,"Ġchrac":12876,"Ġchunk":12877,"Ġchorn":12878,"Ġchurg":12879,"Ġchori":12880,"Ġtox":12881,"Ġtole":12882,"Ġtowe":12883,"emergency":12884,"embered":12885,"Ġlocu":12886,"Ġloaded":12887,"Ġpneumoper":12888,"Ġpneumohydro":12889,"Ġpneumopathy":12890,"Ġorally":12891,"tering":12892,"terval":12893,"sisted":12894,"chon":12895,"chotomy":12896,"itc":12897,"Ġunn":12898,"Ġunspec":12899,"Ġunited":12900,"Ġunchan":12901,"Ġunseen":12902,"Ġunhealed":12903,"Ġunrel":12904,"earli":12905,"Ġsets":12906,"Ġsequal":12907,"Ġcoin":12908,"Ġcode":12909,"Ġcoherent":12910,"Ġcobble":12911,"bepicardial":12912,"Ġnormality":12913,"phoned":12914,"phritis":12915,"phram":12916,"celain":12917,"cetd":12918,"Ġbell":12919,"Ġprox":12920,"Ġproges":12921,"Ġprotec":12922,"Ġproving":12923,"Ġproves":12924,"Ġprohibit":12925,"stone":12926,"stomies":12927,"stinum":12928,"Ġopacit":12929,"Ġopacify":12930,"Ġsupper":12931,"Ġsubepicardial":12932,"sequ":12933,"sect":12934,"septal":12935,"Ġdel":12936,"Ġdege":12937,"Ġdeple":12938,"Ġcomply":12939,"Ġcompris":12940,"Ġcompound":12941,"Ġcomputer":12942,"Ġcomputerized":12943,"emaking":12944,"Ġlowered":12945,"Ġatec":12946,"Ġateral":12947,"Ġatelectaiss":12948,"Ġatelectaisis":12949,"Ġatelectasiss":12950,"Ġcardiomge":12951,"Ġmilldy":12952,"Ġenema":12953,"Ġenable":12954,"Ġenvelop":12955,"Ġentail":12956,"Ġentailed":12957,"Ġensu":12958,"Ġensued":12959,"Ġconsol":12960,"Ġconserv":12961,"Ġconsod":12962,"Ġconstip":12963,"Ġedma":12964,"Ġedena":12965,"Ġconsolidatin":12966,"iam":12967,"iaml":12968,"Ġatrophic":12969,"Ġexci":12970,"Ġexophy":12971,"Ġaspi":12972,"Ġasplen":12973,"occlu":12974,"ociated":12975,"occurred":12976,"ocost":12977,"ocranial":12978,
[...]
